{
  "version": "1.0",
  "truncation": null,
  "padding": null,
  "added_tokens": [],
  "normalizer": {
    "type": "NFKD"
  },
  "pre_tokenizer": {
    "type": "Sequence",
    "pretokenizers": [
      {
        "type": "Split",
        "pattern": {
          "Regex": "(?i:'s|'t|'re|'ve|'m|'ll|'d)|[^\r\n\\p{L}\\p{N}]?\\p{L}+|\\p{N}{1,3}| ?[^\\s\\p{L}\\p{N}]+[\r\n]*|\\s*[\r\n]+|\\s+(?!\\S)|\\s+"
        },
        "behavior": "Removed",
        "invert": true
      },
      {
        "type": "ByteLevel",
        "add_prefix_space": false,
        "trim_offsets": true,
        "use_regex": false
      }
    ]
  },
  "post_processor": null,
  "decoder": {
    "type": "ByteLevel",
    "add_prefix_space": true,
    "trim_offsets": true,
    "use_regex": true
  },
  "model": {
    "type": "BPE",
    "dropout": null,
    "unk_token": null,
    "continuing_subword_prefix": null,
    "end_of_word_suffix": null,
    "fuse_unk": false,
    "byte_fallback": false,
    "vocab": {
      "!": 0,
      "\"": 1,
      "#": 2,
      "$": 3,
      "%": 4,
      "&": 5,
      "'": 6,
      "(": 7,
      ")": 8,
      "*": 9,
      "+": 10,
      ",": 11,
      "-": 12,
      ".": 13,
      "/": 14,
      "0": 15,
      "1": 16,
      "2": 17,
      "3": 18,
      "4": 19,
      "5": 20,
      "6": 21,
      "7": 22,
      "8": 23,
      "9": 24,
      ":": 25,
      ";": 26,
      "<": 27,
      "=": 28,
      ">": 29,
      "?": 30,
      "@": 31,
      "A": 32,
      "B": 33,
      "C": 34,
      "D": 35,
      "E": 36,
      "F": 37,
      "G": 38,
      "H": 39,
      "I": 40,
      "J": 41,
      "K": 42,
      "L": 43,
      "M": 44,
      "N": 45,
      "O": 46,
      "P": 47,
      "Q": 48,
      "R": 49,
      "S": 50,
      "T": 51,
      "U": 52,
      "V": 53,
      "W": 54,
      "X": 55,
      "Y": 56,
      "Z": 57,
      "[": 58,
      "\\": 59,
      "]": 60,
      "^": 61,
      "_": 62,
      "`": 63,
      "a": 64,
      "b": 65,
      "c": 66,
      "d": 67,
      "e": 68,
      "f": 69,
      "g": 70,
      "h": 71,
      "i": 72,
      "j": 73,
      "k": 74,
      "l": 75,
      "m": 76,
      "n": 77,
      "o": 78,
      "p": 79,
      "q": 80,
      "r": 81,
      "s": 82,
      "t": 83,
      "u": 84,
      "v": 85,
      "w": 86,
      "x": 87,
      "y": 88,
      "z": 89,
      "{": 90,
      "|": 91,
      "}": 92,
      "~": 93,
      "¡": 94,
      "¢": 95,
      "£": 96,
      "¤": 97,
      "¥": 98,
      "¦": 99,
      "§": 100,
      "¨": 101,
      "©": 102,
      "ª": 103,
      "«": 104,
      "¬": 105,
      "®": 106,
      "¯": 107,
      "°": 108,
      "±": 109,
      "²": 110,
      "³": 111,
      "´": 112,
      "µ": 113,
      "¶": 114,
      "·": 115,
      "¸": 116,
      "¹": 117,
      "º": 118,
      "»": 119,
      "¼": 120,
      "½": 121,
      "¾": 122,
      "¿": 123,
      "Â": 124,
      "Ã": 125,
      "Ä": 126,
      "Å": 127,
      "Æ": 128,
      "É": 129,
      "Ë": 130,
      "Ì": 131,
      "Î": 132,
      "Ï": 133,
      "Ð": 134,
      "Ñ": 135,
      "Ò": 136,
      "×": 137,
      "Ø": 138,
      "Ù": 139,
      "à": 140,
      "á": 141,
      "â": 142,
      "ã": 143,
      "ä": 144,
      "å": 145,
      "æ": 146,
      "ç": 147,
      "è": 148,
      "é": 149,
      "Ċ": 150,
      "Ġ": 151,
      "Ģ": 152,
      "ģ": 153,
      "Ĥ": 154,
      "ĥ": 155,
      "Ħ": 156,
      "ħ": 157,
      "Ĩ": 158,
      "ĩ": 159,
      "Ī": 160,
      "ī": 161,
      "Ĭ": 162,
      "ĭ": 163,
      "Į": 164,
      "į": 165,
      "İ": 166,
      "ı": 167,
      "Ĳ": 168,
      "ĳ": 169,
      "Ĵ": 170,
      "ĵ": 171,
      "Ķ": 172,
      "ķ": 173,
      "ĸ": 174,
      "Ĺ": 175,
      "ĺ": 176,
      "Ļ": 177,
      "ļ": 178,
      "Ľ": 179,
      "ľ": 180,
      "Ŀ": 181,
      "ŀ": 182,
      "Ł": 183,
      "ł": 184,
      "Ń": 185,
      "áĦ": 186,
      "áħ": 187,
      "er": 188,
      "en": 189,
      "an": 190,
      "ar": 191,
      "in": 192,
      "th": 193,
      "on": 194,
      "es": 195,
      "áĨ": 196,
      "Ìģ": 197,
      "or": 198,
      "áħ¡": 199,
      "al": 200,
      "is": 201,
      "re": 202,
      "at": 203,
      "se": 204,
      "ch": 205,
      "Ġth": 206,
      "de": 207,
      "le": 208,
      "te": 209,
      "as": 210,
      "to": 211,
      "ou": 212,
      "ro": 213,
      "ra": 214,
      "il": 215,
      "áĦĥ": 216,
      "me": 217,
      "do": 218,
      "it": 219,
      "Ġs": 220,
      "Ġh": 221,
      "co": 222,
      "Ġthe": 223,
      "el": 224,
      "Ġw": 225,
      "áĦĥáħ¡": 226,
      "un": 227,
      "ri": 228,
      "and": 229,
      ".Ċ": 230,
      "ti": 231,
      "ma": 232,
      "áĦĭ": 233,
      "ta": 234,
      "li": 235,
      "la": 236,
      "da": 237,
      "áħµ": 238,
      "ing": 239,
      "Ġb": 240,
      "Ġo": 241,
      "Ġf": 242,
      "Ġp": 243,
      "ca": 244,
      "ci": 245,
      "us": 246,
      "Ìĥ": 247,
      "lo": 248,
      "di": 249,
      "Ġa": 250,
      "Ġn": 251,
      "ve": 252,
      "ho": 253,
      "áĦĢ": 254,
      "ur": 255,
      "ent": 256,
      "qu": 257,
      "Ver": 258,
      "Ġm": 259,
      "ir": 260,
      "áĨ«": 261,
      "ter": 262,
      "ce": 263,
      "ÌĪ": 264,
      "Ġde": 265,
      "Ìĥo": 266,
      "áħ©": 267,
      "Verse": 268,
      "Ġof": 269,
      "ge": 270,
      "im": 271,
      "áĦĴ": 272,
      "ver": 273,
      "st": 274,
      "áħ®": 275,
      "ie": 276,
      "Ġand": 277,
      "áĨ¼": 278,
      "ia": 279,
      "áĦĮ": 280,
      "áħ¥": 281,
      "ĠS": 282,
      "ig": 283,
      "com": 284,
      "ol": 285,
      "ed": 286,
      "áĦī": 287,
      "am": 288,
      "ĠJ": 289,
      "os": 290,
      "ĠA": 291,
      "Ì§": 292,
      "ĠD": 293,
      "áĨ¯": 294,
      "et": 295,
      "Ġis": 296,
      "ion": 297,
      "Ġto": 298,
      "ÌĤ": 299,
      "ÌģĊ": 300,
      "à¸": 301,
      "Ġin": 302,
      "Ġe": 303,
      "ab": 304,
      "Ġc": 305,
      "ut": 306,
      "pe": 307,
      "ul": 308,
      "ne": 309,
      "he": 310,
      "ad": 311,
      "áĦĩ": 312,
      "um": 313,
      "oe": 314,
      "áĨ¨": 315,
      "ac": 316,
      "ha": 317,
      "áĦĨ": 318,
      "áĦĴáħ¡": 319,
      "ess": 320,
      "Ġ\\": 321,
      "om": 322,
      "Ġy": 323,
      "Ġg": 324,
      "hn": 325,
      "Ġd": 326,
      "be": 327,
      "all": 328,
      "Ì§a": 329,
      "od": 330,
      "ĠM": 331,
      "tr": 332,
      "ane": 333,
      "Ġhe": 334,
      "áĦĭáħ": 335,
      "ai": 336,
      "no": 337,
      "au": 338,
      "ÌĮ": 339,
      "ere": 340,
      "áĦħ": 341,
      "ĠC": 342,
      "po": 343,
      "ic": 344,
      "ame": 345,
      "ke": 346,
      "ohn": 347,
      "ĠL": 348,
      "mo": 349,
      "ĠP": 350,
      "con": 351,
      "ĠI": 352,
      "vi": 353,
      "Ġdo": 354,
      "Ġbe": 355,
      "ĠB": 356,
      "nd": 357,
      "ap": 358,
      "ĠT": 359,
      ")Ċ": 360,
      "áĦĴáħ¡áĦĥáħ¡": 361,
      "ru": 362,
      "áħ³": 363,
      "áħ¢": 364,
      "ĠG": 365,
      "our": 366,
      "ÌĢ": 367,
      "vo": 368,
      "em": 369,
      "gu": 370,
      "Ġ(": 371,
      "per": 372,
      "der": 373,
      ".com": 374,
      "est": 375,
      "na": 376,
      "ation": 377,
      "00": 378,
      "si": 379,
      "áħ§": 380,
      "gh": 381,
      "Ġno": 382,
      "ĠDoe": 383,
      "for": 384,
      "so": 385,
      "que": 386,
      "ant": 387,
      "par": 388,
      "áĦĭáħµ": 389,
      "go": 390,
      "gen": 391,
      "Ġt": 392,
      "fe": 393,
      "ĠF": 394,
      "pr": 395,
      "ber": 396,
      "ni": 397,
      "va": 398,
      "one": 399,
      "bo": 400,
      "Ġname": 401,
      "ay": 402,
      "áĨ·": 403,
      "sch": 404,
      "ine": 405,
      "Ġhim": 406,
      "Ġse": 407,
      "ung": 408,
      "ven": 409,
      "ten": 410,
      "Ġthat": 411,
      "ther": 412,
      "áĦİ": 413,
      "My": 414,
      "io": 415,
      "are": 416,
      "ill": 417,
      "mp": 418,
      "up": 419,
      "ba": 420,
      "GB": 421,
      "br": 422,
      "Ġl": 423,
      "ich": 424,
      "men": 425,
      "sa": 426,
      "Ġfor": 427,
      "pro": 428,
      "áĦĢáħ¡": 429,
      "mail": 430,
      "ate": 431,
      "ĠE": 432,
      "Ìģs": 433,
      "ĠH": 434,
      "we": 435,
      "ara": 436,
      "ina": 437,
      "Ġun": 438,
      "ck": 439,
      "20": 440,
      "pa": 441,
      "doe": 442,
      "áĦĤ": 443,
      "áĦīáħµ": 444,
      "ES": 445,
      "je": 446,
      "ord": 447,
      "19": 448,
      "AR": 449,
      "ga": 450,
      "Ġwh": 451,
      "ex": 452,
      "tu": 453,
      "13": 454,
      "ff": 455,
      "ĠN": 456,
      "Ġyou": 457,
      "10": 458,
      "Ġme": 459,
      "18": 460,
      "16": 461,
      "car": 462,
      "id": 463,
      "Ìģn": 464,
      "che": 465,
      "ass": 466,
      "15": 467,
      "ist": 468,
      "Ġre": 469,
      "du": 470,
      "tion": 471,
      "Ġk": 472,
      "ja": 473,
      "ana": 474,
      "Ġhis": 475,
      "tra": 476,
      "Ġda": 477,
      "áĦĭáħ¥": 478,
      "áĨ¸": 479,
      "iz": 480,
      "14": 481,
      "ER": 482,
      "ly": 483,
      "Ìģri": 484,
      "ĠR": 485,
      "30": 486,
      "tre": 487,
      "ith": 488,
      "cu": 489,
      "Ġli": 490,
      "out": 491,
      "ati": 492,
      "áĦĭáħ¡": 493,
      "26": 494,
      "lu": 495,
      "son": 496,
      "Ø§": 497,
      "Ġan": 498,
      "ard": 499,
      "49": 500,
      "35": 501,
      "29": 502,
      "ment": 503,
      "gra": 504,
      "áĦĨáħ¡": 505,
      "ier": 506,
      "res": 507,
      "ĠJohn": 508,
      "end": 509,
      "mar": 510,
      "op": 511,
      "28": 512,
      "av": 513,
      "27": 514,
      "AN": 515,
      "ran": 516,
      "por": 517,
      "ĠW": 518,
      "ign": 519,
      "za": 520,
      "17": 521,
      "25": 522,
      "24": 523,
      "hr": 524,
      "cia": 525,
      "23": 526,
      "ite": 527,
      "fi": 528,
      "Ġwith": 529,
      "inal": 530,
      "pl": 531,
      "pre": 532,
      "áĦĳ": 533,
      "su": 534,
      "gar": 535,
      "ast": 536,
      "mer": 537,
      "ien": 538,
      "ze": 539,
      "ise": 540,
      "ĠJane": 541,
      "38": 542,
      "ous": 543,
      "40": 544,
      "Ġnot": 545,
      "fa": 546,
      "man": 547,
      "ger": 548,
      "áĦĮáħ¥": 549,
      "Ġwas": 550,
      "ct": 551,
      "áĦĮáħµ": 552,
      "Ġsh": 553,
      "ell": 554,
      "dade": 555,
      "ka": 556,
      "des": 557,
      "11": 558,
      "37": 559,
      "ble": 560,
      "Ġma": 561,
      "ĠAnd": 562,
      "Ġcom": 563,
      "sel": 564,
      "58": 565,
      "Ġman": 566,
      "ft": 567,
      "Ġdi": 568,
      "48": 569,
      "Ġwho": 570,
      "gi": 571,
      "36": 572,
      "Ġ-": 573,
      "ok": 574,
      "áĦīáħ¡": 575,
      "ĠV": 576,
      "wn": 577,
      "rom": 578,
      "áĦĢáħ": 579,
      "90": 580,
      "Ġthey": 581,
      "Ġthem": 582,
      "ght": 583,
      "hen": 584,
      "ld": 585,
      "ll": 586,
      "sp": 587,
      "96": 588,
      "Ġha": 589,
      "igh": 590,
      "ira": 591,
      "55": 592,
      "cer": 593,
      "Ìģr": 594,
      "Ġit": 595,
      "ud": 596,
      "áĦģ": 597,
      "IN": 598,
      "Ġsai": 599,
      "46": 600,
      "Ġla": 601,
      "EL": 602,
      "ille": 603,
      "Ġle": 604,
      "98": 605,
      "gr": 606,
      "ale": 607,
      "70": 608,
      "tar": 609,
      "OR": 610,
      "ach": 611,
      "34": 612,
      "ÌĪr": 613,
      "50": 614,
      "AS": 615,
      "jo": 616,
      "áĦĩáħ¡": 617,
      "Ġv": 618,
      "min": 619,
      "56": 620,
      "pt": 621,
      "pen": 622,
      "den": 623,
      "jane": 624,
      "mon": 625,
      "fer": 626,
      "78": 627,
      "ph": 628,
      "cor": 629,
      "22": 630,
      "ken": 631,
      "john": 632,
      "Ġco": 633,
      "76": 634,
      "Ġca": 635,
      "ya": 636,
      "áħ©áĨ¨": 637,
      "39": 638,
      "Ġbut": 639,
      "Ġas": 640,
      "cl": 641,
      "ren": 642,
      "Ġsaid": 643,
      "art": 644,
      "ÌĤn": 645,
      "ste": 646,
      "ita": 647,
      "EN": 648,
      "áĦĢáħµ": 649,
      "ue": 650,
      "áĦĮáħ¡": 651,
      "ĠK": 652,
      "Ġon": 653,
      "Re": 654,
      "ire": 655,
      "IS": 656,
      "Ġch": 657,
      "21": 658,
      "AL": 659,
      "?Ċ": 660,
      "tro": 661,
      "Ġal": 662,
      "@g": 663,
      "ak": 664,
      "áĦĨáħ®": 665,
      "Ġwill": 666,
      "sta": 667,
      "Ġare": 668,
      "08": 669,
      "hot": 670,
      "ore": 671,
      "66": 672,
      "59": 673,
      "ah": 674,
      "@gmail": 675,
      "Ġall": 676,
      "mb": 677,
      "Ġpro": 678,
      "ano": 679,
      "ÌĬ": 680,
      "pos": 681,
      "ko": 682,
      "har": 683,
      "wer": 684,
      "ante": 685,
      "In": 686,
      "und": 687,
      "47": 688,
      "les": 689,
      "ind": 690,
      "Ġup": 691,
      "itu": 692,
      "ĠO": 693,
      "57": 694,
      "MA": 695,
      "ans": 696,
      "33": 697,
      "pi": 698,
      "Ġunto": 699,
      "pu": 700,
      "ÙĦ": 701,
      "Ġcon": 702,
      "esta": 703,
      "cio": 704,
      "88": 705,
      "Ã¸": 706,
      "Ġte": 707,
      "ish": 708,
      "ser": 709,
      "ON": 710,
      "áĦĩáħ®": 711,
      "Ġ\"": 712,
      "@hot": 713,
      "hoo": 714,
      "@hotmail": 715,
      "ora": 716,
      "ater": 717,
      "ob": 718,
      "ang": 719,
      "ear": 720,
      "99": 721,
      "12": 722,
      "use": 723,
      "06": 724,
      "ela": 725,
      "ag": 726,
      "ot": 727,
      "iro": 728,
      "ive": 729,
      "ib": 730,
      "Ġthere": 731,
      "ner": 732,
      "áĦĭáħ¥áĨ": 733,
      "uni": 734,
      "Doe": 735,
      "áħ¦": 736,
      "ins": 737,
      "asse": 738,
      "54": 739,
      "Sch": 740,
      "áĦĤáħ¡": 741,
      "bar": 742,
      "à¹": 743,
      "esus": 744,
      "Ġfrom": 745,
      "áħ©áĨ¼": 746,
      "ings": 747,
      "@ya": 748,
      "@yahoo": 749,
      "ĠGod": 750,
      "áĦĴáħ": 751,
      "Mar": 752,
      "Ġlo": 753,
      "ome": 754,
      "bu": 755,
      "ty": 756,
      "Ġj": 757,
      "lor": 758,
      "áħ®áĦĥáħ¡": 759,
      "ÙĬ": 760,
      "Ġshall": 761,
      "áĦĢáħ§": 762,
      "fore": 763,
      "ente": 764,
      "IT": 765,
      "ves": 766,
      "ĠThe": 767,
      "sh": 768,
      "Ġri": 769,
      "mi": 770,
      "ĠMar": 771,
      "An": 772,
      "wo": 773,
      "ons": 774,
      "ip": 775,
      "Ġmy": 776,
      "chen": 777,
      "cre": 778,
      "eu": 779,
      "CH": 780,
      "sen": 781,
      "DE": 782,
      "ino": 783,
      "if": 784,
      "RO": 785,
      "áħ¥áĨ«": 786,
      "RE": 787,
      "fo": 788,
      "tri": 789,
      "cht": 790,
      "44": 791,
      "bre": 792,
      "áĦħáħµ": 793,
      "ato": 794,
      ",Ċ": 795,
      "ort": 796,
      "Ìģti": 797,
      "als": 798,
      "ÌĪn": 799,
      "ild": 800,
      "bras": 801,
      "68": 802,
      "IA": 803,
      "ado": 804,
      "ek": 805,
      "ight": 806,
      "vis": 807,
      "ĠU": 808,
      "gue": 809,
      "Ġyour": 810,
      "áĦĭáħ¥áĨ¹": 811,
      "áĨº": 812,
      "32": 813,
      "Ġhave": 814,
      "dis": 815,
      "áĦĭáħ¥áĨ¹áĦĥáħ¡": 816,
      "ito": 817,
      "sk": 818,
      "ide": 819,
      "ity": 820,
      "\"Ċ": 821,
      "79": 822,
      "Ùħ": 823,
      "ure": 824,
      "ese": 825,
      "ali": 826,
      "Ġwere": 827,
      "31": 828,
      "OS": 829,
      "ew": 830,
      "ose": 831,
      "now": 832,
      "pri": 833,
      "ele": 834,
      "rou": 835,
      "ix": 836,
      "Ġta": 837,
      "RA": 838,
      "áĦĢáħ®": 839,
      "ction": 840,
      "ras": 841,
      "áĦĪ": 842,
      "bra": 843,
      "áĦĲ": 844,
      "Al": 845,
      "áĦĭáħ§": 846,
      "vel": 847,
      "Ġone": 848,
      "ick": 849,
      "land": 850,
      "Do": 851,
      "int": 852,
      "let": 853,
      "áħ§áĨ«": 854,
      "bi": 855,
      "mu": 856,
      "áĦĩáħ©": 857,
      "60": 858,
      "74": 859,
      "ep": 860,
      "af": 861,
      "áĨ¸áĦĥáħ¡": 862,
      "ben": 863,
      "log": 864,
      "ron": 865,
      "dos": 866,
      "Ġat": 867,
      "And": 868,
      "Ġgo": 869,
      "cal": 870,
      "ss": 871,
      "ÃŁ": 872,
      "ento": 873,
      "cher": 874,
      "Ìģrio": 875,
      "mor": 876,
      "Le": 877,
      "Ġen": 878,
      "'t": 879,
      "cha": 880,
      "esso": 881,
      "The": 882,
      "ry": 883,
      "ĠJesus": 884,
      "vol": 885,
      "ow": 886,
      "Ġwe": 887,
      "ris": 888,
      "Ġwhich": 889,
      "áĩ": 890,
      "Ġfa": 891,
      "kt": 892,
      "inter": 893,
      "fu": 894,
      "TO": 895,
      "Ġem": 896,
      "áĦĦ": 897,
      "'s": 898,
      "her": 899,
      "gua": 900,
      "rit": 901,
      "CO": 902,
      "CA": 903,
      "Ġout": 904,
      "the": 905,
      "red": 906,
      ".j": 907,
      "var": 908,
      "IL": 909,
      "Ġpara": 910,
      "áĦīáħ®": 911,
      "lan": 912,
      "way": 913,
      "led": 914,
      "cou": 915,
      "-s": 916,
      "ks": 917,
      "len": 918,
      "uf": 919,
      "Ġwhen": 920,
      "Ma": 921,
      ".mp": 922,
      "Ġna": 923,
      "He": 924,
      "áĦĥáħ³": 925,
      "elo": 926,
      "áĨ¯áĦĥáħ¡": 927,
      "TA": 928,
      "SA": 929,
      "Ġper": 930,
      "Ø±": 931,
      "dia": 932,
      "áħ§áĨ¼": 933,
      "75": 934,
      "cho": 935,
      "cle": 936,
      "ual": 937,
      "Ar": 938,
      "Ġmo": 939,
      "69": 940,
      "fla": 941,
      "De": 942,
      "45": 943,
      "elle": 944,
      "ree": 945,
      "ted": 946,
      "Ġthis": 947,
      "rac": 948,
      "áĦĥáħ©": 949,
      "áĦİáħµ": 950,
      "80": 951,
      "John": 952,
      "ler": 953,
      "ple": 954,
      "dio": 955,
      "áĦħáħ¡": 956,
      "iti": 957,
      "ges": 958,
      "ju": 959,
      "áĦĮáħ¥áĨ¼": 960,
      "mal": 961,
      "Ġby": 962,
      "áĦħáħ³": 963,
      "ance": 964,
      "Ìģp": 965,
      "Ìģm": 966,
      "num": 967,
      "Ìģe": 968,
      "bli": 969,
      "Ġher": 970,
      "gel": 971,
      "ĠY": 972,
      "Ġday": 973,
      "avi": 974,
      "iss": 975,
      "TE": 976,
      "Ġque": 977,
      "cas": 978,
      "Ìģt": 979,
      "DO": 980,
      "anc": 981,
      "cion": 982,
      "RI": 983,
      "cul": 984,
      "ust": 985,
      "ence": 986,
      "77": 987,
      "áħ¢áĨ¼": 988,
      "nu": 989,
      "ness": 990,
      "tir": 991,
      "ong": 992,
      "lich": 993,
      "bor": 994,
      "wa": 995,
      "ning": 996,
      "vers": 997,
      "ps": 998,
      "áĦĮáħ¥áĨ«": 999,
      "Ġthings": 1000,
      "ĠFor": 1001,
      "áĦĴáħª": 1002,
      "Ġhad": 1003,
      "tes": 1004,
      "áĦĭáħ©": 1005,
      "val": 1006,
      "Ġsay": 1007,
      "los": 1008,
      "ista": 1009,
      "cri": 1010,
      "ÌĥO": 1011,
      "Ġu": 1012,
      "col": 1013,
      "áĦĮáħ®": 1014,
      "estr": 1015,
      "ux": 1016,
      "ero": 1017,
      "tel": 1018,
      "anha": 1019,
      "Ġpe": 1020,
      "Ġtr": 1021,
      "Ġtheir": 1022,
      "DA": 1023,
      "Ġti": 1024,
      "Be": 1025,
      "LA": 1026,
      "áĦĢáħ³": 1027,
      "outh": 1028,
      "áĦĭáħ²": 1029,
      "Ġso": 1030,
      "day": 1031,
      "ĠHe": 1032,
      "ĠLi": 1033,
      "Ġne": 1034,
      "pla": 1035,
      "Ġcome": 1036,
      "bal": 1037,
      "sal": 1038,
      "ban": 1039,
      "iste": 1040,
      "here": 1041,
      "ik": 1042,
      "ÌĤs": 1043,
      "42": 1044,
      "isch": 1045,
      "áĨ«áĦĴáħ¡áĦĥáħ¡": 1046,
      "Ġknow": 1047,
      "Se": 1048,
      "ata": 1049,
      "oun": 1050,
      "86": 1051,
      "uch": 1052,
      "Ø§Ø": 1053,
      "tor": 1054,
      "ink": 1055,
      "mas": 1056,
      "Ġes": 1057,
      "ern": 1058,
      "51": 1059,
      "Ġhand": 1060,
      "41": 1061,
      "quer": 1062,
      "43": 1063,
      "IE": 1064,
      "age": 1065,
      "dor": 1066,
      "ens": 1067,
      "Ø§ÙĦ": 1068,
      "En": 1069,
      "mento": 1070,
      "very": 1071,
      "gan": 1072,
      "LE": 1073,
      "NO": 1074,
      "ath": 1075,
      "hat": 1076,
      "self": 1077,
      "Ge": 1078,
      "ida": 1079,
      "áĦĨáħ¡áĨ«": 1080,
      "vil": 1081,
      "BE": 1082,
      "bro": 1083,
      ".\"Ċ": 1084,
      "PA": 1085,
      "Ab": 1086,
      "qui": 1087,
      "gre": 1088,
      "mel": 1089,
      "low": 1090,
      "ase": 1091,
      "Ġwor": 1092,
      "ÌĢre": 1093,
      "zen": 1094,
      "Ġthou": 1095,
      "Ġdes": 1096,
      "nen": 1097,
      "air": 1098,
      "cial": 1099,
      "las": 1100,
      "port": 1101,
      "Ġus": 1102,
      "tos": 1103,
      "áĦĥáħ¢": 1104,
      "áħ©áĨ«": 1105,
      "89": 1106,
      "TI": 1107,
      "UF": 1108,
      "Pro": 1109,
      "pas": 1110,
      "ani": 1111,
      "Ìģc": 1112,
      "press": 1113,
      "áĦĢáħ©": 1114,
      "áĦĮáħ¦": 1115,
      "Ġye": 1116,
      "ĠZ": 1117,
      "inho": 1118,
      "áĦĨáħ©": 1119,
      "ers": 1120,
      "Ġinto": 1121,
      "Ce": 1122,
      "53": 1123,
      "hor": 1124,
      "-de": 1125,
      "ME": 1126,
      "lat": 1127,
      "Ġex": 1128,
      "Con": 1129,
      "Ġfo": 1130,
      "ico": 1131,
      "ice": 1132,
      "tur": 1133,
      "ved": 1134,
      "áĦİáħ®": 1135,
      "Ġcame": 1136,
      "pp": 1137,
      "Ġro": 1138,
      "ÙĨ": 1139,
      "ĠBut": 1140,
      "mat": 1141,
      "zo": 1142,
      "Co": 1143,
      "Com": 1144,
      "Ġsa": 1145,
      "-b": 1146,
      "09": 1147,
      "stand": 1148,
      "ĠIn": 1149,
      "abe": 1150,
      "ound": 1151,
      ":Ċ": 1152,
      "Lu": 1153,
      "Ġor": 1154,
      "Ìģtica": 1155,
      "ada": 1156,
      "áĨ½": 1157,
      "Ì§o": 1158,
      "-S": 1159,
      "ny": 1160,
      "pon": 1161,
      "rir": 1162,
      "ful": 1163,
      "Ġdis": 1164,
      "ij": 1165,
      "UR": 1166,
      "atur": 1167,
      "dar": 1168,
      "Ìģli": 1169,
      "gal": 1170,
      "ton": 1171,
      "dom": 1172,
      "Ġab": 1173,
      "ador": 1174,
      "pres": 1175,
      "sur": 1176,
      "Es": 1177,
      "mov": 1178,
      "pan": 1179,
      "áĩĢ": 1180,
      "Jane": 1181,
      "QU": 1182,
      "og": 1183,
      "pal": 1184,
      "ts": 1185,
      "row": 1186,
      "Ġmar": 1187,
      "âĢ": 1188,
      "fra": 1189,
      "pir": 1190,
      "Ġar": 1191,
      "ack": 1192,
      "of": 1193,
      "ouse": 1194,
      "Ġmen": 1195,
      "!Ċ": 1196,
      "gn": 1197,
      "ui": 1198,
      "tern": 1199,
      "Me": 1200,
      "aus": 1201,
      "ÙĪ": 1202,
      "52": 1203,
      "-se": 1204,
      "FR": 1205,
      "ces": 1206,
      "gain": 1207,
      "his": 1208,
      "zu": 1209,
      "itar": 1210,
      "73": 1211,
      "kk": 1212,
      "áĦĮáħµáĦĥáħ¡": 1213,
      "72": 1214,
      "PO": 1215,
      "tem": 1216,
      "ili": 1217,
      "Ġsur": 1218,
      "inha": 1219,
      "hy": 1220,
      "Ġvo": 1221,
      "ould": 1222,
      "ica": 1223,
      "Ġbo": 1224,
      "sto": 1225,
      "can": 1226,
      "bur": 1227,
      "dra": 1228,
      "áĦĭáħµáĨ¯": 1229,
      ".p": 1230,
      "eld": 1231,
      "Ġpo": 1232,
      "bel": 1233,
      "hal": 1234,
      "mm": 1235,
      "vat": 1236,
      "aire": 1237,
      "-f": 1238,
      "AM": 1239,
      "hu": 1240,
      "Ġdown": 1241,
      "à¸²": 1242,
      "wav": 1243,
      "tig": 1244,
      "alk": 1245,
      "Ġfe": 1246,
      "ile": 1247,
      "ila": 1248,
      "lie": 1249,
      "str": 1250,
      "Ġqu": 1251,
      "71": 1252,
      "Li": 1253,
      "vent": 1254,
      "Ġchild": 1255,
      "ura": 1256,
      "cir": 1257,
      "mes": 1258,
      "áĦīáħµáĨ¸": 1259,
      "-a": 1260,
      "del": 1261,
      "áĦĭáħ®": 1262,
      "ÌĪt": 1263,
      "sy": 1264,
      "rie": 1265,
      "kom": 1266,
      "flac": 1267,
      "DK": 1268,
      "van": 1269,
      "Ìģg": 1270,
      "ray": 1271,
      "iter": 1272,
      "áĦĩáħ¥": 1273,
      "áĦīáħ¢áĨ¼": 1274,
      "ÌĮi": 1275,
      "US": 1276,
      "áĨ¨áĦĴáħ¡áĦĥáħ¡": 1277,
      ";Ċ": 1278,
      "bl": 1279,
      "Sa": 1280,
      "ng": 1281,
      "Sinal": 1282,
      "áĦĳáħ¡": 1283,
      "ĠLibras": 1284,
      "ÌĤncia": 1285,
      "Ø¨": 1286,
      "ein": 1287,
      "anda": 1288,
      "ÌĮĊ": 1289,
      "áĦĩáħ©áĦĥáħ¡": 1290,
      "cent": 1291,
      "eren": 1292,
      "enta": 1293,
      "stru": 1294,
      "fri": 1295,
      "áĦĢáħ¨": 1296,
      "ond": 1297,
      "Ġsign": 1298,
      "cin": 1299,
      "hl": 1300,
      "Ġwent": 1301,
      "NA": 1302,
      "thing": 1303,
      "Ġword": 1304,
      "áĦĭáħ¯": 1305,
      "lig": 1306,
      "inger": 1307,
      "ub": 1308,
      "Ø©": 1309,
      "áĦīáħ¥": 1310,
      "ĠAl": 1311,
      "EM": 1312,
      "áĦı": 1313,
      "Ġyear": 1314,
      "Mo": 1315,
      "gro": 1316,
      "ĠMaranha": 1317,
      "number": 1318,
      ".flac": 1319,
      "bes": 1320,
      "rer": 1321,
      "Ġr": 1322,
      ".wav": 1323,
      "La": 1324,
      "name": 1325,
      "get": 1326,
      "áĨ¯áĦĴáħ¡áĦĥáħ¡": 1327,
      "Ġans": 1328,
      "gun": 1329,
      "inte": 1330,
      "conf": 1331,
      "Ġbeca": 1332,
      "cur": 1333,
      "zi": 1334,
      "Ġsinal": 1335,
      "ĠSan": 1336,
      "Ġear": 1337,
      "áĦħáħ³áĦĥáħ¡": 1338,
      "PT": 1339,
      "ition": 1340,
      "áĦĭáħ£": 1341,
      "treet": 1342,
      "áĦīáħµáĨ·": 1343,
      "Qu": 1344,
      "wor": 1345,
      "Ø¯": 1346,
      "áĦĭáħ´": 1347,
      "lar": 1348,
      "áĦĭáħŃ": 1349,
      "fin": 1350,
      "Ġthese": 1351,
      "Car": 1352,
      "áħ¬": 1353,
      "sed": 1354,
      "áĦĮáħ©": 1355,
      "áĦİáħ¡": 1356,
      "web": 1357,
      "sinal": 1358,
      "Ġalso": 1359,
      "ange": 1360,
      "itt": 1361,
      "Ġhund": 1362,
      "IG": 1363,
      "cr": 1364,
      "mun": 1365,
      "à¸£": 1366,
      "áĦĴáħ¢": 1367,
      "oso": 1368,
      "áĦīáħ¡áĨ¼": 1369,
      ".c": 1370,
      "zar": 1371,
      "HA": 1372,
      "Ġra": 1373,
      "ismo": 1374,
      "fen": 1375,
      "pass": 1376,
      "Ġver": 1377,
      "Ìģria": 1378,
      "hrist": 1379,
      "Ìģle": 1380,
      "alt": 1381,
      "Ġway": 1382,
      "person": 1383,
      "cro": 1384,
      "ont": 1385,
      "tain": 1386,
      "ult": 1387,
      "áĦĭáħ³": 1388,
      "dent": 1389,
      "ari": 1390,
      "teous": 1391,
      "pra": 1392,
      "Ġagain": 1393,
      "vie": 1394,
      "yes": 1395,
      "Ġshe": 1396,
      "áĦħáħµáĦĥáħ¡": 1397,
      "fle": 1398,
      "pli": 1399,
      "sol": 1400,
      "spe": 1401,
      "vor": 1402,
      "ÌĤte": 1403,
      "ave": 1404,
      "Ġgre": 1405,
      "fil": 1406,
      "mit": 1407,
      "Ã¦": 1408,
      "voir": 1409,
      "ations": 1410,
      "IO": 1411,
      "oc": 1412,
      "CE": 1413,
      "dre": 1414,
      "áĦĢáħª": 1415,
      "Ch": 1416,
      "So": 1417,
      "Doestr": 1418,
      "Ġhundred": 1419,
      "fic": 1420,
      "enti": 1421,
      "illi": 1422,
      "don": 1423,
      "mand": 1424,
      "xt": 1425,
      "ena": 1426,
      "ann": 1427,
      "ĠLord": 1428,
      "bol": 1429,
      "cel": 1430,
      "hel": 1431,
      "una": 1432,
      "áĩĢáĦĥáħ¡": 1433,
      "HO": 1434,
      "ace": 1435,
      "mis": 1436,
      "ene": 1437,
      "come": 1438,
      "cac": 1439,
      "Ġanswer": 1440,
      "ghteous": 1441,
      "BA": 1442,
      "stra": 1443,
      "áĦīáħµáĨ«": 1444,
      "zer": 1445,
      "este": 1446,
      "reg": 1447,
      "dire": 1448,
      "ÌĤni": 1449,
      "áħ¢áĦĥáħ¡": 1450,
      "fter": 1451,
      "ima": 1452,
      "Ġam": 1453,
      "Par": 1454,
      "ather": 1455,
      "Ø¹": 1456,
      "à¸Ļ": 1457,
      "Bo": 1458,
      "bus": 1459,
      "ht": 1460,
      "Ġst": 1461,
      "ĠStreet": 1462,
      "Ġunder": 1463,
      "IR": 1464,
      "inar": 1465,
      "áĦĢáħ§áĨ¯": 1466,
      "mus": 1467,
      "char": 1468,
      "Ġser": 1469,
      "uer": 1470,
      "aut": 1471,
      "ug": 1472,
      "ye": 1473,
      "áĦĦáħ©áĨ¨": 1474,
      "aven": 1475,
      "Øª": 1476,
      "ĠVille": 1477,
      "nie": 1478,
      "pear": 1479,
      "áĦīáħ©": 1480,
      "000": 1481,
      "áĦĨáħ®áĨ«": 1482,
      "LO": 1483,
      "pel": 1484,
      "vir": 1485,
      "versi": 1486,
      "fr": 1487,
      "Ġpar": 1488,
      "essoa": 1489,
      "MS": 1490,
      "you": 1491,
      "lado": 1492,
      "ona": 1493,
      "Ìģl": 1494,
      "hand": 1495,
      "ros": 1496,
      "Ex": 1497,
      "ls": 1498,
      "ando": 1499,
      "Ġpla": 1500,
      "old": 1501,
      "Por": 1502,
      "tin": 1503,
      "vy": 1504,
      "ala": 1505,
      "ceive": 1506,
      "SE": 1507,
      "ior": 1508,
      "ĠIs": 1509,
      "cy": 1510,
      "ward": 1511,
      "zy": 1512,
      "esti": 1513,
      "ĠDe": 1514,
      "icked": 1515,
      "Doestrasse": 1516,
      "MEL": 1517,
      "Ġspe": 1518,
      "áĦħáħ": 1519,
      "NE": 1520,
      "Ne": 1521,
      "ÅĤ": 1522,
      "áĨŃ": 1523,
      "Ġthy": 1524,
      "illa": 1525,
      "ital": 1526,
      "cipl": 1527,
      "Ġano": 1528,
      "kon": 1529,
      "ded": 1530,
      "áĦħáħ¥": 1531,
      "inais": 1532,
      "Ġfather": 1533,
      "ator": 1534,
      "áĦĨáħµ": 1535,
      "cis": 1536,
      "jar": 1537,
      "áĨ¯áĦĭáħ¡": 1538,
      "duc": 1539,
      "ling": 1540,
      "áĦĢáħ¥": 1541,
      "Ġtra": 1542,
      "áĦģáħ³": 1543,
      "logia": 1544,
      "my": 1545,
      "Ġhas": 1546,
      "dig": 1547,
      "eder": 1548,
      "Ġheart": 1549,
      "001": 1550,
      "ĠRe": 1551,
      "Ġsaying": 1552,
      "CM": 1553,
      "hi": 1554,
      "Ùģ": 1555,
      "ĠSC": 1556,
      "auf": 1557,
      "áĦĤáħ¡áĦĥáħ¡": 1558,
      "clo": 1559,
      "ley": 1560,
      ".avi": 1561,
      "UN": 1562,
      "wel": 1563,
      "Ġaway": 1564,
      "ĠSa": 1565,
      "icht": 1566,
      "ua": 1567,
      "Ìģa": 1568,
      "Ġpas": 1569,
      "amar": 1570,
      "Ġrighteous": 1571,
      "LI": 1572,
      "doc": 1573,
      "ĠBe": 1574,
      "net": 1575,
      "ilo": 1576,
      "Ġson": 1577,
      "Ġpor": 1578,
      "ques": 1579,
      "Per": 1580,
      "far": 1581,
      "..": 1582,
      "Is": 1583,
      "Jo": 1584,
      "Po": 1585,
      "Ro": 1586,
      "Ġwicked": 1587,
      "Ì§A": 1588,
      "ular": 1589,
      "áĦĩáħµ": 1590,
      "ky": 1591,
      "lin": 1592,
      "Ø³": 1593,
      "Ġbel": 1594,
      "áĨŃáĦĥáħ¡": 1595,
      "its": 1596,
      "right": 1597,
      "ople": 1598,
      "áĨºáĦĴáħ¡áĦĥáħ¡": 1599,
      "GO": 1600,
      "»áĦĥáħ¡": 1601,
      "-me": 1602,
      "01": 1603,
      "ker": 1604,
      "Ì¨": 1605,
      "hold": 1606,
      "Ġwhat": 1607,
      "No": 1608,
      "bon": 1609,
      "áĦĩáħ¢": 1610,
      "Ġyears": 1611,
      "ister": 1612,
      "ÌĪber": 1613,
      "ieren": 1614,
      "sv": 1615,
      "Ġover": 1616,
      "dir": 1617,
      "ied": 1618,
      "ĠChrist": 1619,
      "Ġbefore": 1620,
      "áĦĢáħ®áĨ¨": 1621,
      "Ġgood": 1622,
      "For": 1623,
      "Na": 1624,
      "Ġpre": 1625,
      "áĦĭáħµáĨ«": 1626,
      "áĦį": 1627,
      "oman": 1628,
      "atema": 1629,
      "webm": 1630,
      "fal": 1631,
      "mir": 1632,
      "sim": 1633,
      "tte": 1634,
      "Ġim": 1635,
      "gem": 1636,
      "Ġchildren": 1637,
      "Pe": 1638,
      "xi": 1639,
      "iah": 1640,
      "ÌĢĊ": 1641,
      "à¹Ģ": 1642,
      "200": 1643,
      "ham": 1644,
      "vant": 1645,
      "lau": 1646,
      "imal": 1647,
      "able": 1648,
      "trans": 1649,
      "-M": 1650,
      ".mov": 1651,
      "fre": 1652,
      "fess": 1653,
      "die": 1654,
      "via": 1655,
      "Au": 1656,
      "pol": 1657,
      "pap": 1658,
      "amb": 1659,
      "Ġtwo": 1660,
      "ture": 1661,
      "Ġve": 1662,
      "Ġent": 1663,
      "temp": 1664,
      "look": 1665,
      "vej": 1666,
      "ÌĤĊ": 1667,
      "áĨ¨áĦĥáħ¡": 1668,
      "form": 1669,
      "AC": 1670,
      "sor": 1671,
      "sex": 1672,
      "Ġthan": 1673,
      "ÌĤtre": 1674,
      "Su": 1675,
      "fel": 1676,
      "sign": 1677,
      "Ġou": 1678,
      "aix": 1679,
      "key": 1680,
      "Er": 1681,
      "Ġhouse": 1682,
      "how": 1683,
      "Ġdu": 1684,
      "ORD": 1685,
      "gin": 1686,
      "gon": 1687,
      "Ġthee": 1688,
      "à¸Ń": 1689,
      "ull": 1690,
      "Ġlet": 1691,
      "Ġanswered": 1692,
      "tal": 1693,
      "stitu": 1694,
      "Ġdos": 1695,
      "udar": 1696,
      "Ġtherefore": 1697,
      "áĨ½áĦĥáħ¡": 1698,
      "bou": 1699,
      "irst": 1700,
      "ÌĪck": 1701,
      "Te": 1702,
      "off": 1703,
      "Ġ'": 1704,
      "Ġge": 1705,
      "Ġown": 1706,
      "áĦĴáħ®": 1707,
      "áĦĮáħ©áĨ¼": 1708,
      "Ġsee": 1709,
      "dad": 1710,
      "iet": 1711,
      "ÌĢme": 1712,
      "Ġdid": 1713,
      "read": 1714,
      "cus": 1715,
      "cord": 1716,
      "cado": 1717,
      "Un": 1718,
      "ici": 1719,
      "pes": 1720,
      "sou": 1721,
      "atri": 1722,
      "asa": 1723,
      "áĦĢáħ©áĨ¼": 1724,
      "Ġleft": 1725,
      ".webm": 1726,
      "az": 1727,
      "cti": 1728,
      "mil": 1729,
      "Ġvi": 1730,
      "áĦĤáħ§áĨ«": 1731,
      "áĦĢáħŃ": 1732,
      "ches": 1733,
      "cos": 1734,
      "ical": 1735,
      "áĦĥáħ®áĦĥáħ¡": 1736,
      "áĦĥáħ³áĨ¯áĦĥáħ¡": 1737,
      "-Ċ": 1738,
      "ki": 1739,
      "kle": 1740,
      "rin": 1741,
      "ring": 1742,
      "onne": 1743,
      "áĦĩáħ¡áĨ¯": 1744,
      "set": 1745,
      "Di": 1746,
      "ender": 1747,
      "áĨ»áĦĥáħ¡": 1748,
      "att": 1749,
      "áĦĢáħ¡áĨ¨": 1750,
      "tura": 1751,
      "pirit": 1752,
      "Aus": 1753,
      "To": 1754,
      "war": 1755,
      "ØŃ": 1756,
      "anti": 1757,
      "orn": 1758,
      "cola": 1759,
      "áĦĪáħ¥áĨ«": 1760,
      "airro": 1761,
      "dy": 1762,
      "hab": 1763,
      "kel": 1764,
      "pin": 1765,
      "ute": 1766,
      "ĠSo": 1767,
      "alf": 1768,
      "áĦĩáħ§áĨ«": 1769,
      "ĠBar": 1770,
      "ĠThen": 1771,
      "áħ³áĨ¼": 1772,
      "ĠThey": 1773,
      "03": 1774,
      "CL": 1775,
      "mber": 1776,
      "ving": 1777,
      "uno": 1778,
      "dic": 1779,
      "Ġgra": 1780,
      "not": 1781,
      "Ġtime": 1782,
      "Ġmany": 1783,
      "Ġbecause": 1784,
      "SO": 1785,
      "bil": 1786,
      "nes": 1787,
      "Ġcan": 1788,
      "ÌĮe": 1789,
      "201": 1790,
      "Ġearth": 1791,
      "-B": 1792,
      "kra": 1793,
      "vre": 1794,
      "Ġq": 1795,
      "teen": 1796,
      "Ġder": 1797,
      "ungs": 1798,
      "02": 1799,
      "mos": 1800,
      "imento": 1801,
      "ours": 1802,
      "weh": 1803,
      "áĦĩáħ¡áĦģ": 1804,
      "Ġdays": 1805,
      "áĦİáħ®áĨ¼": 1806,
      "Ra": 1807,
      "uel": 1808,
      "sub": 1809,
      "Ġthose": 1810,
      "cie": 1811,
      "Ġafter": 1812,
      "entar": 1813,
      "Ġdiscipl": 1814,
      "RU": 1815,
      "dr": 1816,
      "jon": 1817,
      "Ġlife": 1818,
      "Ġmade": 1819,
      "IC": 1820,
      "era": 1821,
      "Ġac": 1822,
      "áĦĢáħ¡áĩĢáĦĥáħ¡": 1823,
      "202": 1824,
      "100": 1825,
      "AP": 1826,
      "Ġsou": 1827,
      "abet": 1828,
      "áĦĴáħ¬": 1829,
      "Ġright": 1830,
      "áĦĩáħ¡áĦģáħ®áĦĥáħ¡": 1831,
      "cla": 1832,
      "fon": 1833,
      "gl": 1834,
      "two": 1835,
      "alle": 1836,
      "unici": 1837,
      "áĦĭáħ§áĨ«": 1838,
      "BO": 1839,
      "by": 1840,
      "bis": 1841,
      "Ìģbli": 1842,
      "áĦĨáħ§áĨ¼": 1843,
      "áĦħáħ©": 1844,
      "áĦĩáħ®áĨ«": 1845,
      "Ġbelie": 1846,
      "EU": 1847,
      "jn": 1848,
      "ml": 1849,
      "plo": 1850,
      "ster": 1851,
      "Ùĥ": 1852,
      "star": 1853,
      "áĦĴáħ¡áĨ«": 1854,
      "para": 1855,
      "pare": 1856,
      "johndoe": 1857,
      "Th": 1858,
      "over": 1859,
      "Ġz": 1860,
      "Ìĥes": 1861,
      "áĦĴáħµ": 1862,
      "peg": 1863,
      "áĦİáħ¥": 1864,
      "-P": 1865,
      ".od": 1866,
      "cess": 1867,
      "Ġhath": 1868,
      "Gra": 1869,
      "MO": 1870,
      "fy": 1871,
      "áħŃ": 1872,
      "orte": 1873,
      "Ġsent": 1874,
      "Ġsome": 1875,
      "cep": 1876,
      "ĠSur": 1877,
      "Ġcri": 1878,
      "ahweh": 1879,
      "bas": 1880,
      "cum": 1881,
      "gia": 1882,
      "rat": 1883,
      "uz": 1884,
      "mente": 1885,
      "culo": 1886,
      "351": 1887,
      "Bar": 1888,
      "El": 1889,
      "dro": 1890,
      "fun": 1891,
      "ener": 1892,
      "ĠLORD": 1893,
      "ĠEs": 1894,
      "ffer": 1895,
      "Ġlike": 1896,
      "áĦĳáħŃ": 1897,
      "Ġdisciples": 1898,
      "Uni": 1899,
      "cra": 1900,
      "ffe": 1901,
      "hil": 1902,
      "Ġesta": 1903,
      "tiff": 1904,
      "Ġbro": 1905,
      "cional": 1906,
      "Ru": 1907,
      "ãģ": 1908,
      "rael": 1909,
      "Ġmouth": 1910,
      "à¸ģ": 1911,
      "Gu": 1912,
      "uro": 1913,
      "Ġwater": 1914,
      "doejane": 1915,
      "Ceara": 1916,
      "Ġunderstand": 1917,
      "eth": 1918,
      "rar": 1919,
      "Ġru": 1920,
      "tica": 1921,
      "áĦİáħ¥áĨ«": 1922,
      "TH": 1923,
      "hier": 1924,
      "esse": 1925,
      "Ġsu": 1926,
      "urs": 1927,
      "ÌĪh": 1928,
      "stu": 1929,
      "aj": 1930,
      "cat": 1931,
      "gat": 1932,
      "urn": 1933,
      "Ġgive": 1934,
      "doejohn": 1935,
      "Ìģngua": 1936,
      "-A": 1937,
      "67": 1938,
      "Her": 1939,
      "ball": 1940,
      "Ġif": 1941,
      "entro": 1942,
      "ÌĪl": 1943,
      "ÌĪnd": 1944,
      "igne": 1945,
      "versidade": 1946,
      "gg": 1947,
      "janedoe": 1948,
      "áĦĩáħ®áĨ¯": 1949,
      "91": 1950,
      "Cam": 1951,
      "tan": 1952,
      "isa": 1953,
      "tac": 1954,
      "hol": 1955,
      "áĨ¯áĦħáħµáĦĥáħ¡": 1956,
      "Ġpeople": 1957,
      "CU": 1958,
      "alth": 1959,
      "ash": 1960,
      "Ġabout": 1961,
      "64": 1962,
      "As": 1963,
      "flu": 1964,
      "ĠAn": 1965,
      "Ġeven": 1966,
      "áĦĭáħ¦": 1967,
      "Ġperson": 1968,
      "Ġgreat": 1969,
      "Fe": 1970,
      "MAR": 1971,
      "Ġpri": 1972,
      "cap": 1973,
      "ÌĥĊ": 1974,
      "ĠDE": 1975,
      "rande": 1976,
      "gru": 1977,
      "tat": 1978,
      "zie": 1979,
      "Ġci": 1980,
      "ily": 1981,
      "tie": 1982,
      "enty": 1983,
      "ĠApt": 1984,
      "à¸¡": 1985,
      "Ġcor": 1986,
      "07": 1987,
      "Ber": 1988,
      "Ha": 1989,
      "Ġthree": 1990,
      "conse": 1991,
      "áĦĢáħ§áĨ¼": 1992,
      "ku": 1993,
      "sin": 1994,
      "txt": 1995,
      "Ġil": 1996,
      "ary": 1997,
      "mais": 1998,
      "ird": 1999,
      "Ġdon": 2000,
      "asser": 2001,
      "Ġfool": 2002,
      "Je": 2003,
      "VO": 2004,
      "tw": 2005,
      "Ġum": 2006,
      "Ìģo": 2007,
      "dez": 2008,
      "ÌĪhr": 2009,
      "áĦīáħ©áĨ¨": 2010,
      "Ġcal": 2011,
      "ĠWhen": 2012,
      "LU": 2013,
      "fall": 2014,
      "sw": 2015,
      "Ġking": 2016,
      "áĦĮáħ¡áĨ¼": 2017,
      "Lo": 2018,
      "ial": 2019,
      "lou": 2020,
      "tt": 2021,
      "vro": 2022,
      "onte": 2023,
      "mac": 2024,
      "uss": 2025,
      "ally": 2026,
      "ÌĢs": 2027,
      "plan": 2028,
      "áĦĮáħ®áĨ¼": 2029,
      "áĦīáħ¢áĨ¼áĦĢáħ¡áĨ¨": 2030,
      "Ġwords": 2031,
      "-G": 2032,
      "bmp": 2033,
      "nam": 2034,
      "ÌĪĊ": 2035,
      "Ġevery": 2036,
      "ĠCAS": 2037,
      "jeto": 2038,
      "Cor": 2039,
      "Or": 2040,
      "TR": 2041,
      "gas": 2042,
      "gri": 2043,
      "cken": 2044,
      "áĦĩáħ¡áĨ«": 2045,
      "San": 2046,
      "bri": 2047,
      "vin": 2048,
      "Ì£": 2049,
      "live": 2050,
      "oly": 2051,
      "aber": 2052,
      "ĠYahweh": 2053,
      "/MA": 2054,
      "61": 2055,
      "87": 2056,
      "JA": 2057,
      "pet": 2058,
      "ÙĤ": 2059,
      "Ġter": 2060,
      "enc": 2061,
      "vio": 2062,
      "Ġdire": 2063,
      "ĠUF": 2064,
      "CAS": 2065,
      "Nor": 2066,
      "iac": 2067,
      "pie": 2068,
      "abri": 2069,
      "ĠPe": 2070,
      "ants": 2071,
      "ject": 2072,
      "html": 2073,
      "AD": 2074,
      "Ba": 2075,
      "uc": 2076,
      "ÌĽ": 2077,
      "Ġi": 2078,
      "ĠâĢ": 2079,
      "áĨ¼áĦĴáħ¡áĦĥáħ¡": 2080,
      "ette": 2081,
      "Ġdas": 2082,
      "scha": 2083,
      ".csv": 2084,
      ".tiff": 2085,
      "VI": 2086,
      "ique": 2087,
      "pg": 2088,
      "tom": 2089,
      "tic": 2090,
      "Ġshould": 2091,
      "tria": 2092,
      "riting": 2093,
      "Ġke": 2094,
      "Ġthen": 2095,
      "une": 2096,
      "imo": 2097,
      "Ġcar": 2098,
      "rough": 2099,
      ".de": 2100,
      "Fran": 2101,
      "PE": 2102,
      "ife": 2103,
      "less": 2104,
      "sam": 2105,
      "Ìĩ": 2106,
      "Ìģd": 2107,
      "áĦĢáħ¥áĨ«": 2108,
      "Ġheard": 2109,
      ".jpeg": 2110,
      "bio": 2111,
      "fro": 2112,
      "king": 2113,
      "áĨ©": 2114,
      "ilva": 2115,
      "iten": 2116,
      "six": 2117,
      "schen": 2118,
      "gade": 2119,
      "Ġany": 2120,
      "CI": 2121,
      "GA": 2122,
      "ST": 2123,
      "aco": 2124,
      "bru": 2125,
      "under": 2126,
      "Ġpl": 2127,
      "ents": 2128,
      "ĠAr": 2129,
      "cond": 2130,
      "ĠThere": 2131,
      "Ġwhere": 2132,
      "ews": 2133,
      "Ġsaw": 2134,
      "65": 2135,
      "bla": 2136,
      "has": 2137,
      "ither": 2138,
      "Ġres": 2139,
      "Ìģmer": 2140,
      "isse": 2141,
      "itor": 2142,
      "main": 2143,
      "Ġfu": 2144,
      "cade": 2145,
      "Ġmore": 2146,
      "gether": 2147,
      "ĠCar": 2148,
      "weg": 2149,
      "Ġdie": 2150,
      "Fa": 2151,
      "We": 2152,
      "Ìģni": 2153,
      "áĦĴáħ©áĨ«": 2154,
      "oll": 2155,
      "poli": 2156,
      "iller": 2157,
      "áĦĤáħµ": 2158,
      "Ġlove": 2159,
      "04": 2160,
      "ija": 2161,
      "áĨ®": 2162,
      "Ìģdi": 2163,
      "Ìģsi": 2164,
      "unter": 2165,
      "Ìĥe": 2166,
      "osta": 2167,
      "Ġeat": 2168,
      "ĠLu": 2169,
      "áĦħáħ²": 2170,
      "93": 2171,
      "cli": 2172,
      "Ġein": 2173,
      "Ġheaven": 2174,
      "áĦĮáħ¦áĦĭáħ¥": 2175,
      "áĦĳáħŃáĦĮáħ¦áĦĭáħ¥": 2176,
      ".txt": 2177,
      "nor": 2178,
      "sar": 2179,
      "det": 2180,
      "rau": 2181,
      "ely": 2182,
      "ĠSign": 2183,
      "endre": 2184,
      "Sign": 2185,
      "atro": 2186,
      "tele": 2187,
      "sten": 2188,
      "à¸ª": 2189,
      "áĦĢáħ¡áĦĥáħ¡": 2190,
      "ERSA": 2191,
      "INA": 2192,
      "ship": 2193,
      "Jesus": 2194,
      "ama": 2195,
      "sie": 2196,
      "som": 2197,
      "wie": 2198,
      "Ìģ-": 2199,
      "ÌĤme": 2200,
      "keit": 2201,
      "stell": 2202,
      "92": 2203,
      "hum": 2204,
      "ies": 2205,
      "sau": 2206,
      "see": 2207,
      "áĦħáħ§": 2208,
      "Ġseven": 2209,
      "BR": 2210,
      "Ġour": 2211,
      "Ġsin": 2212,
      "Ìģpio": 2213,
      "áĦĭáħŃáĨ¼": 2214,
      "-E": 2215,
      "-e": 2216,
      "-do": 2217,
      ".bmp": 2218,
      "Jan": 2219,
      "nom": 2220,
      "top": 2221,
      "med": 2222,
      "Ġglor": 2223,
      "aux": 2224,
      "-T": 2225,
      "82": 2226,
      "ief": 2227,
      "try": 2228,
      "Ġlight": 2229,
      "selves": 2230,
      "Esta": 2231,
      "fol": 2232,
      "gy": 2233,
      "gor": 2234,
      "ãĤ": 2235,
      "sem": 2236,
      "tik": 2237,
      "stre": 2238,
      "Ġevil": 2239,
      "Ġgi": 2240,
      "ĠLe": 2241,
      "áħ¢áĦģáħ³": 2242,
      "fort": 2243,
      "izar": 2244,
      "áĦģáħ¢áĦģáħ³": 2245,
      "Ã¸r": 2246,
      "rasil": 2247,
      "áĦģáħ¢áĦģáħ³áĨºáĦĴáħ¡áĦĥáħ¡": 2248,
      "-F": 2249,
      "05": 2250,
      "VA": 2251,
      "pul": 2252,
      "eno": 2253,
      "ank": 2254,
      "Ìģvel": 2255,
      "Ġstr": 2256,
      "osa": 2257,
      "áĦīáħµáĨ¯": 2258,
      "áĦĲáħ³": 2259,
      ".png": 2260,
      "crita": 2261,
      "-R": 2262,
      "Br": 2263,
      "oi": 2264,
      "table": 2265,
      "lic": 2266,
      "ments": 2267,
      "gram": 2268,
      "Ġmay": 2269,
      "áĦĭáħ¯áĨ«áĦĴáħ¡áĦĥáħ¡": 2270,
      ".doc": 2271,
      ".html": 2272,
      "63": 2273,
      "DI": 2274,
      "SI": 2275,
      "bit": 2276,
      "ule": 2277,
      "encia": 2278,
      "unt": 2279,
      "tag": 2280,
      "Ġmin": 2281,
      "ĠSu": 2282,
      "ody": 2283,
      "Ġreceive": 2284,
      "AU": 2285,
      "Pa": 2286,
      "ds": 2287,
      "onder": 2288,
      "usa": 2289,
      "Ġeyes": 2290,
      "Ġhimself": 2291,
      "gent": 2292,
      "jun": 2293,
      "kar": 2294,
      "pou": 2295,
      "ÌĪch": 2296,
      "Ì§ar": 2297,
      "áĦİáħµáĦĥáħ¡": 2298,
      "Ìģlia": 2299,
      "Ġplace": 2300,
      "áĦĩáħ¢áĨ¨": 2301,
      "62": 2302,
      "Mon": 2303,
      "Pal": 2304,
      "band": 2305,
      "nis": 2306,
      "uth": 2307,
      "uri": 2308,
      "xls": 2309,
      "igen": 2310,
      "áĦĨáħ¢": 2311,
      "Ġtre": 2312,
      "fica": 2313,
      "elling": 2314,
      "grand": 2315,
      "Maria": 2316,
      "94": 2317,
      "95": 2318,
      "Ad": 2319,
      "GU": 2320,
      "fru": 2321,
      "mul": 2322,
      "iser": 2323,
      "áĦĥáħ©áĨ¨": 2324,
      "met": 2325,
      "lam": 2326,
      "verse": 2327,
      "à¸¢": 2328,
      "áĦĲáħ©áĨ¼": 2329,
      ".jpg": 2330,
      "Ġanother": 2331,
      "ederal": 2332,
      "85": 2333,
      "DV": 2334,
      "Ges": 2335,
      "Ìģre": 2336,
      "atch": 2337,
      "áĦĥáħ®": 2338,
      "utter": 2339,
      "Ġwhom": 2340,
      "Ju": 2341,
      "din": 2342,
      "ido": 2343,
      "pod": 2344,
      "ÌĪgen": 2345,
      "à¸µ": 2346,
      "itude": 2347,
      "essoas": 2348,
      "ÙĶ": 2349,
      "Ġel": 2350,
      "ines": 2351,
      "áĨ¶": 2352,
      "isten": 2353,
      "isdom": 2354,
      "left": 2355,
      "olhar": 2356,
      "give": 2357,
      "aleza": 2358,
      "Ġcalled": 2359,
      "áĨ®áĦĥáħ¡": 2360,
      "Pra": 2361,
      "ZH": 2362,
      "gle": 2363,
      "ias": 2364,
      "oh": 2365,
      "yer": 2366,
      "Ìģde": 2367,
      "aico": 2368,
      "ĠFather": 2369,
      "áĦĢáħ¡áĨ·": 2370,
      "ctor": 2371,
      "-Doe": 2372,
      "ake": 2373,
      "fam": 2374,
      "medi": 2375,
      "dolor": 2376,
      "ÌĪs": 2377,
      "Reg": 2378,
      "áĦīáħ®áĦĮáħ¥áĨ¼": 2379,
      "090": 2380,
      "81": 2381,
      "Ä§": 2382,
      "Ġother": 2383,
      "Ìĥa": 2384,
      "Ġhear": 2385,
      "aith": 2386,
      "áĦģáħ¡": 2387,
      "áĦħáħ³áĨ·": 2388,
      "'Ċ": 2389,
      "CR": 2390,
      "OL": 2391,
      "iÃŁ": 2392,
      "py": 2393,
      "test": 2394,
      "anger": 2395,
      "Ġsame": 2396,
      "lia": 2397,
      "Ġpass": 2398,
      "áĦīáħ¡áĦħáħ¡": 2399,
      "Ġlaw": 2400,
      "illed": 2401,
      "abeto": 2402,
      "à¹Ģà¸": 2403,
      "83": 2404,
      "Kon": 2405,
      "anne": 2406,
      "lood": 2407,
      "tras": 2408,
      "Ġask": 2409,
      "áĦĭáħ§áĦħáħ¥": 2410,
      "-c": 2411,
      "EI": 2412,
      "TER": 2413,
      "til": 2414,
      "lev": 2415,
      "ÌĤt": 2416,
      "Ġland": 2417,
      "ĠNow": 2418,
      "áĦģáħ©": 2419,
      "ledge": 2420,
      "AB": 2421,
      "jan": 2422,
      "Ġwise": 2423,
      "ures": 2424,
      "áĦĭáħµáĨ»áĦĥáħ¡": 2425,
      "Ġspeak": 2426,
      "vore": 2427,
      "Ùĩ": 2428,
      "Ġjo": 2429,
      "ĠØ§ÙĦ": 2430,
      "Ġfol": 2431,
      "cam": 2432,
      "ĠSe": 2433,
      "auto": 2434,
      "vidade": 2435,
      "Ġseu": 2436,
      "gif": 2437,
      "TAR": 2438,
      "nos": 2439,
      "pat": 2440,
      "zig": 2441,
      "inde": 2442,
      "letra": 2443,
      "Ġpa": 2444,
      "ement": 2445,
      "ortaleza": 2446,
      "guage": 2447,
      "RIO": 2448,
      "-H": 2449,
      "SP": 2450,
      "TU": 2451,
      "nat": 2452,
      "pis": 2453,
      "Ìģcia": 2454,
      "usto": 2455,
      "amento": 2456,
      "Ġcoun": 2457,
      "bat": 2458,
      "dle": 2459,
      "dru": 2460,
      "rado": 2461,
      "ĠSon": 2462,
      "Ġcity": 2463,
      "ĠPro": 2464,
      "ize": 2465,
      "áĦĭáħ¡áĨ¨áĦĴáħ¡áĦĥáħ¡": 2466,
      "áĦĭáħ¡áĦĤáħµ": 2467,
      "gs": 2468,
      "áħ±": 2469,
      "enne": 2470,
      "indi": 2471,
      "igo": 2472,
      "Ġtemp": 2473,
      "turn": 2474,
      "Ġbrother": 2475,
      "BG": 2476,
      "BI": 2477,
      "SL": 2478,
      "bom": 2479,
      "kre": 2480,
      "nas": 2481,
      "ys": 2482,
      "áĨ±": 2483,
      "Ġthrough": 2484,
      "logi": 2485,
      "Ġtook": 2486,
      "new": 2487,
      "gues": 2488,
      "áĦīáħµáĨ¶": 2489,
      "Ġupon": 2490,
      "áĦĢáħ³áĨ·": 2491,
      "070": 2492,
      "97": 2493,
      "Let": 2494,
      "St": 2495,
      "nar": 2496,
      "zel": 2497,
      "rel": 2498,
      "tell": 2499,
      "Ġwoman": 2500,
      "Ġyet": 2501,
      "orden": 2502,
      "Regen": 2503,
      "áĦĥáħ³áĨ¼": 2504,
      "84": 2505,
      "Fo": 2506,
      "bab": 2507,
      "ini": 2508,
      "Ìģci": 2509,
      "ated": 2510,
      "chi": 2511,
      "ush": 2512,
      "edro": 2513,
      "heit": 2514,
      "icar": 2515,
      "vide": 2516,
      "mong": 2517,
      "logie": 2518,
      "pressa": 2519,
      "Portu": 2520,
      ".br": 2521,
      "IRE": 2522,
      "UL": 2523,
      "gir": 2524,
      "rest": 2525,
      "sup": 2526,
      "animal": 2527,
      "alo": 2528,
      "light": 2529,
      "Ġpelo": 2530,
      "entre": 2531,
      "post": 2532,
      "Ġnome": 2533,
      "Ġund": 2534,
      "áĦĦáħ©áĨ¨áĦĴáħ¡áĦĥáħ¡": 2535,
      "áĦĦáħ©áĨ¨áĦĦáħ©áĨ¨áĦĴáħ¡áĦĥáħ¡": 2536,
      "-D": 2537,
      ".it": 2538,
      "GE": 2539,
      "inder": 2540,
      "dam": 2541,
      "Ġamong": 2542,
      "ĠJews": 2543,
      "Ġtogether": 2544,
      "Ġcer": 2545,
      "berg": 2546,
      "Ġforth": 2547,
      "áĦĩáħ¡áĨ¼": 2548,
      "Ze": 2549,
      "four": 2550,
      "ige": 2551,
      "Ø¬": 2552,
      "ison": 2553,
      "ische": 2554,
      "atis": 2555,
      "Ġad": 2556,
      "quar": 2557,
      "abo": 2558,
      "bec": 2559,
      "Ġnow": 2560,
      "Ġtal": 2561,
      "áĦİáħ¬": 2562,
      "áĦĭáħ¡áĨ«": 2563,
      "ousand": 2564,
      "face": 2565,
      "mbol": 2566,
      "ÌĬnd": 2567,
      "publi": 2568,
      "-to": 2569,
      "Go": 2570,
      "VER": 2571,
      "gos": 2572,
      "ral": 2573,
      "xe": 2574,
      "Ìģk": 2575,
      "dem": 2576,
      "lei": 2577,
      "mag": 2578,
      "à¸´": 2579,
      "ĠNe": 2580,
      "Ġtell": 2581,
      "Ġunderstanding": 2582,
      "-K": 2583,
      "Tra": 2584,
      "ert": 2585,
      "Ġnor": 2586,
      "pron": 2587,
      "ANA": 2588,
      "ÌĬr": 2589,
      "ĠUni": 2590,
      "áĦĪáħ¡": 2591,
      "ĠDeus": 2592,
      "PRE": 2593,
      "Sal": 2594,
      "pun": 2595,
      "pessoa": 2596,
      "Ġopen": 2597,
      "Ġoff": 2598,
      "ĠDo": 2599,
      "áĦĴáħ¡áĨ¨": 2600,
      "super": 2601,
      "rente": 2602,
      "agem": 2603,
      "Ġworld": 2604,
      "ingersp": 2605,
      "Ġagainst": 2606,
      "Ho": 2607,
      "JO": 2608,
      "Tu": 2609,
      "bs": 2610,
      "dist": 2611,
      "wh": 2612,
      "Ìģne": 2613,
      "lee": 2614,
      "áĦĥáħ¬": 2615,
      "ander": 2616,
      "tiv": 2617,
      "à¸ĩ": 2618,
      "áĦĭáħ¨": 2619,
      "contr": 2620,
      "ARA": 2621,
      ".json": 2622,
      "-I": 2623,
      "-fe": 2624,
      "FA": 2625,
      "Pai": 2626,
      "iel": 2627,
      "iano": 2628,
      "matema": 2629,
      "ville": 2630,
      "any": 2631,
      "Ìģz": 2632,
      "teur": 2633,
      "rive": 2634,
      "áĦĴáħ§áĨ¼": 2635,
      "ĠLet": 2636,
      "antes": 2637,
      "ESE": 2638,
      "gado": 2639,
      "áĦĳáħ§áĨ«": 2640,
      "Ġhands": 2641,
      "áĦĭáħ³áĨ·": 2642,
      "-C": 2643,
      "DU": 2644,
      "Ele": 2645,
      "Ko": 2646,
      "PR": 2647,
      "hon": 2648,
      "×Ļ": 2649,
      "ario": 2650,
      "indo": 2651,
      "Ìģch": 2652,
      "Ìģtu": 2653,
      "Ìģdio": 2654,
      "Ġmu": 2655,
      "ĠSilva": 2656,
      "áĦĭáħµáĦĭáħ£": 2657,
      "áĦĭáħ¡áĨ¯áĦĭáħ¡": 2658,
      "Ġsaith": 2659,
      "áĦĮáħ¡áĨ¯áĦĴáħ¡áĦĥáħ¡": 2660,
      "080": 2661,
      "unidade": 2662,
      "áĦĢáħªáĨ¼": 2663,
      "-g": 2664,
      "-na": 2665,
      "?\"Ċ": 2666,
      "Sy": 2667,
      "TC": 2668,
      "Val": 2669,
      "You": 2670,
      "blo": 2671,
      "bet": 2672,
      "fac": 2673,
      "put": 2674,
      "uk": 2675,
      "oral": 2676,
      "leep": 2677,
      "Ġap": 2678,
      "heiro": 2679,
      "ĠFederal": 2680,
      "Ġles": 2681,
      "ished": 2682,
      "áĦĭáħµáĦĭáħ£áĦĢáħµ": 2683,
      "MD": 2684,
      "run": 2685,
      "Ġest": 2686,
      "Ġwisdom": 2687,
      "Ġfour": 2688,
      "Ġfound": 2689,
      "ÌĪd": 2690,
      "Ġsurda": 2691,
      ".css": 2692,
      "-so": 2693,
      "Munici": 2694,
      "VE": 2695,
      "Vo": 2696,
      "gie": 2697,
      "mc": 2698,
      "sil": 2699,
      "tivo": 2700,
      "ural": 2701,
      "Ġset": 2702,
      "áĦĢáħ¡áĨ¼": 2703,
      "Ġpropos": 2704,
      "Ġjud": 2705,
      "Ġface": 2706,
      ".js": 2707,
      "ĠPeter": 2708,
      "ĠSuite": 2709,
      "-d": 2710,
      "Bairro": 2711,
      "Ter": 2712,
      "ZA": 2713,
      "zon": 2714,
      "ĠVer": 2715,
      "atz": 2716,
      "lex": 2717,
      "colo": 2718,
      "áĦĮáħ³áĨ¼": 2719,
      "tron": 2720,
      "parar": 2721,
      "graf": 2722,
      "hren": 2723,
      "-no": 2724,
      "Can": 2725,
      "Sur": 2726,
      "ade": 2727,
      "lon": 2728,
      "ping": 2729,
      "enda": 2730,
      "Ìģpi": 2731,
      "lad": 2732,
      "496": 2733,
      "ission": 2734,
      "-m": 2735,
      "-in": 2736,
      "Bi": 2737,
      "SU": 2738,
      "idade": 2739,
      "arch": 2740,
      "tim": 2741,
      "Ġob": 2742,
      "Ġold": 2743,
      "Ġmuch": 2744,
      "à¸¥": 2745,
      "head": 2746,
      "side": 2747,
      "bolo": 2748,
      "áĦİáħµáĦĴáħ¡áĦĥáħ¡": 2749,
      "numero": 2750,
      "áĦĭáħ²áĦİáħµáĦĴáħ¡áĦĥáħ¡": 2751,
      "FI": 2752,
      "vit": 2753,
      "Ġwould": 2754,
      "quis": 2755,
      "Ġdel": 2756,
      "aper": 2757,
      "grou": 2758,
      ".ppt": 2759,
      "Ìģmero": 2760,
      "-L": 2761,
      "CD": 2762,
      "Ġer": 2763,
      "Ġspo": 2764,
      "urt": 2765,
      "abel": 2766,
      "ĠMa": 2767,
      "ĠBo": 2768,
      "áħ³áĦĥáħ¡": 2769,
      "Ìģrica": 2770,
      "ÌĪrden": 2771,
      "Ġvon": 2772,
      "Ġtake": 2773,
      "volup": 2774,
      "áĩĤ": 2775,
      "âĢĿ": 2776,
      "ĠâĢľ": 2777,
      ".xls": 2778,
      "Ein": 2779,
      "fig": 2780,
      "pau": 2781,
      "×Ķ": 2782,
      "ough": 2783,
      "itter": 2784,
      "Ġsix": 2785,
      "ingen": 2786,
      "igual": 2787,
      "Ġint": 2788,
      "Ġele": 2789,
      "Ġclo": 2790,
      "hem": 2791,
      "áĦĭáħµáĦĴáħ§áĨ¼": 2792,
      "Ġcompor": 2793,
      "Ġdia": 2794,
      "áĦĢáħ§áĨ¨": 2795,
      "áĦĩáħ§áĨ«áĦĭáħµáĦĴáħ§áĨ¼": 2796,
      "jer": 2797,
      "jet": 2798,
      "ms": 2799,
      "sit": 2800,
      "vac": 2801,
      "×ķ": 2802,
      "organ": 2803,
      "isk": 2804,
      "Ġmon": 2805,
      "áĦĩáħ©áĨ¨": 2806,
      "ÌĮt": 2807,
      "vier": 2808,
      "voce": 2809,
      "Ġlips": 2810,
      "áĦĨáħ¡áĨ½": 2811,
      "Ġglory": 2812,
      "Fortaleza": 2813,
      "ped": 2814,
      "Ðµ": 2815,
      "tex": 2816,
      "rage": 2817,
      "ilho": 2818,
      "tam": 2819,
      "libras": 2820,
      "Ġpray": 2821,
      "cept": 2822,
      "ĠJo": 2823,
      "aba": 2824,
      "ĠCo": 2825,
      "ĠRo": 2826,
      "áĦĳáħ¢": 2827,
      "puter": 2828,
      "Ġmother": 2829,
      "kommen": 2830,
      "ĠSantos": 2831,
      "Kar": 2832,
      "natur": 2833,
      "rist": 2834,
      "ws": 2835,
      "what": 2836,
      "andar": 2837,
      "cao": 2838,
      "Ġinter": 2839,
      "ump": 2840,
      "book": 2841,
      "Ìģrie": 2842,
      "áĦĦáħ¡": 2843,
      "áĦĴáħªáĦĤáħ¡áĦĥáħ¡": 2844,
      "aniel": 2845,
      "ingerspelling": 2846,
      "AG": 2847,
      "OU": 2848,
      "das": 2849,
      "kken": 2850,
      "nel": 2851,
      "qmc": 2852,
      "sion": 2853,
      "yo": 2854,
      "zt": 2855,
      "chu": 2856,
      "roz": 2857,
      "amp": 2858,
      "ĠJu": 2859,
      "ĠJan": 2860,
      "à¸§": 2861,
      "part": 2862,
      "open": 2863,
      "Ġlook": 2864,
      "Ste": 2865,
      "TS": 2866,
      "clu": 2867,
      "Øµ": 2868,
      "ars": 2869,
      "iner": 2870,
      "tive": 2871,
      "lim": 2872,
      "Ġfive": 2873,
      "ÌĤN": 2874,
      "ĠPMS": 2875,
      "ĠGe": 2876,
      "nik": 2877,
      "sche": 2878,
      "phabet": 2879,
      "ometria": 2880,
      "eux": 2881,
      "pression": 2882,
      ".fr": 2883,
      "Il": 2884,
      "dou": 2885,
      "iana": 2886,
      "nt": 2887,
      "sti": 2888,
      "ĠX": 2889,
      "ariac": 2890,
      "Ìģgi": 2891,
      "ason": 2892,
      "Ġwell": 2893,
      "tamento": 2894,
      "Ġfirst": 2895,
      "ĠNo": 2896,
      "ativ": 2897,
      "Ġmake": 2898,
      "à¹Į": 2899,
      "áĦĳáħ¡áĦĭáħ¡áĨ¨áĦĴáħ¡áĦĥáħ¡": 2900,
      "Ġservant": 2901,
      "Ġbelieve": 2902,
      "acob": 2903,
      "-ma": 2904,
      "-up": 2905,
      ".gif": 2906,
      "Ca": 2907,
      "Ser": 2908,
      "xa": 2909,
      "Ø´": 2910,
      "raz": 2911,
      "Ġho": 2912,
      "entes": 2913,
      "quel": 2914,
      "Ġmor": 2915,
      "pect": 2916,
      "199": 2917,
      "áĦĭáħ²áĨ¨": 2918,
      "áĦĭáħ¯áĨ«": 2919,
      "Don": 2920,
      "DES": 2921,
      "Mal": 2922,
      "PI": 2923,
      "cour": 2924,
      "ktion": 2925,
      "wan": 2926,
      "them": 2927,
      "Ġthousand": 2928,
      "oney": 2929,
      "ative": 2930,
      "respon": 2931,
      "mond": 2932,
      "áĦĢáħµáĦĥáħ¡": 2933,
      "áĦĨáħ®áĨ¯": 2934,
      "Ġprojeto": 2935,
      "angel": 2936,
      "Comuni": 2937,
      "CAR": 2938,
      "Des": 2939,
      "ket": 2940,
      "pad": 2941,
      "rite": 2942,
      "Ġbre": 2943,
      "à¸±": 2944,
      "à¸Ķ": 2945,
      "ÌĮit": 2946,
      "áĦĭáħ¥áĨ¨": 2947,
      "áĦĭáħ¡áĦĴáħ¡": 2948,
      "avor": 2949,
      "mbro": 2950,
      "tinu": 2951,
      "600": 2952,
      "MI": 2953,
      "fier": 2954,
      "Ġfi": 2955,
      "esser": 2956,
      "áĦħáħ¢": 2957,
      "ghter": 2958,
      "tention": 2959,
      "Ġuma": 2960,
      "Ġknowledge": 2961,
      "áĦĲáħ³áĨ¨": 2962,
      "-(": 2963,
      "Fre": 2964,
      "Ir": 2965,
      "It": 2966,
      "han": 2967,
      "was": 2968,
      "ĠáĦĩáħ§áĨ«áĦĭáħµáĦĴáħ§áĨ¼": 2969,
      "Ìģte": 2970,
      "cab": 2971,
      "boa": 2972,
      "áĦĢáħ¡áĦĮáħµáĦĥáħ¡": 2973,
      "ĠEdu": 2974,
      "assen": 2975,
      "áĦĭáħ¥áĦĨáħ¡": 2976,
      "aixo": 2977,
      "-j": 2978,
      "Ac": 2979,
      "HIS": 2980,
      "MEN": 2981,
      "ND": 2982,
      "Tor": 2983,
      "fem": 2984,
      "mouth": 2985,
      "ppen": 2986,
      "ende": 2987,
      "ors": 2988,
      "illo": 2989,
      "ria": 2990,
      "home": 2991,
      "abrir": 2992,
      "essa": 2993,
      "ateur": 2994,
      "áĦĤáħ³": 2995,
      "áĦĭáħ¡áĨ¯áĦĥáħ¡": 2996,
      "ittle": 2997,
      "ĠIsrael": 2998,
      "-re": 2999,
      "JE": 3000,
      "Mor": 3001,
      "PU": 3002,
      "SD": 3003,
      "non": 3004,
      "nine": 3005,
      "Ìģx": 3006,
      "itness": 3007,
      "eliz": 3008,
      "Ġwalk": 3009,
      "mother": 3010,
      "view": 3011,
      "900": 3012,
      "Ja": 3013,
      "but": 3014,
      "cto": 3015,
      "iar": 3016,
      "aro": 3017,
      "tho": 3018,
      "Ìģro": 3019,
      "cole": 3020,
      "ingu": 3021,
      "vement": 3022,
      "edu": 3023,
      "ĠPa": 3024,
      "parti": 3025,
      "áĦĭáħµáĦīáħµáĨ¸": 3026,
      "ĠMaria": 3027,
      "rought": 3028,
      "áĦĭáħ³áĨ·áĦĭáħ¦": 3029,
      "-la": 3030,
      "Sem": 3031,
      "poe": 3032,
      "wi": 3033,
      "ense": 3034,
      "Ìģes": 3035,
      "oria": 3036,
      "isto": 3037,
      "chor": 3038,
      "asso": 3039,
      "Ġsons": 3040,
      "lio": 3041,
      "Ġpela": 3042,
      "Ġmult": 3043,
      "irma": 3044,
      "Ìĥos": 3045,
      "à¸Ħ": 3046,
      "à¸ķ": 3047,
      "Ġdone": 3048,
      "ĠBrasil": 3049,
      "apa": 3050,
      "cula": 3051,
      "áĦĨáħ¡áĦĭáħ³áĨ·áĦĭáħ¦": 3052,
      "AND": 3053,
      "Ġtem": 3054,
      "áĦĥáħ©áĨ«": 3055,
      "twenty": 3056,
      "AT": 3057,
      "Bel": 3058,
      "God": 3059,
      "Ku": 3060,
      "UM": 3061,
      "ror": 3062,
      "Ġva": 3063,
      "anto": 3064,
      "infor": 3065,
      "atura": 3066,
      "rab": 3067,
      "meu": 3068,
      "richt": 3069,
      "Ġnicht": 3070,
      "urch": 3071,
      "ĠJose": 3072,
      "Ġden": 3073,
      "áĦĭáħ¬": 3074,
      "ÌĮa": 3075,
      "carro": 3076,
      "anada": 3077,
      "Ġvoice": 3078,
      "Joa": 3079,
      "Ta": 3080,
      "back": 3081,
      "flo": 3082,
      "long": 3083,
      "obe": 3084,
      "Ìģlo": 3085,
      "ÌģRIO": 3086,
      "alem": 3087,
      "todo": 3088,
      "meiro": 3089,
      "Ġwife": 3090,
      "áĦĥáħ¡áĨ±": 3091,
      "Ġbet": 3092,
      "áĦĢáħ¢": 3093,
      "ĠSpirit": 3094,
      "rup": 3095,
      "Ġkien": 3096,
      "lesh": 3097,
      "itulado": 3098,
      "dragon": 3099,
      "Ġbecame": 3100,
      "áĦĭáħ¡áĦĤáħµáĦĥáħ¡": 3101,
      "Ġintitulado": 3102,
      "-V": 3103,
      "FE": 3104,
      "Ola": 3105,
      "Pri": 3106,
      "cit": 3107,
      "jem": 3108,
      "lle": 3109,
      "mol": 3110,
      "zz": 3111,
      "Äĳ": 3112,
      "ÑĤ": 3113,
      "áĦĬ": 3114,
      "espe": 3115,
      "ori": 3116,
      "ates": 3117,
      "Ġfaith": 3118,
      "áħ¥áĨ·": 3119,
      "tru": 3120,
      "áĦĤáħ¢": 3121,
      "iza": 3122,
      "histo": 3123,
      "Ġsinala": 3124,
      "Ġpriest": 3125,
      "Ġproposto": 3126,
      "ComuniCAS": 3127,
      "áĦĥáħ¡áĨ±áĦĥáħ¡": 3128,
      "-O": 3129,
      "But": 3130,
      "Sta": 3131,
      "Ð¾": 3132,
      "×¨": 3133,
      "arm": 3134,
      "Ìģfi": 3135,
      "rep": 3136,
      "rich": 3137,
      "Ġput": 3138,
      "ciar": 3139,
      "ÌĤne": 3140,
      "Ġgave": 3141,
      "bole": 3142,
      "Ìģrvore": 3143,
      "áĦĨáħ®áĦīáħµ": 3144,
      "welve": 3145,
      "fessor": 3146,
      "âĢĿ.Ċ": 3147,
      "-h": 3148,
      "051": 3149,
      "Sam": 3150,
      "bir": 3151,
      "fant": 3152,
      "faire": 3153,
      "lit": 3154,
      "sho": 3155,
      "uit": 3156,
      "anhen": 3157,
      "three": 3158,
      "ald": 3159,
      "aten": 3160,
      "Ġspirit": 3161,
      "tice": 3162,
      "qual": 3163,
      "ĠShe": 3164,
      "ĠJer": 3165,
      "áĦİáħ©": 3166,
      "munn": 3167,
      "Ġrue": 3168,
      "-v": 3169,
      "Av": 3170,
      "GR": 3171,
      "New": 3172,
      "arti": 3173,
      "Ìģculo": 3174,
      "iso": 3175,
      "issa": 3176,
      "rig": 3177,
      "take": 3178,
      "Ġmer": 3179,
      "irty": 3180,
      "ames": 3181,
      "Ġbeing": 3182,
      "prin": 3183,
      "illes": 3184,
      "grama": 3185,
      "mbre": 3186,
      "risto": 3187,
      "UFERSA": 3188,
      "ĠAlla": 3189,
      "Ana": 3190,
      "Cu": 3191,
      "Dia": 3192,
      "mie": 3193,
      "rum": 3194,
      "sha": 3195,
      "ying": 3196,
      "anguage": 3197,
      "ilha": 3198,
      "Ġsinais": 3199,
      "Eu": 3200,
      "Nord": 3201,
      "fly": 3202,
      "arbe": 3203,
      "ory": 3204,
      "Ġsal": 3205,
      "Ġsto": 3206,
      "Ġflesh": 3207,
      "hom": 3208,
      "enter": 3209,
      "entation": 3210,
      "ĠAs": 3211,
      "ĠIt": 3212,
      "good": 3213,
      "istan": 3214,
      "ctri": 3215,
      "gress": 3216,
      "áĦĨáħ®áĦĮáħ©": 3217,
      "casa": 3218,
      "Universidade": 3219,
      "anhense": 3220,
      "áĦĨáħ®áĦĮáħ©áĦĢáħ¥áĨ«": 3221,
      "Am": 3222,
      "ED": 3223,
      "GH": 3224,
      "WD": 3225,
      "with": 3226,
      "ÌĨ": 3227,
      "Ġet": 3228,
      "eng": 3229,
      "ature": 3230,
      "Ġsy": 3231,
      "áĦĥáħ¡áĨ«": 3232,
      "tigen": 3233,
      "Ġbrought": 3234,
      "Ġdoes": 3235,
      "ĠTh": 3236,
      "venida": 3237,
      "ĠEn": 3238,
      "spir": 3239,
      "phet": 3240,
      "ÌĬĊ": 3241,
      "avid": 3242,
      "klein": 3243,
      "Ġkeep": 3244,
      "áĦĢáħ¡áĨ·áĦĮáħ¥áĨ¼": 3245,
      "HISTO": 3246,
      "CIA": 3247,
      "FO": 3248,
      "Tem": 3249,
      "aff": 3250,
      "ea": 3251,
      "fied": 3252,
      "kla": 3253,
      "line": 3254,
      "mou": 3255,
      "water": 3256,
      "there": 3257,
      "Ìģpri": 3258,
      "time": 3259,
      "neh": 3260,
      "point": 3261,
      "ĠEsta": 3262,
      "Ìģstica": 3263,
      "áĦĭáħ¥áĨ¼": 3264,
      "burg": 3265,
      "Ġcertain": 3266,
      "011": 3267,
      "AF": 3268,
      "CON": 3269,
      "Gre": 3270,
      "bater": 3271,
      "every": 3272,
      "mana": 3273,
      "pit": 3274,
      "uil": 3275,
      "chem": 3276,
      "áĦĭáħ®áĦĥáħ¡": 3277,
      "tado": 3278,
      "Ġau": 3279,
      "Ġcur": 3280,
      "pegar": 3281,
      "acer": 3282,
      "áĦĴáħ¡áĨ¸": 3283,
      "nome": 3284,
      "vida": 3285,
      "Ġnothing": 3286,
      "scho": 3287,
      "150": 3288,
      "Ø§ÙĨ": 3289,
      "áĦĳáħ©": 3290,
      "áĦĨáħ®áĨ®áĦĥáħ¡": 3291,
      "áĩģ": 3292,
      "áĦīáħ¥áĦĴáħ¡áĦĥáħ¡": 3293,
      "Ġenter": 3294,
      "áĦĭáħ¡áĨ¯áĦĭáħ¡áĦīáħ¥áĦĴáħ¡áĦĥáħ¡": 3295,
      "Man": 3296,
      "OM": 3297,
      "On": 3298,
      "Pl": 3299,
      "Via": 3300,
      "WG": 3301,
      "df": 3302,
      "glo": 3303,
      "mod": 3304,
      "well": 3305,
      "zed": 3306,
      "arn": 3307,
      "istr": 3308,
      "Ġos": 3309,
      "usalem": 3310,
      "Ġdeath": 3311,
      "ĠSou": 3312,
      "Ġhead": 3313,
      "contro": 3314,
      "áĦĮáħµáĨ¨": 3315,
      "Ġlos": 3316,
      "Ġneither": 3317,
      "ogle": 3318,
      "Ġvoce": 3319,
      "áĦĭáħ£áĨ¨": 3320,
      "áĦĢáħ¥áĨ·": 3321,
      "Ġsoul": 3322,
      "939": 3323,
      "EX": 3324,
      "Nu": 3325,
      "bien": 3326,
      "sus": 3327,
      "she": 3328,
      "xo": 3329,
      "Ø·": 3330,
      "anal": 3331,
      "ester": 3332,
      "ats": 3333,
      "unda": 3334,
      "andre": 3335,
      "quin": 3336,
      "áĦĩáħ§": 3337,
      "umber": 3338,
      "essen": 3339,
      "contra": 3340,
      "nada": 3341,
      "sible": 3342,
      "sado": 3343,
      "spra": 3344,
      "iture": 3345,
      "movimento": 3346,
      "alfabeto": 3347,
      "Ìģblia": 3348,
      "áĦīáħµáĨ¶áĦĥáħ¡": 3349,
      "-feira": 3350,
      "áĩĤáĦĥáħ¡": 3351,
      "Bu": 3352,
      "avoir": 3353,
      "jour": 3354,
      "nia": 3355,
      "pour": 3356,
      "sino": 3357,
      "zes": 3358,
      "change": 3359,
      "áĦĥáħ©áĨ¼": 3360,
      "ires": 3361,
      "áĦĩáħ¥áĨ«": 3362,
      "sich": 3363,
      "venir": 3364,
      "áĦĥáħ³áĨ¯": 3365,
      "gundo": 3366,
      "ÌĤnica": 3367,
      "áĦįáħµ": 3368,
      "HISTOIRE": 3369,
      "'e": 3370,
      "-J": 3371,
      "Cha": 3372,
      "LS": 3373,
      "PS": 3374,
      "Vi": 3375,
      "spo": 3376,
      "vas": 3377,
      "arre": 3378,
      "onda": 3379,
      "isation": 3380,
      "ticia": 3381,
      "Ġbread": 3382,
      "Ġpos": 3383,
      "áĦĴáħ¡áĨ¯": 3384,
      "tral": 3385,
      "aulo": 3386,
      "guir": 3387,
      "schw": 3388,
      "Ġseek": 3389,
      "rank": 3390,
      "588": 3391,
      "áĦĤáħ¡áĨ·": 3392,
      "áĦĢáħªáĨ¼áĦĩáħ®áĨ«": 3393,
      ".key": 3394,
      "400": 3395,
      "Amer": 3396,
      "Avenida": 3397,
      "Mex": 3398,
      "NI": 3399,
      "XX": 3400,
      "bild": 3401,
      "ios": 3402,
      "kr": 3403,
      "pho": 3404,
      "sum": 3405,
      "who": 3406,
      "zin": 3407,
      "Ø®": 3408,
      "intro": 3409,
      "esa": 3410,
      "esia": 3411,
      "isme": 3412,
      "Ġthine": 3413,
      "ites": 3414,
      "cimento": 3415,
      "Ġmas": 3416,
      "Ġmight": 3417,
      "iger": 3418,
      "comple": 3419,
      "ĠMe": 3420,
      "ĠMo": 3421,
      "ÌĮen": 3422,
      "appen": 3423,
      "Ġturn": 3424,
      "five": 3425,
      "INAL": 3426,
      "lands": 3427,
      "muito": 3428,
      "áĨ©áĦĥáħ¡": 3429,
      "PREHISTOIRE": 3430,
      "áĦĴáħ¡áĨ¨áĦĤáħ§áĨ«": 3431,
      "300": 3432,
      "EG": 3433,
      "PH": 3434,
      "Tur": 3435,
      "bed": 3436,
      "jus": 3437,
      "Ġce": 3438,
      "Ġja": 3439,
      "isti": 3440,
      "leg": 3441,
      "town": 3442,
      "room": 3443,
      "Ġhor": 3444,
      "liber": 3445,
      "dago": 3446,
      "quad": 3447,
      "áĨ«áĦĮáħ©áĨ¼": 3448,
      "tero": 3449,
      "ged": 3450,
      "áĦĮáħ®áĦĥáħ¡": 3451,
      "Ġton": 3452,
      "prof": 3453,
      "ĠWe": 3454,
      "áĦĢáħ¦": 3455,
      "Ìģrer": 3456,
      "Ìģtico": 3457,
      "ÃŁen": 3458,
      "áĦīáħ®áĨ«áĦĮáħ©áĨ¼": 3459,
      "surdo": 3460,
      "áĦİáħ¥áĨ¼": 3461,
      "MN": 3462,
      "UB": 3463,
      "phe": 3464,
      "san": 3465,
      "ardo": 3466,
      "tha": 3467,
      "ono": 3468,
      "ately": 3469,
      "assi": 3470,
      "oud": 3471,
      "ross": 3472,
      "Ġback": 3473,
      "áĦīáħ¦": 3474,
      "áĨ¯áĦħáħ²": 3475,
      "Ġbeen": 3476,
      "gulo": 3477,
      "partamento": 3478,
      "Ġtw": 3479,
      "191": 3480,
      "ĠNew": 3481,
      "atividade": 3482,
      "áĦĭáħ¡áĨŃáĦĥáħ¡": 3483,
      "áĦĮáħµáĦĭáħ¡áĨŃáĦĥáħ¡": 3484,
      "ENT": 3485,
      "áĦĭáħµáĨ¯áĦĴáħ¡áĨ¨áĦĤáħ§áĨ«": 3486,
      "áĦĴáħ®áĨ¯áĦħáħ²": 3487,
      "áĦĴáħ®áĨ¯áĦħáħ²áĨ¼áĦĴáħ¡áĦĥáħ¡": 3488,
      "800": 3489,
      "Est": 3490,
      "IX": 3491,
      "Pre": 3492,
      "Stu": 3493,
      "cil": 3494,
      "rink": 3495,
      "ughter": 3496,
      "Ð°": 3497,
      "Ġcir": 3498,
      "ania": 3499,
      "ares": 3500,
      "Ìģcio": 3501,
      "rela": 3502,
      "atar": 3503,
      "rid": 3504,
      "rio": 3505,
      "rift": 3506,
      "camin": 3507,
      "Ġmit": 3508,
      "áĦĴáħ§": 3509,
      "ĠJacob": 3510,
      "ĠCon": 3511,
      "ĠIf": 3512,
      "ĠIPA": 3513,
      "estro": 3514,
      "schla": 3515,
      "ĠHer": 3516,
      "196": 3517,
      "Ġcommand": 3518,
      "áĦīáħ¡áĨ·": 3519,
      "áĦĢáħµáĦħáħ³áĨ·": 3520,
      "ixe": 3521,
      "Health": 3522,
      "ĠTherefore": 3523,
      "levard": 3524,
      "áĦĭáħµáĦĭáħ£áĦĢáħµáĦĴáħ¡áĦĥáħ¡": 3525,
      "431": 3526,
      "700": 3527,
      "Hand": 3528,
      "UY": 3529,
      "When": 3530,
      "bos": 3531,
      "cut": 3532,
      "fl": 3533,
      "urac": 3534,
      "deira": 3535,
      "rad": 3536,
      "member": 3537,
      "Ġhow": 3538,
      "elho": 3539,
      "tage": 3540,
      "Ġfear": 3541,
      "ĠSal": 3542,
      "ÌĤÌģ": 3543,
      "à¸ļ": 3544,
      "omin": 3545,
      "ational": 3546,
      "áĦĭáħµáĨ½áĦĥáħ¡": 3547,
      "áĦĢáħ¡áĦĮáħµ": 3548,
      "ĠNor": 3549,
      "corre": 3550,
      "stad": 3551,
      "ront": 3552,
      "Auto": 3553,
      "Ġgiven": 3554,
      "Ġfollow": 3555,
      "ĠIPAESE": 3556,
      "BZH": 3557,
      "DS": 3558,
      "Frau": 3559,
      "HE": 3560,
      "MP": 3561,
      "cara": 3562,
      "Ùĳ": 3563,
      "estion": 3564,
      "teil": 3565,
      "tier": 3566,
      "Ġpart": 3567,
      "nost": 3568,
      "estra": 3569,
      "tend": 3570,
      "180": 3571,
      "167": 3572,
      "identi": 3573,
      "graph": 3574,
      "father": 3575,
      "áĦīáħ¡áĦĥáħ¡": 3576,
      "Ġtie": 3577,
      "áĦĨáħ©áĨºáĦĴáħ¡áĦĥáħ¡": 3578,
      "áĦĴáħµáĨ·": 3579,
      "schaft": 3580,
      "Region": 3581,
      "Ìģtulo": 3582,
      "Ġmultitude": 3583,
      "Cas": 3584,
      "Men": 3585,
      "PG": 3586,
      "PY": 3587,
      "ZZ": 3588,
      "ji": 3589,
      "lla": 3590,
      "ume": 3591,
      "wen": 3592,
      "atre": 3593,
      "atter": 3594,
      "Ġspa": 3595,
      "Ġhon": 3596,
      "Ġhigh": 3597,
      "ried": 3598,
      "ety": 3599,
      "áĦĨáħ¥": 3600,
      "beeld": 3601,
      "nicht": 3602,
      "áĦĤáħ¢áĦĥáħ¡": 3603,
      "iden": 3604,
      "ÌĤnia": 3605,
      "Ġmaranhense": 3606,
      "áĦĩáħ¥áĨ¸": 3607,
      "áĦĭáħ£áĨ¼": 3608,
      "frog": 3609,
      ".pt": 3610,
      "042": 3611,
      "Mer": 3612,
      "Meu": 3613,
      "NX": 3614,
      "Tex": 3615,
      "bad": 3616,
      "bac": 3617,
      "bour": 3618,
      "fir": 3619,
      "last": 3620,
      "rand": 3621,
      "sci": 3622,
      "spr": 3623,
      "Ìī": 3624,
      "inn": 3625,
      "Ìģb": 3626,
      "tour": 3627,
      "Ġsk": 3628,
      "unde": 3629,
      "Ġbody": 3630,
      "Ġfall": 3631,
      "Ġfru": 3632,
      "áħ®áĨ·": 3633,
      "ÌĮka": 3634,
      "ĠPar": 3635,
      "conhe": 3636,
      "ĠBairro": 3637,
      "áĦĭáħµáĦĨáħ©": 3638,
      "pages": 3639,
      "189": 3640,
      "áĨ¸áĦĴáħ¡áĦĥáħ¡": 3641,
      "maria": 3642,
      "Inter": 3643,
      "áĦħáħ¡áĦĥáħ¡": 3644,
      "Ġtruth": 3645,
      "querda": 3646,
      "QUE": 3647,
      "numbers": 3648,
      "Die": 3649,
      "KR": 3650,
      "fran": 3651,
      "oper": 3652,
      "wy": 3653,
      "Ġje": 3654,
      "Ġend": 3655,
      "seven": 3656,
      "tet": 3657,
      "Ġsta": 3658,
      "Ġpres": 3659,
      "Ġpessoas": 3660,
      "Ġauf": 3661,
      "Ġlil": 3662,
      "áĦĢáħ¡áĨ«": 3663,
      "áĦīáħµáĦĭáħ¯áĨ«áĦĴáħ¡áĦĥáħ¡": 3664,
      "131": 3665,
      "áĦĨáħ¡áĨŃáĦĥáħ¡": 3666,
      "mark": 3667,
      "239": 3668,
      "áĦĢáħ±": 3669,
      "stem": 3670,
      "estado": 3671,
      "áĦĤáħ¡áĨ¯": 3672,
      "à¹ī": 3673,
      "psy": 3674,
      "áĦĴáħªáĨ¨": 3675,
      "Geba": 3676,
      "Libras": 3677,
      "áĦĳáħ¡áĨ¯": 3678,
      "help": 3679,
      "sexual": 3680,
      "Ġcriado": 3681,
      "500": 3682,
      "Auf": 3683,
      "Bor": 3684,
      "Dar": 3685,
      "IF": 3686,
      "PRO": 3687,
      "TN": 3688,
      "_Ċ": 3689,
      "bie": 3690,
      "crit": 3691,
      "kan": 3692,
      "nung": 3693,
      "ola": 3694,
      "sun": 3695,
      "Ð¸": 3696,
      "ĠáĦĳáħŃáĦĮáħ¦áĦĭáħ¥": 3697,
      "Ìģve": 3698,
      "color": 3699,
      "irs": 3700,
      "iga": 3701,
      "ĠLui": 3702,
      "move": 3703,
      "vice": 3704,
      "guar": 3705,
      "nage": 3706,
      "ichen": 3707,
      "cks": 3708,
      "ĠNorte": 3709,
      "izac": 3710,
      "uddle": 3711,
      "INE": 3712,
      "Ġlex": 3713,
      "ferente": 3714,
      "braham": 3715,
      "áĦĭáħ§áĨ¼": 3716,
      "ways": 3717,
      "áĦĴáħªáĨ¼": 3718,
      "Ġwork": 3719,
      "ilidade": 3720,
      "config": 3721,
      "Ġways": 3722,
      "Ġstand": 3723,
      "-dragon": 3724,
      "BC": 3725,
      "Du": 3726,
      "GY": 3727,
      "KY": 3728,
      "OLA": 3729,
      "Pol": 3730,
      "Sh": 3731,
      "gment": 3732,
      "kes": 3733,
      "mom": 3734,
      "past": 3735,
      "your": 3736,
      "Ìģgua": 3737,
      "Ġwitness": 3738,
      "inge": 3739,
      "Ġnight": 3740,
      "ione": 3741,
      "ney": 3742,
      "ĠLI": 3743,
      "ĠPort": 3744,
      "peratur": 3745,
      "Ġtesti": 3746,
      "bran": 3747,
      "Ġlived": 3748,
      "ativa": 3749,
      "porte": 3750,
      "Ġtrans": 3751,
      "áĦĢáħªáĨ«": 3752,
      "stituto": 3753,
      "áĦīáħ¡áĦħáħ¡áĦĮáħµáĦĥáħ¡": 3754,
      "ĠPaul": 3755,
      "Ġlexical": 3756,
      "/Ce": 3757,
      "Ban": 3758,
      "Col": 3759,
      "Hel": 3760,
      "IZ": 3761,
      "Mu": 3762,
      "Sah": 3763,
      "YR": 3764,
      "bles": 3765,
      "cta": 3766,
      "ever": 3767,
      "fish": 3768,
      "pia": 3769,
      "vimento": 3770,
      "erre": 3771,
      "throw": 3772,
      "ram": 3773,
      "Ġhour": 3774,
      "rij": 3775,
      "ÌĪf": 3776,
      "utsch": 3777,
      "ays": 3778,
      "áĦĳáħµ": 3779,
      "383": 3780,
      "fty": 3781,
      "joice": 3782,
      "665": 3783,
      "áĦħáħ¡áĨ«": 3784,
      "DADE": 3785,
      "áĦīáħ¢áĨ¼áĦĨáħ§áĨ¼": 3786,
      "illion": 3787,
      "temps": 3788,
      "Ġdidn": 3789,
      "áĦĪáħ¥áĨ«áĦĴáħ¡áĦĥáħ¡": 3790,
      "áĦĪáħ¥áĨ«áĦĪáħ¥áĨ«áĦĴáħ¡áĦĥáħ¡": 3791,
      "-t": 3792,
      "758": 3793,
      "929": 3794,
      "COR": 3795,
      "PC": 3796,
      "Wa": 3797,
      "adi": 3798,
      "ÌģR": 3799,
      "reib": 3800,
      "atal": 3801,
      "tec": 3802,
      "rain": 3803,
      "Ġside": 3804,
      "Ġpessoa": 3805,
      "hos": 3806,
      "nee": 3807,
      "omen": 3808,
      "áĨ·áĦī": 3809,
      "188": 3810,
      "309": 3811,
      "iente": 3812,
      "401": 3813,
      "áĦĢáħµáĦĥáħ©": 3814,
      "ueva": 3815,
      "áĦĨáħ®áĦĭáħ¥áĨ": 3816,
      "ÃŁe": 3817,
      "áĦİáħµáĨ¯": 3818,
      "áĦĩáħ¥áĨ¯": 3819,
      "struction": 3820,
      "work": 3821,
      "ÌĤnio": 3822,
      "áĦįáħ¡": 3823,
      "áĦĨáħ®áĦĭáħ¥áĨº": 3824,
      "-man": 3825,
      "530": 3826,
      "730": 3827,
      "BER": 3828,
      "Jose": 3829,
      "MU": 3830,
      "Son": 3831,
      "TV": 3832,
      "bst": 3833,
      "gol": 3834,
      "pur": 3835,
      "pha": 3836,
      "sla": 3837,
      "tas": 3838,
      "zwe": 3839,
      "Ìģqu": 3840,
      "undo": 3841,
      "Ġba": 3842,
      "cada": 3843,
      "loc": 3844,
      "vec": 3845,
      "irro": 3846,
      "ett": 3847,
      "tran": 3848,
      "ĠGali": 3849,
      "bairro": 3850,
      "Ġkno": 3851,
      "258": 3852,
      "Ġcomes": 3853,
      "ĠYou": 3854,
      "place": 3855,
      "Herr": 3856,
      "liveira": 3857,
      "BRAS": 3858,
      "áĦĬáħ¡": 3859,
      "ĠJerusalem": 3860,
      "732": 3861,
      "938": 3862,
      "BGB": 3863,
      "Hal": 3864,
      "JU": 3865,
      "Kom": 3866,
      "VF": 3867,
      "Wol": 3868,
      "_gr": 3869,
      "aw": 3870,
      "dan": 3871,
      "kop": 3872,
      "aled": 3873,
      "alphabet": 3874,
      "mama": 3875,
      "lace": 3876,
      "camp": 3877,
      "cidade": 3878,
      "urar": 3879,
      "áĦĮáħ©áĨ«": 3880,
      "Ġever": 3881,
      "uler": 3882,
      "hear": 3883,
      "ĠLo": 3884,
      "ĠTer": 3885,
      "rupo": 3886,
      "ĠGre": 3887,
      "mpre": 3888,
      "290": 3889,
      "áĦĨáħ¡áĨ¯áĦĴáħ¡áĦĥáħ¡": 3890,
      "zeit": 3891,
      "elles": 3892,
      "-sur": 3893,
      "ĠZe": 3894,
      "Ġpoor": 3895,
      "ficar": 3896,
      "Ġcima": 3897,
      "-N": 3898,
      "113": 3899,
      "315": 3900,
      "329": 3901,
      "620": 3902,
      "DER": 3903,
      "FG": 3904,
      "FS": 3905,
      "Min": 3906,
      "Pasa": 3907,
      "cte": 3908,
      "sac": 3909,
      "walk": 3910,
      "that": 3911,
      "Ġste": 3912,
      "Ġhel": 3913,
      "áĦĥáħ¡áĦħáħ³áĦĥáħ¡": 3914,
      "may": 3915,
      "ÌĪg": 3916,
      "ĠSch": 3917,
      "amor": 3918,
      "Ġdar": 3919,
      "Ġten": 3920,
      "Ġtwelve": 3921,
      "avis": 3922,
      "965": 3923,
      "stag": 3924,
      "Ġprophet": 3925,
      "à¹Ī": 3926,
      "alidade": 3927,
      "cular": 3928,
      "Ã¦r": 3929,
      "Person": 3930,
      "Ġtemple": 3931,
      "-jaico": 3932,
      ".se": 3933,
      "018": 3934,
      "030": 3935,
      "327": 3936,
      "AV": 3937,
      "Fu": 3938,
      "GI": 3939,
      "JGB": 3940,
      "Um": 3941,
      "What": 3942,
      "had": 3943,
      "zap": 3944,
      "Ġ/": 3945,
      "esu": 3946,
      "esper": 3947,
      "Ìģv": 3948,
      "isson": 3949,
      "ret": 3950,
      "rown": 3951,
      "ils": 3952,
      "dol": 3953,
      "tico": 3954,
      "Ġbi": 3955,
      "ÌĤle": 3956,
      "ulation": 3957,
      "áĦĨáħ©áĨ¨": 3958,
      "tres": 3959,
      "some": 3960,
      "fema": 3961,
      "Ġlin": 3962,
      "menina": 3963,
      "proble": 3964,
      "195": 3965,
      "atik": 3966,
      "Ġwhole": 3967,
      "963": 3968,
      "062": 3969,
      "áĦĢáħ§áĨ«": 3970,
      "colocar": 3971,
      "grafia": 3972,
      "áĦĨáħ¡áĨ½áĦĮáħµáĦĭáħ¡áĨŃáĦĥáħ¡": 3973,
      "mondbeeld": 3974,
      "-o": 3975,
      "-ca": 3976,
      "-munn": 3977,
      "DR": 3978,
      "Esp": 3979,
      "FOR": 3980,
      "Item": 3981,
      "LOS": 3982,
      "MIN": 3983,
      "Ol": 3984,
      "Writing": 3985,
      "fingerspelling": 3986,
      "hic": 3987,
      "pte": 3988,
      "anna": 3989,
      "Ìģra": 3990,
      "Ìģmo": 3991,
      "ischen": 3992,
      "chat": 3993,
      "eli": 3994,
      "lij": 3995,
      "liver": 3996,
      "Ġblood": 3997,
      "usband": 3998,
      "love": 3999,
      "olis": 4000,
      "oses": 4001,
      "ions": 4002,
      "utor": 4003,
      "oder": 4004,
      "ĠMan": 4005,
      "pot": 4006,
      "Ġbehold": 4007,
      "ĠThis": 4008,
      "áĦĭáħµáĦīáħ¡áĨ¼": 4009,
      "gente": 4010,
      "ween": 4011,
      "181": 4012,
      "Ġreg": 4013,
      "ativo": 4014,
      "357": 4015,
      "áĦĨáħ¡áĨ¼": 4016,
      "hrer": 4017,
      "plane": 4018,
      "áĦĳáħ§áĨ¼": 4019,
      "370": 4020,
      "Ġcomunidade": 4021,
      "ĠVal": 4022,
      "piel": 4023,
      "Ġteach": 4024,
      "crease": 4025,
      "Arbe": 4026,
      "inkel": 4027,
      "pping": 4028,
      "Saint": 4029,
      "curso": 4030,
      "...": 4031,
      "áĦĩáħ¡áĨ¯áĦĢáħ§áĨ«": 4032,
      "áĦĭáħµáĦīáħ¡áĨ¼áĦĴáħ¡áĦĥáħ¡": 4033,
      "--": 4034,
      "-l": 4035,
      "-ne": 4036,
      "435": 4037,
      "549": 4038,
      "643": 4039,
      "Ame": 4040,
      "Cm": 4041,
      "Flor": 4042,
      "RD": 4043,
      "SH": 4044,
      "She": 4045,
      "him": 4046,
      "js": 4047,
      "kur": 4048,
      "lass": 4049,
      "ress": 4050,
      "wal": 4051,
      "×©": 4052,
      "arde": 4053,
      "thes": 4054,
      "Ġsor": 4055,
      "lauf": 4056,
      "Ġple": 4057,
      "áĦĴáħ¢áĨ¼": 4058,
      "áħ®áĨ«": 4059,
      "igre": 4060,
      "apti": 4061,
      "estar": 4062,
      "expressa": 4063,
      "ĠNa": 4064,
      "152": 4065,
      "156": 4066,
      "583": 4067,
      "Andre": 4068,
      "ktor": 4069,
      "uerta": 4070,
      "áĦħáħ£": 4071,
      "áĦĮáħ©áĨ¼áĦħáħ²": 4072,
      "INAIS": 4073,
      "mediately": 4074,
      "Sahha": 4075,
      "020": 4076,
      "010": 4077,
      "424": 4078,
      "649": 4079,
      "950": 4080,
      "Bur": 4081,
      "KM": 4082,
      "Res": 4083,
      "Si": 4084,
      "Wind": 4085,
      "ZGB": 4086,
      "cup": 4087,
      "even": 4088,
      "fan": 4089,
      "nap": 4090,
      "pom": 4091,
      "tis": 4092,
      "vic": 4093,
      "wed": 4094,
      "anim": 4095,
      "thy": 4096,
      "áĨ°": 4097,
      "áĨ¾": 4098,
      "Ġwa": 4099,
      "Ġprin": 4100,
      "uses": 4101,
      "ustr": 4102,
      "dien": 4103,
      "Ġao": 4104,
      "homo": 4105,
      "quia": 4106,
      "ÌĪhl": 4107,
      "Ġdead": 4108,
      "aller": 4109,
      "áĦħáħ§áĨ¼": 4110,
      "moc": 4111,
      "193": 4112,
      "139": 4113,
      "tret": 4114,
      "Ġwithout": 4115,
      "ELA": 4116,
      "lessed": 4117,
      "áĦĪáħ§": 4118,
      ".pdf": 4119,
      "question": 4120,
      "cording": 4121,
      "Ġasked": 4122,
      "áĦĭáħ§áĦħáħ¥áĦĢáħ¡áĦĮáħµ": 4123,
      "-r": 4124,
      "-le": 4125,
      "All": 4126,
      "Ka": 4127,
      "TT": 4128,
      "ding": 4129,
      "iva": 4130,
      "ses": 4131,
      "sent": 4132,
      "ths": 4133,
      "Ìģst": 4134,
      "rot": 4135,
      "ric": 4136,
      "Ġbring": 4137,
      "Ġpour": 4138,
      "hop": 4139,
      "ĠSinais": 4140,
      "comb": 4141,
      "odri": 4142,
      "pose": 4143,
      "keth": 4144,
      "áĦĭáħµáĦĮáħ¥áĨ«": 4145,
      "bola": 4146,
      "Ġlong": 4147,
      "182": 4148,
      "157": 4149,
      "lue": 4150,
      "porta": 4151,
      "mann": 4152,
      "áĦīáħ¡áĨ«": 4153,
      "Ġonly": 4154,
      "662": 4155,
      "Ġweek": 4156,
      "áĦĥáħ©áĨ¯áĦħáħµáĦĥáħ¡": 4157,
      "teste": 4158,
      "ountain": 4159,
      "Ġboth": 4160,
      "Ġfeet": 4161,
      "passar": 4162,
      "ginning": 4163,
      "gatan": 4164,
      "áĦĥáħ¬áĦĥáħ©áĨ¯áĦħáħµáĦĥáħ¡": 4165,
      "Ġmuito": 4166,
      "ĠJoa": 4167,
      "ĠGalilee": 4168,
      "+Ċ": 4169,
      "-li": 4170,
      "032": 4171,
      "074": 4172,
      "Dis": 4173,
      "KI": 4174,
      "PGB": 4175,
      "Para": 4176,
      "TRA": 4177,
      "cend": 4178,
      "dition": 4179,
      "lang": 4180,
      "sand": 4181,
      "vation": 4182,
      "×ĳ": 4183,
      "metro": 4184,
      "meida": 4185,
      "labor": 4186,
      "Ġbar": 4187,
      "Ġfin": 4188,
      "import": 4189,
      "ieja": 4190,
      "ami": 4191,
      "ammen": 4192,
      "209": 4193,
      "190": 4194,
      "137": 4195,
      "159": 4196,
      "istro": 4197,
      "Ġlive": 4198,
      "269": 4199,
      "gramm": 4200,
      "288": 4201,
      "585": 4202,
      "902": 4203,
      "567": 4204,
      "785": 4205,
      "áĦĩáħ®áĨ«áĦĴáħ¡áĦĥáħ¡": 4206,
      "ITO": 4207,
      "741": 4208,
      "ritten": 4209,
      "Ġcometh": 4210,
      "Ġworship": 4211,
      "strar": 4212,
      "Ġquestion": 4213,
      "RUPO": 4214,
      "hilip": 4215,
      "áĦĴáħ¡áĨ¯áĦīáħ®": 4216,
      "CmM": 4217,
      "áĨ°áĦĥáħ¡": 4218,
      "-mondbeeld": 4219,
      "340": 4220,
      "514": 4221,
      "627": 4222,
      "810": 4223,
      "Bes": 4224,
      "PW": 4225,
      "RN": 4226,
      "Tran": 4227,
      "There": 4228,
      "This": 4229,
      "UV": 4230,
      "Variac": 4231,
      "aum": 4232,
      "cru": 4233,
      "fast": 4234,
      "flor": 4235,
      "pru": 4236,
      "qa": 4237,
      "uen": 4238,
      "ula": 4239,
      "ĠQ": 4240,
      "Ġvery": 4241,
      "ÌģS": 4242,
      "rew": 4243,
      "deaf": 4244,
      "ouble": 4245,
      "dois": 4246,
      "lay": 4247,
      "cias": 4248,
      "terior": 4249,
      "ÌĪff": 4250,
      "ĠDavid": 4251,
      "à¸°": 4252,
      "bem": 4253,
      "Ġdois": 4254,
      "Ġbegat": 4255,
      "antar": 4256,
      "prendre": 4257,
      "áĦİáħ±": 4258,
      "prote": 4259,
      "cker": 4260,
      "exam": 4261,
      "237": 4262,
      "item": 4263,
      "áĦĮáħµáĨ¯": 4264,
      "064": 4265,
      "sky": 4266,
      "áĦīáħ©áĦĢáħ¢": 4267,
      "GOC": 4268,
      "Unter": 4269,
      "áĦĪáħ¡áĨ¯": 4270,
      "834": 4271,
      "806": 4272,
      "916": 4273,
      "@Ċ": 4274,
      "Cal": 4275,
      "Gew": 4276,
      "Tha": 4277,
      "Vor": 4278,
      "dat": 4279,
      "dit": 4280,
      "gest": 4281,
      "ibe": 4282,
      "jes": 4283,
      "kap": 4284,
      "ym": 4285,
      "yr": 4286,
      "zus": 4287,
      "Ìģu": 4288,
      "refle": 4289,
      "chten": 4290,
      "rog": 4291,
      "cite": 4292,
      "irt": 4293,
      "verde": 4294,
      "Ġcre": 4295,
      "Ġcou": 4296,
      "neg": 4297,
      "Ġdrink": 4298,
      "ĠCom": 4299,
      "conta": 4300,
      "ĠGu": 4301,
      "Ġsecond": 4302,
      "brin": 4303,
      "áĦĢáħ¡áĨ¸": 4304,
      "101": 4305,
      "áĦĭáħ¡áĨ«áĦĴáħ¡áĦĥáħ¡": 4306,
      "175": 4307,
      "341": 4308,
      "563": 4309,
      "dente": 4310,
      "Ã¸y": 4311,
      "round": 4312,
      "Ìģgina": 4313,
      "áĦİáħ¡áĨŃáĦĥáħ¡": 4314,
      "Ġrighteousness": 4315,
      "papa": 4316,
      "multi": 4317,
      "letrado": 4318,
      "texto": 4319,
      "ĠEducac": 4320,
      "áĦĳáħ©áĦĢáħµ": 4321,
      "áĦĨáħ¥áĨº": 4322,
      "-Z": 4323,
      "-n": 4324,
      "016": 4325,
      "033": 4326,
      "229": 4327,
      "719": 4328,
      "958": 4329,
      "GS": 4330,
      "LY": 4331,
      "QGB": 4332,
      "fas": 4333,
      "Ġche": 4334,
      "ork": 4335,
      "ref": 4336,
      "legen": 4337,
      "meter": 4338,
      "Ġsi": 4339,
      "Ġsch": 4340,
      "Ġog": 4341,
      "Ġfilled": 4342,
      "lomb": 4343,
      "áĦĴáħ¥áĨ·": 4344,
      "áĦĮáħ©áĨ¨": 4345,
      "áħ¥áĦĮáħµáĦĥáħ¡": 4346,
      "amer": 4347,
      "ĠAp": 4348,
      "ĠDO": 4349,
      "Ġtold": 4350,
      "à¸«": 4351,
      "ĠCH": 4352,
      "ĠCosta": 4353,
      "ĠPer": 4354,
      "appro": 4355,
      "áĦĭáħµáĦĥáħ¡": 4356,
      "weis": 4357,
      "135": 4358,
      "136": 4359,
      "ffen": 4360,
      "105": 4361,
      "151": 4362,
      "307": 4363,
      "495": 4364,
      "293": 4365,
      "282": 4366,
      "286": 4367,
      "desen": 4368,
      "372": 4369,
      "969": 4370,
      "556": 4371,
      "acht": 4372,
      "660": 4373,
      "597": 4374,
      "884": 4375,
      "obser": 4376,
      "542": 4377,
      "mica": 4378,
      "rasile": 4379,
      "rong": 4380,
      "áĦĮáħ¥áĨ¼áĦīáħ¡áĨ¼": 4381,
      "cionar": 4382,
      "colle": 4383,
      "Ġfeast": 4384,
      "áĦĢáħ§áĨ¯áĦĢáħ®áĨ¨": 4385,
      "ready": 4386,
      "chester": 4387,
      "ĠSurdos": 4388,
      "tates": 4389,
      "ficador": 4390,
      "Ġtongue": 4391,
      "423": 4392,
      "529": 4393,
      "711": 4394,
      "Ala": 4395,
      "Euro": 4396,
      "Ind": 4397,
      "NZ": 4398,
      "OF": 4399,
      "VIS": 4400,
      "ae": 4401,
      "ago": 4402,
      "bau": 4403,
      "cell": 4404,
      "same": 4405,
      "vest": 4406,
      "year": 4407,
      "into": 4408,
      "Ìģcu": 4409,
      "orar": 4410,
      "regar": 4411,
      "Ġsie": 4412,
      "Ġhappen": 4413,
      "Ġfar": 4414,
      "Ġfrente": 4415,
      "imon": 4416,
      "ĠSINAIS": 4417,
      "igni": 4418,
      "uly": 4419,
      "áĦĴáħ¡áĦħáħ¡": 4420,
      "Ġgener": 4421,
      "ican": 4422,
      "ĠPor": 4423,
      "ĠPiano": 4424,
      "ĠPuerta": 4425,
      "bow": 4426,
      "Ġlu": 4427,
      "Ġlittle": 4428,
      "165": 4429,
      "169": 4430,
      "tions": 4431,
      "497": 4432,
      "ĠWhat": 4433,
      "astro": 4434,
      "371": 4435,
      "áĦģáħ¢áĦĥáħ¡": 4436,
      "ÌĤngulo": 4437,
      "stein": 4438,
      "áĦĮáħ¡áĦĢáħµ": 4439,
      "position": 4440,
      "ibus": 4441,
      "áĦĲáħ¥": 4442,
      "risti": 4443,
      "celona": 4444,
      "fessora": 4445,
      "áĦĢáħ¡áĨ¸áĦĮáħ¡áĦĢáħµ": 4446,
      "áĦĴáħ¡áĦħáħ¡áĨ¨áĦĴáħ¡áĦĥáħ¡": 4447,
      "-es": 4448,
      "013": 4449,
      "028": 4450,
      "055": 4451,
      "053": 4452,
      "630": 4453,
      "676": 4454,
      "949": 4455,
      "Ger": 4456,
      "PER": 4457,
      "ZE": 4458,
      "apo": 4459,
      "gang": 4460,
      "ppe": 4461,
      "pai": 4462,
      "spre": 4463,
      "Ð½": 4464,
      "Ġart": 4465,
      "ised": 4466,
      "meet": 4467,
      "Ġsat": 4468,
      "lier": 4469,
      "Ġabo": 4470,
      "uru": 4471,
      "Ġcasa": 4472,
      "adje": 4473,
      "ument": 4474,
      "apro": 4475,
      "emplo": 4476,
      "009": 4477,
      "venue": 4478,
      "áĦİáħ®áĦĥáħ¡": 4479,
      "áĦĤáħ": 4480,
      "áĦĤáħ³áĨ¼": 4481,
      "192": 4482,
      "duce": 4483,
      "Ġlibras": 4484,
      "261": 4485,
      "499": 4486,
      "354": 4487,
      "ighty": 4488,
      "áĦĮáħ¡áĨ¨áĦĥáħ¡": 4489,
      "foto": 4490,
      "chts": 4491,
      "795": 4492,
      "morgen": 4493,
      "Ìģmbolo": 4494,
      "Ìģcil": 4495,
      "áĦĨáħµáĦİáħµáĦĥáħ¡": 4496,
      "...Ċ": 4497,
      "áĩģáĦĥáħ¡": 4498,
      "098": 4499,
      "313": 4500,
      "310": 4501,
      "437": 4502,
      "515": 4503,
      "754": 4504,
      "813": 4505,
      "899": 4506,
      "937": 4507,
      "Cle": 4508,
      "MW": 4509,
      "Spe": 4510,
      "Stra": 4511,
      "ian": 4512,
      "pac": 4513,
      "sm": 4514,
      "inform": 4515,
      "onde": 4516,
      "Ìģtri": 4517,
      "secre": 4518,
      "chine": 4519,
      "teach": 4520,
      "ouver": 4521,
      "áĦĥáħµ": 4522,
      "itas": 4523,
      "Ġhar": 4524,
      "Ġfri": 4525,
      "Ġfind": 4526,
      "Ġpal": 4527,
      "quam": 4528,
      "ceber": 4529,
      "ĠAll": 4530,
      "Ì§u": 4531,
      "Ġcall": 4532,
      "Ġheures": 4533,
      "áĦĭáħ±": 4534,
      "ÌĮni": 4535,
      "ĠGRUPO": 4536,
      "sider": 4537,
      "base": 4538,
      "138": 4539,
      "168": 4540,
      "304": 4541,
      "264": 4542,
      "494": 4543,
      "244": 4544,
      "985": 4545,
      "classi": 4546,
      "áĦĢáħµáĦīáħ®": 4547,
      "áĦĮáħ¡áĨ·": 4548,
      "445": 4549,
      "Leticia": 4550,
      "cultura": 4551,
      "querer": 4552,
      "Ġusada": 4553,
      "áĦĳáħ¡áĨ«": 4554,
      "autor": 4555,
      "Ġqal": 4556,
      "Ġwaters": 4557,
      "áĦħáħ§áĨ¨": 4558,
      "-soletrado": 4559,
      "ĠJoseph": 4560,
      "Ìģfico": 4561,
      "049": 4562,
      "214": 4563,
      "334": 4564,
      "449": 4565,
      "438": 4566,
      "518": 4567,
      "721": 4568,
      "816": 4569,
      "868": 4570,
      "957": 4571,
      "HR": 4572,
      "Lie": 4573,
      "LES": 4574,
      "Matema": 4575,
      "VR": 4576,
      "West": 4577,
      "aci": 4578,
      "bin": 4579,
      "cine": 4580,
      "hin": 4581,
      "lut": 4582,
      "lum": 4583,
      "tent": 4584,
      "wol": 4585,
      "thren": 4586,
      "lem": 4587,
      "iles": 4588,
      "ungen": 4589,
      "Ġpra": 4590,
      "Ġpare": 4591,
      "Ġmid": 4592,
      "geben": 4593,
      "stri": 4594,
      "commun": 4595,
      "à¸Ĺ": 4596,
      "ÌĮr": 4597,
      "ÌĢte": 4598,
      "Ġtil": 4599,
      "schn": 4600,
      "brar": 4601,
      "306": 4602,
      "curi": 4603,
      "265": 4604,
      "274": 4605,
      "406": 4606,
      "Ġmais": 4607,
      "901": 4608,
      "Ġhair": 4609,
      "345": 4610,
      "ĠKing": 4611,
      "664": 4612,
      "à¹Ĥ": 4613,
      "buch": 4614,
      "áĦĪáħ¢áĦĥáħ¡": 4615,
      "805": 4616,
      "áĦĨáħ¡áĨ«áĦĤáħ¡áĦĥáħ¡": 4617,
      "Abend": 4618,
      "lassi": 4619,
      "âĢĻ": 4620,
      "áĦĢáħ¨áĦĥáħ¡áĨ«": 4621,
      "Ì¨Ċ": 4622,
      ".odp": 4623,
      "Ìģsica": 4624,
      ".docx": 4625,
      "Ġfruit": 4626,
      "218": 4627,
      "538": 4628,
      "673": 4629,
      "726": 4630,
      "770": 4631,
      "DN": 4632,
      "Mit": 4633,
      "TF": 4634,
      "ZG": 4635,
      "ais": 4636,
      "call": 4637,
      "furt": 4638,
      "mur": 4639,
      "nab": 4640,
      "sess": 4641,
      "erie": 4642,
      "Ġthing": 4643,
      "assa": 4644,
      "oura": 4645,
      "ilar": 4646,
      "tique": 4647,
      "ĠSul": 4648,
      "eds": 4649,
      "à¸Ľ": 4650,
      "haus": 4651,
      "have": 4652,
      "ĠCor": 4653,
      "peri": 4654,
      "004": 4655,
      "006": 4656,
      "bath": 4657,
      "expli": 4658,
      "109": 4659,
      "301": 4660,
      "Ø§Ø±": 4661,
      "iert": 4662,
      "porter": 4663,
      "ĠWho": 4664,
      "Ġcomo": 4665,
      "489": 4666,
      "áĦīáħ¡áĦĭáħŃáĨ¼": 4667,
      "961": 4668,
      "803": 4669,
      "gesch": 4670,
      "áĦĢáħ¨áĦħáħ¡áĨ«": 4671,
      "áĦıáħ§": 4672,
      "áĦıáħ³áĦĥáħ¡": 4673,
      "IGN": 4674,
      "Ã¦de": 4675,
      ".odt": 4676,
      "contrar": 4677,
      "nehmen": 4678,
      "Ġspake": 4679,
      "ĠAppartamento": 4680,
      ".pages": 4681,
      ".numbers": 4682,
      "035": 4683,
      "050": 4684,
      "422": 4685,
      "651": 4686,
      "740": 4687,
      "757": 4688,
      "829": 4689,
      "856": 4690,
      "976": 4691,
      "921": 4692,
      "932": 4693,
      "973": 4694,
      "Ass": 4695,
      "KGB": 4696,
      "SB": 4697,
      "Sk": 4698,
      "SAR": 4699,
      "Tre": 4700,
      "ible": 4701,
      "ril": 4702,
      "ware": 4703,
      "×ŀ": 4704,
      "Ġget": 4705,
      "Ìģta": 4706,
      "Ìģba": 4707,
      "ales": 4708,
      "chte": 4709,
      "leur": 4710,
      "Ġsol": 4711,
      "els": 4712,
      "unn": 4713,
      "ride": 4714,
      "tador": 4715,
      "Ġbu": 4716,
      "Ġbou": 4717,
      "áĦĩáħ§áĨ¼": 4718,
      "ĠMA": 4719,
      "auch": 4720,
      "modi": 4721,
      "ĠTo": 4722,
      "nah": 4723,
      "Ġtri": 4724,
      "pag": 4725,
      "107": 4726,
      "Ġmetro": 4727,
      "185": 4728,
      "355": 4729,
      "ierung": 4730,
      "aving": 4731,
      "áĦĳáħ³": 4732,
      "iento": 4733,
      "409": 4734,
      "984": 4735,
      "880": 4736,
      "ITE": 4737,
      "793": 4738,
      "áĦĢáħ®áĨ¼": 4739,
      "lette": 4740,
      "-sign": 4741,
      "861": 4742,
      "áĦĩáħ¥áĨ¯áĦĥáħ¡": 4743,
      "áĦİáħ®áĨ¼áĦĢáħ§áĨ¨": 4744,
      ".ods": 4745,
      "North": 4746,
      "Portugal": 4747,
      "Ìģgico": 4748,
      "Ìģprio": 4749,
      "áĦįáħµáĨ¨áĦĥáħ¡": 4750,
      "ctacle": 4751,
      "-i": 4752,
      "-para": 4753,
      "041": 4754,
      "117": 4755,
      "219": 4756,
      "213": 4757,
      "430": 4758,
      "429": 4759,
      "578": 4760,
      "633": 4761,
      "846": 4762,
      "876": 4763,
      "951": 4764,
      "Cap": 4765,
      "Flat": 4766,
      "KA": 4767,
      "Mil": 4768,
      "bib": 4769,
      "fou": 4770,
      "hung": 4771,
      "idi": 4772,
      "mater": 4773,
      "nin": 4774,
      "pf": 4775,
      "pital": 4776,
      "vador": 4777,
      "win": 4778,
      "where": 4779,
      "anz": 4780,
      "ones": 4781,
      "atu": 4782,
      "aso": 4783,
      "Ġstri": 4784,
      "unk": 4785,
      "unes": 4786,
      "unto": 4787,
      "rier": 4788,
      "cafe": 4789,
      "lot": 4790,
      "Ġnine": 4791,
      "Ġmust": 4792,
      "termin": 4793,
      "etter": 4794,
      "Ġcast": 4795,
      "omes": 4796,
      "aula": 4797,
      "nach": 4798,
      "ordin": 4799,
      "132": 4800,
      "ĠNO": 4801,
      "Ġrepro": 4802,
      "Ġrejoice": 4803,
      "498": 4804,
      "ANE": 4805,
      "plant": 4806,
      "zehn": 4807,
      "403": 4808,
      "480": 4809,
      "906": 4810,
      "559": 4811,
      "gry": 4812,
      "harise": 4813,
      "ĠOliveira": 4814,
      "885": 4815,
      "995": 4816,
      "used": 4817,
      "061": 4818,
      "primer": 4819,
      "essoal": 4820,
      "istema": 4821,
      "Ġworks": 4822,
      "grupo": 4823,
      "Gesch": 4824,
      "-W": 4825,
      "-co": 4826,
      "-ha": 4827,
      "323": 4828,
      "312": 4829,
      "419": 4830,
      "598": 4831,
      "631": 4832,
      "727": 4833,
      "811": 4834,
      "953": 4835,
      "Ap": 4836,
      "Ali": 4837,
      "CGB": 4838,
      "Ed": 4839,
      "GL": 4840,
      "Hu": 4841,
      "Kre": 4842,
      "Lar": 4843,
      "PX": 4844,
      "Rio": 4845,
      "Van": 4846,
      "YS": 4847,
      "bone": 4848,
      "gha": 4849,
      "ika": 4850,
      "jou": 4851,
      "kin": 4852,
      "lus": 4853,
      "mission": 4854,
      "nut": 4855,
      "sour": 4856,
      "word": 4857,
      "×ª": 4858,
      "enz": 4859,
      "inten": 4860,
      "org": 4861,
      "rei": 4862,
      "sehen": 4863,
      "Ġsha": 4864,
      "Ġstra": 4865,
      "Ġwine": 4866,
      "tieren": 4867,
      "vem": 4868,
      "immer": 4869,
      "Ġist": 4870,
      "ulho": 4871,
      "ader": 4872,
      "beau": 4873,
      "ĠMy": 4874,
      "ĠMelo": 4875,
      "ereira": 4876,
      "áĦħáħ©áĨ«": 4877,
      "ĠGo": 4878,
      "voor": 4879,
      "perfe": 4880,
      "gostar": 4881,
      "google": 4882,
      "gener": 4883,
      "gada": 4884,
      "exper": 4885,
      "ĠRio": 4886,
      "303": 4887,
      "260": 4888,
      "356": 4889,
      "igner": 4890,
      "242": 4891,
      "375": 4892,
      "960": 4893,
      "962": 4894,
      "554": 4895,
      "222": 4896,
      "ENTE": 4897,
      "ÌĪnnen": 4898,
      "visa": 4899,
      "695": 4900,
      "latt": 4901,
      "áĦĭáħ®áĦĭáħ§áĨ«": 4902,
      "Ġletter": 4903,
      "alfabet": 4904,
      "áĦĳáħ§áĨ«áĦĭáħ¡áĨ«áĦĴáħ¡áĦĥáħ¡": 4905,
      "áĦĨáħ®áĨ¯áĦħáħ©áĨ«": 4906,
      "!\"Ċ": 4907,
      "-DE": 4908,
      ".co": 4909,
      "056": 4910,
      "216": 4911,
      "336": 4912,
      "420": 4913,
      "540": 4914,
      "616": 4915,
      "622": 4916,
      "815": 4917,
      "872": 4918,
      "925": 4919,
      "974": 4920,
      "942": 4921,
      "AI": 4922,
      "BS": 4923,
      "Gr": 4924,
      "MG": 4925,
      "Mag": 4926,
      "Now": 4927,
      "Sto": 4928,
      "grande": 4929,
      "jen": 4930,
      "kro": 4931,
      "liste": 4932,
      "pent": 4933,
      "sap": 4934,
      "zir": 4935,
      "×Ĳ": 4936,
      "Ġiz": 4937,
      "arse": 4938,
      "esto": 4939,
      "issen": 4940,
      "ask": 4941,
      "aste": 4942,
      "Ġhere": 4943,
      "rito": 4944,
      "liana": 4945,
      "Ġbr": 4946,
      "diar": 4947,
      "Ġnos": 4948,
      "geo": 4949,
      "compan": 4950,
      "áĦīáħ³": 4951,
      "amo": 4952,
      "admin": 4953,
      "Ġdentro": 4954,
      "ĠMich": 4955,
      "moto": 4956,
      "viol": 4957,
      "Ġtree": 4958,
      "bot": 4959,
      "ĠEli": 4960,
      "pain": 4961,
      "Ġwhile": 4962,
      "exer": 4963,
      "149": 4964,
      "Ø§Ùħ": 4965,
      "350": 4966,
      "299": 4967,
      "404": 4968,
      "fag": 4969,
      "468": 4970,
      "342": 4971,
      "781": 4972,
      "correr": 4973,
      "Ġchief": 4974,
      "ĠOr": 4975,
      "Schnee": 4976,
      "685": 4977,
      "primeiro": 4978,
      "602": 4979,
      "count": 4980,
      "694": 4981,
      "Ġthought": 4982,
      "áĦĮáħ¦áĦĩáħ¡áĨ¯": 4983,
      "zido": 4984,
      "áĦĮáħ©áĩĤáĦĥáħ¡": 4985,
      "ctif": 4986,
      "Ġreceived": 4987,
      "áĦīáħ¡áĦħáħ¡áĨ·": 4988,
      "Ġbrothers": 4989,
      ".xlsx": 4990,
      "Ġstood": 4991,
      "áĦĢáħ¥áĨ·áĦīáħ¡": 4992,
      "-di": 4993,
      ".uk": 4994,
      "027": 4995,
      "072": 4996,
      "440": 4997,
      "526": 4998,
      "748": 4999,
      "747": 5000,
      "837": 5001,
      "858": 5002,
      "935": 5003,
      "940": 5004,
      "941": 5005,
      "AH": 5006,
      "Der": 5007,
      "ET": 5008,
      "Finger": 5009,
      "JF": 5010,
      "PB": 5011,
      "SW": 5012,
      "cand": 5013,
      "gli": 5014,
      "know": 5015,
      "pic": 5016,
      "pati": 5017,
      "ting": 5018,
      "udo": 5019,
      "zent": 5020,
      "Ñģ": 5021,
      "this": 5022,
      "Ìģpar": 5023,
      "ism": 5024,
      "dele": 5025,
      "asi": 5026,
      "Ġsom": 5027,
      "Ġsuch": 5028,
      "Ġsub": 5029,
      "mad": 5030,
      "Ġbapti": 5031,
      "Ġfavor": 5032,
      "Ġpasse": 5033,
      "Ġmal": 5034,
      "vere": 5035,
      "ĠSouth": 5036,
      "comer": 5037,
      "amos": 5038,
      "ĠJe": 5039,
      "áĨ¯áĦĩáħ¡": 5040,
      "hair": 5041,
      "Ġgu": 5042,
      "icken": 5043,
      "viar": 5044,
      "vite": 5045,
      "sier": 5046,
      "áĦĭáħµáĨ·": 5047,
      "ĠHand": 5048,
      "198": 5049,
      "187": 5050,
      "áĦĭáħ¡áĦģáħ¡": 5051,
      "492": 5052,
      "275": 5053,
      "Ġlaid": 5054,
      "221": 5055,
      "472": 5056,
      "888": 5057,
      "obje": 5058,
      "ÌĪnf": 5059,
      "elek": 5060,
      "áĦĩáħ©áĦĤáħ¢áĦĥáħ¡": 5061,
      "452": 5062,
      "versar": 5063,
      "áĦĭáħ©áĨ¯áĦĩáħ¡": 5064,
      "Ġfood": 5065,
      "gunda": 5066,
      "close": 5067,
      "Santa": 5068,
      "áĦĴáħ©áĨ«áĦĮáħ¡": 5069,
      "áĦĥáħ©áĨ¨áĦĲáħ³áĨ¨": 5070,
      "Ġbrethren": 5071,
      "repell": 5072,
      "áĦĭáħ¡áĦģáħ¡áĨ¸áĦĥáħ¡": 5073,
      "áĦĭáħ©áĨ¯áĦĩáħ¡áĦħáħ³áĦĥáħ¡": 5074,
      "021": 5075,
      "066": 5076,
      "414": 5077,
      "513": 5078,
      "596": 5079,
      "755": 5080,
      "930": 5081,
      "924": 5082,
      "996": 5083,
      "975": 5084,
      "GT": 5085,
      "Gar": 5086,
      "LBG": 5087,
      "TZ": 5088,
      "Who": 5089,
      "XU": 5090,
      "eur": 5091,
      "hh": 5092,
      "iv": 5093,
      "kor": 5094,
      "mid": 5095,
      "swe": 5096,
      "ught": 5097,
      "writing": 5098,
      "Ġà¸": 5099,
      "arte": 5100,
      "thirty": 5101,
      "Ìģter": 5102,
      "Ìģce": 5103,
      "aster": 5104,
      "ouv": 5105,
      "áĦĥáħ¥": 5106,
      "Ġhast": 5107,
      "cool": 5108,
      "mame": 5109,
      "like": 5110,
      "Ġol": 5111,
      "Ġfal": 5112,
      "Ġaus": 5113,
      "Ġdeliver": 5114,
      "stor": 5115,
      "Ġinde": 5116,
      "áĦĩáħ³": 5117,
      "ics": 5118,
      "ÌĢres": 5119,
      "forma": 5120,
      "boi": 5121,
      "ĠHoly": 5122,
      "dual": 5123,
      "145": 5124,
      "147": 5125,
      "263": 5126,
      "Ġangel": 5127,
      "491": 5128,
      "294": 5129,
      "289": 5130,
      "256": 5131,
      "231": 5132,
      "plus": 5133,
      "prete": 5134,
      "ellen": 5135,
      "112": 5136,
      "343": 5137,
      "560": 5138,
      "085": 5139,
      "687": 5140,
      "vision": 5141,
      "ideo": 5142,
      "áĦĦáħ¢": 5143,
      "courage": 5144,
      "áĦİáħµáĦĢáħµ": 5145,
      "773": 5146,
      "melho": 5147,
      "Ġrest": 5148,
      "áĦīáħ¡áĨ¼áĦĢáħªáĨ«": 5149,
      "áĦīáħ©áĦĨáħ¢": 5150,
      "clock": 5151,
      "Ġentre": 5152,
      "Estado": 5153,
      "áĦĥáħ©áĨ«áĦĮáħ®áĦĥáħ¡": 5154,
      "Ġtwenty": 5155,
      "áĦīáħ¡áĨ¼áĦĢáħªáĨ«áĦĭáħ¥áĨ¹áĦĥáħ¡": 5156,
      "áĦīáħ©áĦĨáħ¢áĦİáħµáĦĢáħµ": 5157,
      "-ver": 5158,
      "-left": 5159,
      "036": 5160,
      "121": 5161,
      "220": 5162,
      "476": 5163,
      "618": 5164,
      "638": 5165,
      "659": 5166,
      "733": 5167,
      "840": 5168,
      "878": 5169,
      "839": 5170,
      "854": 5171,
      "918": 5172,
      "990": 5173,
      "Arac": 5174,
      "Bru": 5175,
      "Casa": 5176,
      "Fern": 5177,
      "HH": 5178,
      "II": 5179,
      "JX": 5180,
      "MZ": 5181,
      "MGB": 5182,
      "MER": 5183,
      "PF": 5184,
      "Sau": 5185,
      "Then": 5186,
      "ZI": 5187,
      "ain": 5188,
      "cke": 5189,
      "gt": 5190,
      "hora": 5191,
      "ider": 5192,
      "pay": 5193,
      "plu": 5194,
      "soe": 5195,
      "show": 5196,
      "zung": 5197,
      "Ġzu": 5198,
      "ĠQu": 5199,
      "onge": 5200,
      "eso": 5201,
      "istir": 5202,
      "Ġsil": 5203,
      "magn": 5204,
      "Ġbase": 5205,
      "Ġfil": 5206,
      "Ġpath": 5207,
      "cier": 5208,
      "Ġnear": 5209,
      "ulgar": 5210,
      "next": 5211,
      "happ": 5212,
      "áĦħáħ¦": 5213,
      "ĠPaulo": 5214,
      "ĠPharise": 5215,
      "Ġdoor": 5216,
      "Ġbeginning": 5217,
      "emin": 5218,
      "ghu": 5219,
      "áĦĭáħµáĨ¸áĦĥáħ¡": 5220,
      "gens": 5221,
      "ĠFran": 5222,
      "áĨ·áĦİáħµáĦĥáħ¡": 5223,
      "Ġforty": 5224,
      "Ġune": 5225,
      "Ġuntil": 5226,
      "Ìģrias": 5227,
      "359": 5228,
      "287": 5229,
      "273": 5230,
      "172": 5231,
      "177": 5232,
      "234": 5233,
      "111": 5234,
      "580": 5235,
      "Ġdied": 5236,
      "367": 5237,
      "369": 5238,
      "551": 5239,
      "467": 5240,
      "469": 5241,
      "Ġlado": 5242,
      "769": 5243,
      "392": 5244,
      "593": 5245,
      "477": 5246,
      "ansen": 5247,
      "Ġcontinu": 5248,
      "065": 5249,
      "à¹ģ": 5250,
      "683": 5251,
      "Ġtaken": 5252,
      "áĦĩáħ©áĨ«": 5253,
      "604": 5254,
      "stoff": 5255,
      "áĦĴáħ®áĨ·áĦİáħµáĦĥáħ¡": 5256,
      "Ġbelieved": 5257,
      "stellen": 5258,
      "homem": 5259,
      "áĦĭáħµáĨ¸áĦĥáħ¡áĨ©áĦĥáħ¡": 5260,
      "-ar": 5261,
      "-on": 5262,
      "-da": 5263,
      "-og": 5264,
      "038": 5265,
      "031": 5266,
      "120": 5267,
      "228": 5268,
      "330": 5269,
      "626": 5270,
      "623": 5271,
      "654": 5272,
      "671": 5273,
      "718": 5274,
      "725": 5275,
      "750": 5276,
      "828": 5277,
      "870": 5278,
      "879": 5279,
      "936": 5280,
      "At": 5281,
      "Che": 5282,
      "Christ": 5283,
      "Hol": 5284,
      "KD": 5285,
      "NY": 5286,
      "OK": 5287,
      "Os": 5288,
      "Pap": 5289,
      "Sonne": 5290,
      "blan": 5291,
      "cun": 5292,
      "dri": 5293,
      "ev": 5294,
      "jue": 5295,
      "kke": 5296,
      "list": 5297,
      "ned": 5298,
      "oz": 5299,
      "pter": 5300,
      "will": 5301,
      "alla": 5302,
      "segundo": 5303,
      "lea": 5304,
      "Ġsick": 5305,
      "Ġful": 5306,
      "usion": 5307,
      "urre": 5308,
      "Ġmine": 5309,
      "stro": 5310,
      "iago": 5311,
      "ĠSer": 5312,
      "ĠSte": 5313,
      "osto": 5314,
      "ÌĤter": 5315,
      "ÌĤche": 5316,
      "Ġeight": 5317,
      "uten": 5318,
      "ulti": 5319,
      "mode": 5320,
      "ĠTe": 5321,
      "Ġsea": 5322,
      "weth": 5323,
      "tual": 5324,
      "card": 5325,
      "Ġknew": 5326,
      "trabal": 5327,
      "ards": 5328,
      "llen": 5329,
      "506": 5330,
      "orado": 5331,
      "069": 5332,
      "break": 5333,
      "752": 5334,
      "áĦĮáħ®áĨ¨áĦĥáħ¡": 5335,
      "ppel": 5336,
      "Ġsurdo": 5337,
      "burgh": 5338,
      "azul": 5339,
      "ĠBarcelona": 5340,
      "Ġaccording": 5341,
      "VID": 5342,
      "gypt": 5343,
      "áĦīáħµáĨ¯áĦĳáħ¢": 5344,
      "Portugue": 5345,
      "Surdo": 5346,
      "à¹ĮĊ": 5347,
      "ĠEstado": 5348,
      "Mexico": 5349,
      "043": 5350,
      "052": 5351,
      "125": 5352,
      "421": 5353,
      "655": 5354,
      "677": 5355,
      "819": 5356,
      "849": 5357,
      "850": 5358,
      "911": 5359,
      "955": 5360,
      "998": 5361,
      "934": 5362,
      "Cur": 5363,
      "Em": 5364,
      "Im": 5365,
      "JH": 5366,
      "MAN": 5367,
      "PL": 5368,
      "PMS": 5369,
      "bt": 5370,
      "lis": 5371,
      "sing": 5372,
      "sko": 5373,
      "ution": 5374,
      "yn": 5375,
      "lec": 5376,
      "road": 5377,
      "iland": 5378,
      "dif": 5379,
      "vet": 5380,
      "Ġmes": 5381,
      "geometria": 5382,
      "imer": 5383,
      "versch": 5384,
      "iam": 5385,
      "aman": 5386,
      "ĠDaniel": 5387,
      "à¸¸": 5388,
      "accus": 5389,
      "bez": 5390,
      "ĠMor": 5391,
      "ÌĮet": 5392,
      "ĠPo": 5393,
      "appy": 5394,
      "guay": 5395,
      "boy": 5396,
      "áĦĢáħ¡áĦĥáħ®áĦĥáħ¡": 5397,
      "103": 5398,
      "161": 5399,
      "Ġreturn": 5400,
      "140": 5401,
      "490": 5402,
      "mental": 5403,
      "áĦĨáħ¡áĨ¯áĦĭáħ¡": 5404,
      "enden": 5405,
      "253": 5406,
      "243": 5407,
      "fire": 5408,
      "587": 5409,
      "460": 5410,
      "502": 5411,
      "ÌĤng": 5412,
      "668": 5413,
      "068": 5414,
      "vesti": 5415,
      "442": 5416,
      "brac": 5417,
      "áĦĭáħ§áĨ¨": 5418,
      "letter": 5419,
      "they": 5420,
      "cleta": 5421,
      "Deus": 5422,
      "ancel": 5423,
      "áĦĢáħ³áĦĨáħ¡áĨ«": 5424,
      "864": 5425,
      "Escola": 5426,
      "frase": 5427,
      "áĦĮáħ©áĦĭáħŃáĨ¼": 5428,
      "Ìģlectri": 5429,
      "Israel": 5430,
      "Ġsomething": 5431,
      "áĦĭáħ¥áĦĨáħ¡áĨ½áĦĥáħ¡": 5432,
      "áĦĩáħ§áĨ¯": 5433,
      "áĦĥáħ³áĨ¯áĦĭáħ¥áĦĨáħ¡áĨ½áĦĥáħ¡": 5434,
      "áĦĮáħ©áĦĭáħŃáĨ¼áĦĴáħµ": 5435,
      "040": 5436,
      "012": 5437,
      "073": 5438,
      "249": 5439,
      "326": 5440,
      "510": 5441,
      "619": 5442,
      "615": 5443,
      "614": 5444,
      "716": 5445,
      "759": 5446,
      "855": 5447,
      "875": 5448,
      "919": 5449,
      "926": 5450,
      "922": 5451,
      "952": 5452,
      "BU": 5453,
      "BW": 5454,
      "Bre": 5455,
      "Char": 5456,
      "Jud": 5457,
      "JEU": 5458,
      "MB": 5459,
      "SIL": 5460,
      "ZL": 5461,
      "big": 5462,
      "fut": 5463,
      "mig": 5464,
      "night": 5465,
      "prac": 5466,
      "ration": 5467,
      "tit": 5468,
      "uto": 5469,
      "zac": 5470,
      "×ľ": 5471,
      "Ġass": 5472,
      "anie": 5473,
      "inta": 5474,
      "ating": 5475,
      "semb": 5476,
      "rag": 5477,
      "ilig": 5478,
      "undes": 5479,
      "Ġpai": 5480,
      "cip": 5481,
      "dim": 5482,
      "urer": 5483,
      "ĠSy": 5484,
      "ĠAbraham": 5485,
      "ĠMon": 5486,
      "nove": 5487,
      "motor": 5488,
      "nago": 5489,
      "gend": 5490,
      "ĠEx": 5491,
      "208": 5492,
      "paz": 5493,
      "ARE": 5494,
      "106": 5495,
      "160": 5496,
      "153": 5497,
      "ĠRodri": 5498,
      "arden": 5499,
      "grade": 5500,
      "247": 5501,
      "233": 5502,
      "386": 5503,
      "360": 5504,
      "Ìģral": 5505,
      "344": 5506,
      "507": 5507,
      "Ġcause": 5508,
      "clar": 5509,
      "class": 5510,
      "592": 5511,
      "332": 5512,
      "999": 5513,
      "ages": 5514,
      "545": 5515,
      "ÙĬÙĨ": 5516,
      "ĠMary": 5517,
      "áĨºáĦĥáħ¡": 5518,
      "áĦĦáħ³": 5519,
      "693": 5520,
      "áĦĢáħ³áĨ¸áĦĴáħ¡áĦĥáħ¡": 5521,
      "áĦĭáħ²áĦĮáħ¥áĨ«": 5522,
      "dormir": 5523,
      "áĦĢáħ©áĦĮáħ¡áĨ¼": 5524,
      "áĦĨáħ©áĦĭáħ³": 5525,
      "venty": 5526,
      "guntar": 5527,
      "ontan": 5528,
      "à¸µà¸¢": 5529,
      "Zeit": 5530,
      "Ìģpido": 5531,
      ".pptx": 5532,
      "figurac": 5533,
      "áĦİáħ©áĦĥáħ³áĨ¼": 5534,
      "Temperatur": 5535,
      "ĠNorth": 5536,
      "mameli": 5537,
      "áĦĦáħ¢áĦħáħµáĦĥáħ¡": 5538,
      "áĦĨáħ©áĦĭáħ³áĦĥáħ¡": 5539,
      "019": 5540,
      "029": 5541,
      "024": 5542,
      "048": 5543,
      "126": 5544,
      "123": 5545,
      "314": 5546,
      "448": 5547,
      "558": 5548,
      "731": 5549,
      "898": 5550,
      "847": 5551,
      "852": 5552,
      "Afri": 5553,
      "FN": 5554,
      "Lord": 5555,
      "May": 5556,
      "OD": 5557,
      "Ve": 5558,
      "Vol": 5559,
      "Xog": 5560,
      "YW": 5561,
      "cen": 5562,
      "gio": 5563,
      "ium": 5564,
      "kus": 5565,
      "ming": 5566,
      "pdoe": 5567,
      "pick": 5568,
      "pessoas": 5569,
      "uma": 5570,
      "uva": 5571,
      "wit": 5572,
      "yed": 5573,
      "¬áĦĳáħ¡": 5574,
      "ÑĢ": 5575,
      "Ġx": 5576,
      "iness": 5577,
      "ony": 5578,
      "Ìģvat": 5579,
      "chsel": 5580,
      "meda": 5581,
      "dog": 5582,
      "Ġsim": 5583,
      "mage": 5584,
      "Ġfull": 5585,
      "uration": 5586,
      "quet": 5587,
      "ĠDon": 5588,
      "bede": 5589,
      "noch": 5590,
      "contin": 5591,
      "ĠGrande": 5592,
      "ders": 5593,
      "estre": 5594,
      "inea": 5595,
      "205": 5596,
      "197": 5597,
      "186": 5598,
      "164": 5599,
      "493": 5600,
      "281": 5601,
      "270": 5602,
      "179": 5603,
      "fici": 5604,
      "380": 5605,
      "382": 5606,
      "many": 5607,
      "361": 5608,
      "365": 5609,
      "áĦĢáħ¬áĦĳáħ¡": 5610,
      "907": 5611,
      "553": 5612,
      "706": 5613,
      "784": 5614,
      "089": 5615,
      "595": 5616,
      "479": 5617,
      "ITA": 5618,
      "áĦĲáħ¡": 5619,
      "affe": 5620,
      "chocol": 5621,
      "crip": 5622,
      "idad": 5623,
      "villa": 5624,
      "áĦĢáħ¨áĦīáħ©áĨ¨": 5625,
      "Ì¨c": 5626,
      "falar": 5627,
      "feliz": 5628,
      "Ìģblico": 5629,
      "áĦİáħ¥áĨ¯": 5630,
      "fferent": 5631,
      "ĠUFERSA": 5632,
      "áĦĭáħ¥áĨ¼áĦĲáħ¥": 5633,
      "áĦĢáħ¬áĦĳáħ¡áĨ¨áĦĴáħ¡áĦĥáħ¡": 5634,
      "áĦĭáħ¥áĨ¼áĦĲáħ¥áĦħáħµ": 5635,
      "015": 5636,
      "034": 5637,
      "224": 5638,
      "316": 5639,
      "321": 5640,
      "611": 5641,
      "646": 5642,
      "848": 5643,
      "927": 5644,
      "959": 5645,
      "Fin": 5646,
      "Fil": 5647,
      "Gal": 5648,
      "KE": 5649,
      "KW": 5650,
      "POR": 5651,
      "Sil": 5652,
      "South": 5653,
      "UT": 5654,
      "Wie": 5655,
      "fli": 5656,
      "hard": 5657,
      "nun": 5658,
      "passe": 5659,
      "wu": 5660,
      "invent": 5661,
      "onta": 5662,
      "esco": 5663,
      "relig": 5664,
      "lement": 5665,
      "tou": 5666,
      "oul": 5667,
      "down": 5668,
      "codi": 5669,
      "Ġwritten": 5670,
      "andon": 5671,
      "liche": 5672,
      "cavel": 5673,
      "cien": 5674,
      "quo": 5675,
      "Ġmind": 5676,
      "irm": 5677,
      "áĨ«áĦħ": 5678,
      "ÌĪhn": 5679,
      "stud": 5680,
      "áĨ¼áĦħáħ§áĨ¼": 5681,
      "como": 5682,
      "à¸¹": 5683,
      "utes": 5684,
      "pedir": 5685,
      "ĠLBZH": 5686,
      "most": 5687,
      "Ġbear": 5688,
      "embar": 5689,
      "berta": 5690,
      "Ġseen": 5691,
      "ichte": 5692,
      "week": 5693,
      "203": 5694,
      "163": 5695,
      "Ìģngue": 5696,
      "158": 5697,
      "duzido": 5698,
      "cue": 5699,
      "Ġlivro": 5700,
      "lugar": 5701,
      "353": 5702,
      "avra": 5703,
      "ranco": 5704,
      "ĠWh": 5705,
      "manded": 5706,
      "Ġshalt": 5707,
      "482": 5708,
      "486": 5709,
      "364": 5710,
      "705": 5711,
      "áĦĩáħ¡áĨ©": 5712,
      "Ġvis": 5713,
      "565": 5714,
      "phone": 5715,
      "599": 5716,
      "werk": 5717,
      "Inde": 5718,
      "579": 5719,
      "992": 5720,
      "sentir": 5721,
      "689": 5722,
      "ixa": 5723,
      "áĦİáħµáĨ«áĦĴáħ¡áĦĥáħ¡": 5724,
      "Ġdesire": 5725,
      "lash": 5726,
      "áĦİáħ®áĨ¨": 5727,
      "ĠInte": 5728,
      "zial": 5729,
      "ÌĤnibus": 5730,
      "áĦĴáħ®áĨ«áĦħ": 5731,
      "áĦĴáħ¬áĨ¼áĦħáħ§áĨ¼": 5732,
      "fono": 5733,
      "poder": 5734,
      "áĦĢáħ³áĨ·áĦĮáħµ": 5735,
      "Ġmorning": 5736,
      "chorro": 5737,
      "LOSSA": 5738,
      "áĦİáħ©áĦĥáħ³áĨ¼áĦĭáħµáĨ¯áĦĴáħ¡áĨ¨áĦĤáħ§áĨ«": 5739,
      "áĦĴáħ®áĨ«áĦħáħ§áĨ«": 5740,
      "-pa": 5741,
      "058": 5742,
      "054": 5743,
      "116": 5744,
      "348": 5745,
      "396": 5746,
      "322": 5747,
      "426": 5748,
      "428": 5749,
      "411": 5750,
      "648": 5751,
      "830": 5752,
      "859": 5753,
      "Eli": 5754,
      "FD": 5755,
      "Fam": 5756,
      "Gen": 5757,
      "NL": 5758,
      "Pedro": 5759,
      "Wo": 5760,
      "ef": 5761,
      "first": 5762,
      "hist": 5763,
      "hip": 5764,
      "hlen": 5765,
      "jor": 5766,
      "jed": 5767,
      "nit": 5768,
      "vina": 5769,
      "vati": 5770,
      "wind": 5771,
      "Ġ,": 5772,
      "Ġir": 5773,
      "second": 5774,
      "chau": 5775,
      "child": 5776,
      "delen": 5777,
      "tia": 5778,
      "Ġborn": 5779,
      "Ġmoney": 5780,
      "Ġinstruction": 5781,
      "heart": 5782,
      "ĠIN": 5783,
      "ĠGLOSSA": 5784,
      "pers": 5785,
      "got": 5786,
      "areth": 5787,
      "166": 5788,
      "Ìģrios": 5789,
      "292": 5790,
      "284": 5791,
      "285": 5792,
      "ĠWest": 5793,
      "ĠWhere": 5794,
      "259": 5795,
      "376": 5796,
      "Ġcommanded": 5797,
      "481": 5798,
      "980": 5799,
      "987": 5800,
      "780": 5801,
      "393": 5802,
      "render": 5803,
      "tros": 5804,
      "994": 5805,
      "crever": 5806,
      "792": 5807,
      "bens": 5808,
      "809": 5809,
      "Ġtrouble": 5810,
      "Ø§Ø¨": 5811,
      "894": 5812,
      "ĠIslands": 5813,
      "Ì£ÌĤ": 5814,
      "Ġabove": 5815,
      "-que": 5816,
      "-dia": 5817,
      "099": 5818,
      "311": 5819,
      "447": 5820,
      "432": 5821,
      "570": 5822,
      "688": 5823,
      "653": 5824,
      "790": 5825,
      "826": 5826,
      "836": 5827,
      "Bra": 5828,
      "CER": 5829,
      "Chr": 5830,
      "DIA": 5831,
      "EE": 5832,
      "FF": 5833,
      "Haus": 5834,
      "Ital": 5835,
      "Jap": 5836,
      "MF": 5837,
      "SS": 5838,
      "Sand": 5839,
      "_klein": 5840,
      "avo": 5841,
      "bic": 5842,
      "cous": 5843,
      "gla": 5844,
      "hib": 5845,
      "klo": 5846,
      "kni": 5847,
      "mut": 5848,
      "mier": 5849,
      "nal": 5850,
      "ply": 5851,
      "vra": 5852,
      "vous": 5853,
      "enn": 5854,
      "onc": 5855,
      "Ìģas": 5856,
      "Ìģdo": 5857,
      "asure": 5858,
      "Ġsaber": 5859,
      "Ġwant": 5860,
      "unden": 5861,
      "diff": 5862,
      "hosp": 5863,
      "uras": 5864,
      "quem": 5865,
      "quid": 5866,
      "ÌĪss": 5867,
      "ÌĪÃŁ": 5868,
      "Ġdepar": 5869,
      "start": 5870,
      "Ġtoward": 5871,
      "Ġcu": 5872,
      "peti": 5873,
      "act": 5874,
      "ÌĮed": 5875,
      "mostrar": 5876,
      "Ġbem": 5877,
      "guer": 5878,
      "bert": 5879,
      "nice": 5880,
      "sapo": 5881,
      "206": 5882,
      "207": 5883,
      "áĦĤáħ©": 5884,
      "áĦīáħµáĨ¯áĦĴáħ¡áĦĥáħ¡": 5885,
      "ESS": 5886,
      "130": 5887,
      "108": 5888,
      "áĦĨáħ¡áĩĢáĦĥáħ¡": 5889,
      "ANT": 5890,
      "pret": 5891,
      "381": 5892,
      "384": 5893,
      "582": 5894,
      "964": 5895,
      "ELE": 5896,
      "982": 5897,
      "504": 5898,
      "pensar": 5899,
      "corpor": 5900,
      "Ġchar": 5901,
      "666": 5902,
      "573": 5903,
      "575": 5904,
      "estamento": 5905,
      "881": 5906,
      "áĦĤáħ¡áĨ«": 5907,
      "áĨºáĦĤáħ¡áĨ¯": 5908,
      "áĦĭáħ§áĨ¯": 5909,
      "601": 5910,
      "after": 5911,
      "Mathem": 5912,
      "ities": 5913,
      "ĠLima": 5914,
      "banco": 5915,
      "Ġpower": 5916,
      "Ìģgio": 5917,
      "ĠAlmeida": 5918,
      "groÃŁ": 5919,
      "áĦĴáħ¢áĦĢáħ©": 5920,
      "áĦĥáħ©áĨ¨áĦĴáħ¡áĦĥáħ¡": 5921,
      "áĦĭáħ¨áĨºáĦĤáħ¡áĨ¯": 5922,
      "Ġjudgment": 5923,
      "Ġfollowed": 5924,
      "áĦĴáħªáĨ¨áĦīáħµáĨ¯áĦĴáħ¡áĦĥáħ¡": 5925,
      "Ġknown": 5926,
      "Wolke": 5927,
      "áĦĪáħ¡áĨ¯áĦĢáħ¡áĨ¼": 5928,
      "ĠPharisees": 5929,
      "'en": 5930,
      "-U": 5931,
      "-q": 5932,
      "-pl": 5933,
      "076": 5934,
      "059": 5935,
      "210": 5936,
      "215": 5937,
      "225": 5938,
      "390": 5939,
      "398": 5940,
      "339": 5941,
      "415": 5942,
      "534": 5943,
      "533": 5944,
      "632": 5945,
      "866": 5946,
      "833": 5947,
      "843": 5948,
      "948": 5949,
      "Hau": 5950,
      "HAR": 5951,
      "IRA": 5952,
      "Pla": 5953,
      "SINAL": 5954,
      "VS": 5955,
      "YO": 5956,
      "cast": 5957,
      "city": 5958,
      "ious": 5959,
      "late": 5960,
      "pier": 5961,
      "tall": 5962,
      "tato": 5963,
      "why": 5964,
      "Øº": 5965,
      "inst": 5966,
      "isser": 5967,
      "chan": 5968,
      "teth": 5969,
      "Ġsen": 5970,
      "Ġholy": 5971,
      "tigo": 5972,
      "lima": 5973,
      "livre": 5974,
      "Ġbed": 5975,
      "quatro": 5976,
      "quatre": 5977,
      "terra": 5978,
      "iex": 5979,
      "olina": 5980,
      "abor": 5981,
      "Ġcour": 5982,
      "Ġgather": 5983,
      "ĠMoses": 5984,
      "emati": 5985,
      "003": 5986,
      "saac": 5987,
      "áĦĢáħ¡áĩģáĦĥáħ¡": 5988,
      "ĠHo": 5989,
      "184": 5990,
      "155": 5991,
      "Ġkill": 5992,
      "267": 5993,
      "298": 5994,
      "283": 5995,
      "eller": 5996,
      "Ġcoming": 5997,
      "903": 5998,
      "Ġthemselves": 5999,
      "709": 6000,
      "505": 6001,
      "562": 6002,
      "394": 6003,
      "083": 6004,
      "084": 6005,
      "087": 6006,
      "471": 6007,
      "ĠOs": 6008,
      "572": 6009,
      "574": 6010,
      "áĦĩáħ®áĨ¨": 6011,
      "997": 6012,
      "áĦĤáħ¡áĦĪ": 6013,
      "CHA": 6014,
      "Alla": 6015,
      "603": 6016,
      "logy": 6017,
      "itivo": 6018,
      "áĦĮáħ¥áĨ«áĦĢáħ®áĨ¨": 6019,
      "UFC": 6020,
      "áĦīáħµáĨ·áĦīáħµáĨ·": 6021,
      "hello": 6022,
      "imag": 6023,
      "Exp": 6024,
      "Austral": 6025,
      "Ġgrace": 6026,
      "fysi": 6027,
      "ajudar": 6028,
      "stellung": 6029,
      "ãĤĻ": 6030,
      "fruta": 6031,
      "Ìģrea": 6032,
      "Ġspoken": 6033,
      "ength": 6034,
      "áĦĬáħ¡áĦĭáħ®áĦĥáħ¡": 6035,
      "áĦĳáħ§áĨ¼áĦĢáħ¡": 6036,
      "Ġfriend": 6037,
      "Ġparede": 6038,
      "happy": 6039,
      "áĦĤáħ¡áĨ«áĦħáħµ": 6040,
      "áĦĤáħ¡áĦĪáħ³áĦĥáħ¡": 6041,
      "-po": 6042,
      "450": 6043,
      "456": 6044,
      "517": 6045,
      "525": 6046,
      "522": 6047,
      "634": 6048,
      "650": 6049,
      "644": 6050,
      "735": 6051,
      "814": 6052,
      "890": 6053,
      "871": 6054,
      "Bou": 6055,
      "Bom": 6056,
      "Cer": 6057,
      "GN": 6058,
      "HS": 6059,
      "KQ": 6060,
      "Ke": 6061,
      "Nach": 6062,
      "Sen": 6063,
      "VC": 6064,
      "Za": 6065,
      "gdoe": 6066,
      "high": 6067,
      "iri": 6068,
      "kno": 6069,
      "uga": 6070,
      "vu": 6071,
      "xim": 6072,
      "ydoe": 6073,
      "ãĥ": 6074,
      "anja": 6075,
      "inas": 6076,
      "oni": 6077,
      "onia": 6078,
      "Ìģpe": 6079,
      "Ìģdia": 6080,
      "atra": 6081,
      "toi": 6082,
      "rath": 6083,
      "meta": 6084,
      "Ġsins": 6085,
      "eland": 6086,
      "lag": 6087,
      "cido": 6088,
      "cida": 6089,
      "ustri": 6090,
      "Ġnu": 6091,
      "ceiro": 6092,
      "sty": 6093,
      "stan": 6094,
      "ĠDi": 6095,
      "áĨ¯áĦĭáħŃ": 6096,
      "ÌĤm": 6097,
      "util": 6098,
      "pec": 6099,
      "bei": 6100,
      "ods": 6101,
      "ÌĢ-": 6102,
      "forme": 6103,
      "soci": 6104,
      "gover": 6105,
      "ĠFre": 6106,
      "berto": 6107,
      "schu": 6108,
      "ĠHar": 6109,
      "ESTA": 6110,
      "ext": 6111,
      "tudo": 6112,
      "ids": 6113,
      "141": 6114,
      "143": 6115,
      "302": 6116,
      "oph": 6117,
      "zahl": 6118,
      "252": 6119,
      "241": 6120,
      "sure": 6121,
      "379": 6122,
      "Ġmain": 6123,
      "966": 6124,
      "555": 6125,
      "INO": 6126,
      "508": 6127,
      "pher": 6128,
      "indre": 6129,
      "883": 6130,
      "887": 6131,
      "bula": 6132,
      "vista": 6133,
      "They": 6134,
      "rison": 6135,
      "Ġmostra": 6136,
      "áĦĮáħ®áĦĴáħªáĨ¼": 6137,
      "play": 6138,
      "plain": 6139,
      "TION": 6140,
      "093": 6141,
      "friend": 6142,
      "Ġjoy": 6143,
      "zonas": 6144,
      "groupe": 6145,
      "naturfag": 6146,
      "áĦĳáħµáĨ¯áĦĭáħŃ": 6147,
      "Arbeits": 6148,
      "078": 6149,
      "226": 6150,
      "320": 6151,
      "446": 6152,
      "539": 6153,
      "521": 6154,
      "612": 6155,
      "641": 6156,
      "739": 6157,
      "820": 6158,
      "838": 6159,
      "877": 6160,
      "931": 6161,
      "943": 6162,
      "Den": 6163,
      "DAR": 6164,
      "HI": 6165,
      "HT": 6166,
      "Ham": 6167,
      "If": 6168,
      "Kop": 6169,
      "Ni": 6170,
      "TJ": 6171,
      "Tri": 6172,
      "WX": 6173,
      "eat": 6174,
      "fat": 6175,
      "git": 6176,
      "oo": 6177,
      "pons": 6178,
      "spa": 6179,
      "sister": 6180,
      "vig": 6181,
      "wir": 6182,
      "zw": 6183,
      "Ø¶": 6184,
      "escal": 6185,
      "Ìģno": 6186,
      "alim": 6187,
      "rez": 6188,
      "ilson": 6189,
      "dag": 6190,
      "ingue": 6191,
      "Ġbaixo": 6192,
      "Ġop": 6193,
      "cause": 6194,
      "veau": 6195,
      "impos": 6196,
      "vert": 6197,
      "stat": 6198,
      "ĠAna": 6199,
      "ĠDar": 6200,
      "ets": 6201,
      "Ġindi": 6202,
      "Ġcle": 6203,
      "Ġcut": 6204,
      "people": 6205,
      "áĦĨáħ¦": 6206,
      "áĦĭáħª": 6207,
      "ĠLa": 6208,
      "continu": 6209,
      "emp": 6210,
      "guard": 6211,
      "pris": 6212,
      "produ": 6213,
      "Ġmet": 6214,
      "268": 6215,
      "277": 6216,
      "245": 6217,
      "387": 6218,
      "Ġship": 6219,
      "378": 6220,
      "968": 6221,
      "ING": 6222,
      "983": 6223,
      "701": 6224,
      "áĦĩáħ¡áĨ°áĦĥáħ¡": 6225,
      "minus": 6226,
      "cortar": 6227,
      "cles": 6228,
      "ENA": 6229,
      "475": 6230,
      "571": 6231,
      "331": 6232,
      "882": 6233,
      "991": 6234,
      "barco": 6235,
      "Ġjust": 6236,
      "mile": 6237,
      "alifor": 6238,
      "ixo": 6239,
      "743": 6240,
      "coun": 6241,
      "804": 6242,
      "wait": 6243,
      "bank": 6244,
      "Ø§Ø¡": 6245,
      "ĠInterior": 6246,
      "full": 6247,
      "Livro": 6248,
      "entac": 6249,
      "finish": 6250,
      "illiam": 6251,
      "áĦĢáħ¥áĨ¸áĦĥáħ¡": 6252,
      "Ġtraduc": 6253,
      "hipo": 6254,
      "ctive": 6255,
      "áĦĭáħ§áĨ«áĦĢáħ§áĨ¯": 6256,
      "áĦĩáħ®áĨ¯áĦīáħ®áĨ«áĦĮáħ©áĨ¼": 6257,
      "áĦīáħ¢áĨ¼áĦĢáħ¡áĨ¨áĦĭáħ¥áĨ¹áĦĥáħ¡": 6258,
      "unterricht": 6259,
      "mettre": 6260,
      "gleich": 6261,
      "áĦģáħ©áĨ¯": 6262,
      "áĦĭáħ¡áĨ«áĦĥáħ³áĨ¯áĦĥáħ¡": 6263,
      "áĦĥáħ¬áĦĥáħ¡": 6264,
      "Elek": 6265,
      "Ġappear": 6266,
      "áĦĨáħ¡áĦĭáħ³áĨ·áĦĭáħ¦áĦĥáħ³áĨ¯áĦĥáħ¡": 6267,
      "Ìģlogo": 6268,
      "ĠSouza": 6269,
      "libero": 6270,
      "avisar": 6271,
      "Alameda": 6272,
      "Aracati": 6273,
      "-dire": 6274,
      ".M": 6275,
      "026": 6276,
      "122": 6277,
      "223": 6278,
      "325": 6279,
      "454": 6280,
      "536": 6281,
      "590": 6282,
      "698": 6283,
      "729": 6284,
      "822": 6285,
      "853": 6286,
      "914": 6287,
      "946": 6288,
      "954": 6289,
      "972": 6290,
      "@cli": 6291,
      "Bio": 6292,
      "DT": 6293,
      "EZ": 6294,
      "KS": 6295,
      "OI": 6296,
      "Pan": 6297,
      "Wer": 6298,
      "XR": 6299,
      "YC": 6300,
      "bere": 6301,
      "care": 6302,
      "cina": 6303,
      "ech": 6304,
      "eight": 6305,
      "ivo": 6306,
      "kat": 6307,
      "rh": 6308,
      "satis": 6309,
      "watch": 6310,
      "zza": 6311,
      "zione": 6312,
      "×ĵ": 6313,
      "thday": 6314,
      "onal": 6315,
      "Ìģdu": 6316,
      "ismus": 6317,
      "atan": 6318,
      "tous": 6319,
      "Ġsleep": 6320,
      "elf": 6321,
      "eln": 6322,
      "ella": 6323,
      "undi": 6324,
      "ingui": 6325,
      "Ġfell": 6326,
      "lock": 6327,
      "dier": 6328,
      "Ġavenue": 6329,
      "Ġnames": 6330,
      "hoch": 6331,
      "entender": 6332,
      "áĨ«áĦĮáħ¥áĨ«": 6333,
      "gew": 6334,
      "verb": 6335,
      "versa": 6336,
      "etz": 6337,
      "abu": 6338,
      "Ġcin": 6339,
      "nez": 6340,
      "ication": 6341,
      "ÌĢn": 6342,
      "ĠFace": 6343,
      "prise": 6344,
      "Ġsemana": 6345,
      "area": 6346,
      "102": 6347,
      "183": 6348,
      "Ġdaughter": 6349,
      "144": 6350,
      "atif": 6351,
      "avant": 6352,
      "246": 6353,
      "fach": 6354,
      "áĦĮáħ¥áĨ¸": 6355,
      "366": 6356,
      "702": 6357,
      "707": 6358,
      "fern": 6359,
      "783": 6360,
      "391": 6361,
      "088": 6362,
      "serve": 6363,
      "à¹Ħ": 6364,
      "Ġyourselves": 6365,
      "ski": 6366,
      "COVID": 6367,
      "ILS": 6368,
      "clean": 6369,
      "greja": 6370,
      "Ġarose": 6371,
      "stop": 6372,
      "rief": 6373,
      "áĦĩáħ¥áĨ·": 6374,
      "struc": 6375,
      "Carlos": 6376,
      "image": 6377,
      "ĠBehold": 6378,
      "áĦĢáħ©áĨ¼áĦĩáħ¥áĨ·": 6379,
      "mulher": 6380,
      "EIRA": 6381,
      "baby": 6382,
      "public": 6383,
      "ĠLetras": 6384,
      "group": 6385,
      "Ġspoke": 6386,
      "áĦĤáħ³áĨ«": 6387,
      "Ġpriests": 6388,
      "Ð¾Ð": 6389,
      "Ġdoesn": 6390,
      "igreja": 6391,
      "áĦĮáħµáĨ¯áĦĨáħ®áĨ«": 6392,
      "@clix": 6393,
      "071": 6394,
      "413": 6395,
      "458": 6396,
      "535": 6397,
      "512": 6398,
      "613": 6399,
      "608": 6400,
      "674": 6401,
      "710": 6402,
      "728": 6403,
      "724": 6404,
      "778": 6405,
      "775": 6406,
      "824": 6407,
      "821": 6408,
      "947": 6409,
      "@out": 6410,
      "Bah": 6411,
      "Cidade": 6412,
      "FL": 6413,
      "Gabri": 6414,
      "IM": 6415,
      "KJ": 6416,
      "KP": 6417,
      "Mac": 6418,
      "Pia": 6419,
      "Que": 6420,
      "SG": 6421,
      "VB": 6422,
      "WGB": 6423,
      "XQ": 6424,
      "YZ": 6425,
      "ZP": 6426,
      "aan": 6427,
      "aca": 6428,
      "fis": 6429,
      "fdoe": 6430,
      "fabeto": 6431,
      "hur": 6432,
      "jÃ¸": 6433,
      "pus": 6434,
      "rdoe": 6435,
      "zul": 6436,
      "Ø²": 6437,
      "anni": 6438,
      "angue": 6439,
      "esh": 6440,
      "aler": 6441,
      "toff": 6442,
      "rase": 6443,
      "rada": 6444,
      "ilder": 6445,
      "lion": 6446,
      "Ġbil": 6447,
      "Ġpu": 6448,
      "cious": 6449,
      "cipal": 6450,
      "user": 6451,
      "dian": 6452,
      "Ġago": 6453,
      "geme": 6454,
      "amigo": 6455,
      "hek": 6456,
      "Ġdro": 6457,
      "Ġdans": 6458,
      "ĠMart": 6459,
      "appear": 6460,
      "voiture": 6461,
      "paras": 6462,
      "ĠFern": 6463,
      "box": 6464,
      "sage": 6465,
      "train": 6466,
      "148": 6467,
      "cuse": 6468,
      "266": 6469,
      "278": 6470,
      "373": 6471,
      "905": 6472,
      "967": 6473,
      "557": 6474,
      "462": 6475,
      "708": 6476,
      "Ġcha": 6477,
      "473": 6478,
      "Ġconcer": 6479,
      "áĦĢáħ§áĨ·áĦī": 6480,
      "ctions": 6481,
      "rond": 6482,
      "lande": 6483,
      "451": 6484,
      "áĦİáħµáĨ«": 6485,
      "ased": 6486,
      "Ġfoot": 6487,
      "095": 6488,
      "Luci": 6489,
      "ijk": 6490,
      "presa": 6491,
      "AMIL": 6492,
      "Ġrun": 6493,
      "áĦĨáħ®áĨ«áĦĮáħ¡": 6494,
      "lingu": 6495,
      "Ġcried": 6496,
      "Ġopened": 6497,
      "áĦĲáħ³áĨ¨áĦĩáħ§áĨ¯": 6498,
      "school": 6499,
      "@outlook": 6500,
      "áĦĢáħ§áĨ·áĦīáħ©áĨ«": 6501,
      "-lo": 6502,
      ".B": 6503,
      "119": 6504,
      "115": 6505,
      "230": 6506,
      "335": 6507,
      "317": 6508,
      "337": 6509,
      "427": 6510,
      "617": 6511,
      "658": 6512,
      "696": 6513,
      "606": 6514,
      "720": 6515,
      "827": 6516,
      "841": 6517,
      "913": 6518,
      "923": 6519,
      "AZ": 6520,
      "BZ": 6521,
      "EY": 6522,
      "JG": 6523,
      "JQ": 6524,
      "Lib": 6525,
      "MR": 6526,
      "Mus": 6527,
      "Mad": 6528,
      "Mich": 6529,
      "Pr": 6530,
      "Port": 6531,
      "Ren": 6532,
      "SC": 6533,
      "Sing": 6534,
      "Sub": 6535,
      "TOR": 6536,
      "Wasser": 6537,
      "YL": 6538,
      "ael": 6539,
      "from": 6540,
      "fris": 6541,
      "iu": 6542,
      "jja": 6543,
      "just": 6544,
      "mbe": 6545,
      "mine": 6546,
      "mate": 6547,
      "muse": 6548,
      "oth": 6549,
      "psi": 6550,
      "sc": 6551,
      "sli": 6552,
      "ske": 6553,
      "sdoe": 6554,
      "sleep": 6555,
      "Â°": 6556,
      "ÑĮ": 6557,
      "influ": 6558,
      "esch": 6559,
      "eside": 6560,
      "alter": 6561,
      "altern": 6562,
      "reto": 6563,
      "attra": 6564,
      "letras": 6565,
      "tek": 6566,
      "tech": 6567,
      "tembro": 6568,
      "Ġsob": 6569,
      "Ġfish": 6570,
      "Ġnach": 6571,
      "osen": 6572,
      "áĨ¯áĦĥáħµ": 6573,
      "à¸ŀ": 6574,
      "umble": 6575,
      "Ġdra": 6576,
      "allen": 6577,
      "nothing": 6578,
      "ĠPRO": 6579,
      "vid": 6580,
      "boia": 6581,
      "194": 6582,
      "Ìģrito": 6583,
      "308": 6584,
      "ANC": 6585,
      "463": 6586,
      "988": 6587,
      "ÌĪrper": 6588,
      "denti": 6589,
      "766": 6590,
      "ÌĤnero": 6591,
      "591": 6592,
      "Ìģtima": 6593,
      "Ġgoing": 6594,
      "753": 6595,
      "Argent": 6596,
      "áĦĭáħ©áĦĴáħ¢": 6597,
      "áĦĭáħ²áĦĨáħ§áĨ¼": 6598,
      "Ġneed": 6599,
      "matemati": 6600,
      "092": 6601,
      "present": 6602,
      "strÃ¦de": 6603,
      "áĦīáħ¥áĨ¨": 6604,
      "áĦĢáħ§áĨ¯áĦīáħ¥áĨ¨": 6605,
      "ilologia": 6606,
      "áĦĩáħµáĨ¯áĦĥáħµ": 6607,
      "mirar": 6608,
      "conseguir": 6609,
      "áĦĩáħ¡áĨ«áĦĩáħ©áĨ¨": 6610,
      "Ġobject": 6611,
      "ĠGeba": 6612,
      "Ġfield": 6613,
      "Studio": 6614,
      "Cascavel": 6615,
      "Trans": 6616,
      "Mathematik": 6617,
      "áĦĩáħµáĨ¯áĦĥáħµáĨ¼": 6618,
      "'clock": 6619,
      "014": 6620,
      "057": 6621,
      "110": 6622,
      "328": 6623,
      "338": 6624,
      "410": 6625,
      "528": 6626,
      "756": 6627,
      "832": 6628,
      "860": 6629,
      "@live": 6630,
      "Bon": 6631,
      "Bro": 6632,
      "GRA": 6633,
      "IAS": 6634,
      "JD": 6635,
      "KF": 6636,
      "Mai": 6637,
      "NT": 6638,
      "Ph": 6639,
      "VGB": 6640,
      "bara": 6641,
      "cate": 6642,
      "emo": 6643,
      "gRu": 6644,
      "nout": 6645,
      "national": 6646,
      "pous": 6647,
      "rus": 6648,
      "vos": 6649,
      "zero": 6650,
      "Ø«": 6651,
      "Ùī": 6652,
      "arda": 6653,
      "orien": 6654,
      "orange": 6655,
      "isen": 6656,
      "rede": 6657,
      "seg": 6658,
      "Ġthird": 6659,
      "asy": 6660,
      "Ġsight": 6661,
      "Ġhome": 6662,
      "tire": 6663,
      "timm": 6664,
      "dado": 6665,
      "Ġbrasile": 6666,
      "Ġfront": 6667,
      "cachorro": 6668,
      "cident": 6669,
      "cicleta": 6670,
      "ury": 6671,
      "Ġmundo": 6672,
      "ieta": 6673,
      "igno": 6674,
      "edan": 6675,
      "aby": 6676,
      "acter": 6677,
      "before": 6678,
      "audio": 6679,
      "ÌĮek": 6680,
      "ĠCam": 6681,
      "icas": 6682,
      "icro": 6683,
      "ĠPereira": 6684,
      "conne": 6685,
      "viel": 6686,
      "ÌĢve": 6687,
      "005": 6688,
      "sobr": 6689,
      "bron": 6690,
      "Ġlanguage": 6691,
      "iche": 6692,
      "page": 6693,
      "134": 6694,
      "idar": 6695,
      "ident": 6696,
      "anaus": 6697,
      "áĦĭáħ¥áĦĭáħ®": 6698,
      "146": 6699,
      "lui": 6700,
      "352": 6701,
      "296": 6702,
      "297": 6703,
      "mercado": 6704,
      "385": 6705,
      "581": 6706,
      "586": 6707,
      "483": 6708,
      "464": 6709,
      "taruga": 6710,
      "501": 6711,
      "joy": 6712,
      "minu": 6713,
      "564": 6714,
      "569": 6715,
      "ALL": 6716,
      "Inte": 6717,
      "993": 6718,
      "ÙĬØ©": 6719,
      "682": 6720,
      "686": 6721,
      "Ġpeace": 6722,
      "isches": 6723,
      "Ø§Øª": 6724,
      "893": 6725,
      "Ġaround": 6726,
      "temper": 6727,
      "frustr": 6728,
      "cisco": 6729,
      "Augen": 6730,
      "normal": 6731,
      "SignWriting": 6732,
      "histoire": 6733,
      "AvS": 6734,
      "áĦĭáħ£áĨ¼áĦīáħµáĨ·": 6735,
      "áĦĭáħ²áĦĨáħ§áĨ¼áĦĴáħ¡áĦĥáħ¡": 6736,
      "áĦĭáħ¥áĦĭáħ®áĨ¯áĦħáħµáĦĥáħ¡": 6737,
      "'E": 6738,
      "'a": 6739,
      "-Q": 6740,
      "-out": 6741,
      "025": 6742,
      "023": 6743,
      "096": 6744,
      "044": 6745,
      "124": 6746,
      "520": 6747,
      "636": 6748,
      "657": 6749,
      "699": 6750,
      "723": 6751,
      "835": 6752,
      "BY": 6753,
      "Canada": 6754,
      "Fer": 6755,
      "How": 6756,
      "Kap": 6757,
      "Mel": 6758,
      "Nome": 6759,
      "Ur": 6760,
      "VD": 6761,
      "bul": 6762,
      "bung": 6763,
      "dess": 6764,
      "iqu": 6765,
      "jam": 6766,
      "koe": 6767,
      "mt": 6768,
      "mia": 6769,
      "mess": 6770,
      "nue": 6771,
      "pper": 6772,
      "pend": 6773,
      "ppt": 6774,
      "send": 6775,
      "saber": 6776,
      "tle": 6777,
      "vgl": 6778,
      "xer": 6779,
      "~áĦĥáħ¢": 6780,
      "onto": 6781,
      "ondo": 6782,
      "Ìģto": 6783,
      "Ìģco": 6784,
      "Ìģgu": 6785,
      "real": 6786,
      "atth": 6787,
      "atte": 6788,
      "atom": 6789,
      "sech": 6790,
      "secu": 6791,
      "meira": 6792,
      "itat": 6793,
      "Ġwatch": 6794,
      "unis": 6795,
      "unir": 6796,
      "andes": 6797,
      "ingo": 6798,
      "Ġblessed": 6799,
      "Ġama": 6800,
      "Ġnin": 6801,
      "Ġnumber": 6802,
      "hod": 6803,
      "Ġmir": 6804,
      "geho": 6805,
      "ĠSimon": 6806,
      "ĠJaico": 6807,
      "Ġinte": 6808,
      "pequ": 6809,
      "ulter": 6810,
      "heim": 6811,
      "áĦħáħ®áĦĥáħ¡": 6812,
      "pois": 6813,
      "ĠLanguage": 6814,
      "Ġbegan": 6815,
      "ĠBur": 6816,
      "áĦĭáħµáĨ¨": 6817,
      "áĦĭáħµáĦĢáħµáĦĥáħ¡": 6818,
      "board": 6819,
      "133": 6820,
      "trag": 6821,
      "305": 6822,
      "aves": 6823,
      "ANG": 6824,
      "fahren": 6825,
      "Ìģrus": 6826,
      "INHA": 6827,
      "981": 6828,
      "ÌĪren": 6829,
      "566": 6830,
      "core": 6831,
      "760": 6832,
      "399": 6833,
      "661": 6834,
      "MAZ": 6835,
      "333": 6836,
      "889": 6837,
      "Ġjus": 6838,
      "euro": 6839,
      "Ìģticas": 6840,
      "skj": 6841,
      "roupa": 6842,
      "entos": 6843,
      "697": 6844,
      "453": 6845,
      "culpa": 6846,
      "borough": 6847,
      "áĦĢáħ³áĨ¯": 6848,
      "862": 6849,
      "ternal": 6850,
      "personnage": 6851,
      "cross": 6852,
      "áĦĨáħµáĦħáħ®áĦĥáħ¡": 6853,
      "ÌĪcken": 6854,
      "Teil": 6855,
      "dress": 6856,
      "Ġsomeone": 6857,
      "sixty": 6858,
      "wegung": 6859,
      "junto": 6860,
      "Letras": 6861,
      "Food": 6862,
      "áĦĦáħ¡áĨ·": 6863,
      "Torsten": 6864,
      "photo": 6865,
      "áĦĴáħµáĨ·áĦĥáħ³áĨ¯áĦĥáħ¡": 6866,
      "hearing": 6867,
      "Ġdeparted": 6868,
      "fysikk": 6869,
      "~áĦĥáħ¢áĦħáħ©": 6870,
      "'est": 6871,
      "-ti": 6872,
      "-tre": 6873,
      "037": 6874,
      "075": 6875,
      "118": 6876,
      "114": 6877,
      "211": 6878,
      "318": 6879,
      "416": 6880,
      "455": 6881,
      "459": 6882,
      "516": 6883,
      "532": 6884,
      "629": 6885,
      "628": 6886,
      "645": 6887,
      "672": 6888,
      "873": 6889,
      "956": 6890,
      "Ben": 6891,
      "GP": 6892,
      "OB": 6893,
      "Pos": 6894,
      "Rot": 6895,
      "SAL": 6896,
      "Ti": 6897,
      "TES": 6898,
      "bid": 6899,
      "eye": 6900,
      "fie": 6901,
      "fere": 6902,
      "fone": 6903,
      "gum": 6904,
      "gran": 6905,
      "hed": 6906,
      "kdoe": 6907,
      "kind": 6908,
      "kalt": 6909,
      "luss": 6910,
      "ope": 6911,
      "vr": 6912,
      "vise": 6913,
      "Ġven": 6914,
      "ering": 6915,
      "ÌģP": 6916,
      "Ìģda": 6917,
      "rosa": 6918,
      "raum": 6919,
      "radio": 6920,
      "door": 6921,
      "Ġhusband": 6922,
      "cost": 6923,
      "elen": 6924,
      "lab": 6925,
      "Ġafra": 6926,
      "quite": 6927,
      "Ġmie": 6928,
      "ceed": 6929,
      "ÌĪu": 6930,
      "iment": 6931,
      "ĠJon": 6932,
      "ĠAL": 6933,
      "ĠDA": 6934,
      "abandon": 6935,
      "Ġdist": 6936,
      "bear": 6937,
      "triste": 6938,
      "ÌĮko": 6939,
      "perio": 6940,
      "forty": 6941,
      "ĠHam": 6942,
      "ordan": 6943,
      "Ġkind": 6944,
      "izza": 6945,
      "257": 6946,
      "240": 6947,
      "238": 6948,
      "fice": 6949,
      "áĦĮáħ¥áĨ¸áĦĥáħ¡": 6950,
      "484": 6951,
      "Ġwhose": 6952,
      "ller": 6953,
      "550": 6954,
      "udante": 6955,
      "986": 6956,
      "grat": 6957,
      "788": 6958,
      "763": 6959,
      "Ġcabec": 6960,
      "trois": 6961,
      "577": 6962,
      "Schw": 6963,
      "áĦĴáħ´": 6964,
      "volver": 6965,
      "Ġperish": 6966,
      "772": 6967,
      "867": 6968,
      "Ġesquerda": 6969,
      "Ġimmediately": 6970,
      "laudet": 6971,
      "Ġvez": 6972,
      "Ġgeometria": 6973,
      "atriz": 6974,
      "áĦĩáħ§áĨ«áĦĴáħ¡áĦĥáħ¡": 6975,
      "Ġkingdom": 6976,
      "petit": 6977,
      "ĠUFC": 6978,
      "ĠâĢĵ": 6979,
      "Ġstrong": 6980,
      "ĠUniversidade": 6981,
      "ĠBox": 6982,
      "áĦĦáħ¡áĦħáħ©": 6983,
      "erreira": 6984,
      "áĦĢáħµáĦīáħ®áĨ¯": 6985,
      "áĦĭáħ§áĨ¯áĦīáħµáĨ·": 6986,
      "Ġafraid": 6987,
      "-temps": 6988,
      "227": 6989,
      "324": 6990,
      "346": 6991,
      "470": 6992,
      "457": 6993,
      "412": 6994,
      "548": 6995,
      "546": 6996,
      "531": 6997,
      "713": 6998,
      "798": 6999,
      "744": 7000,
      "818": 7001,
      "869": 7002,
      "920": 7003,
      "978": 7004,
      "Bet": 7005,
      "Bib": 7006,
      "Centro": 7007,
      "IV": 7008,
      "Imp": 7009,
      "MON": 7010,
      "Ner": 7011,
      "Ob": 7012,
      "PP": 7013,
      "Pass": 7014,
      "PLA": 7015,
      "Rua": 7016,
      "Str": 7017,
      "UE": 7018,
      "URA": 7019,
      "Vial": 7020,
      "Vieja": 7021,
      "Video": 7022,
      "ZK": 7023,
      "aer": 7024,
      "bdoe": 7025,
      "fos": 7026,
      "final": 7027,
      "kness": 7028,
      "mme": 7029,
      "ov": 7030,
      "ota": 7031,
      "rent": 7032,
      "rato": 7033,
      "uelle": 7034,
      "vdoe": 7035,
      "wash": 7036,
      "error": 7037,
      "inen": 7038,
      "inne": 7039,
      "Ìģlu": 7040,
      "atten": 7041,
      "chado": 7042,
      "asjon": 7043,
      "itz": 7044,
      "Ġhaving": 7045,
      "ries": 7046,
      "rica": 7047,
      "limp": 7048,
      "Ìĥar": 7049,
      "dix": 7050,
      "vez": 7051,
      "urante": 7052,
      "Ġmi": 7053,
      "Ġmil": 7054,
      "igkeit": 7055,
      "amen": 7056,
      "Ì§on": 7057,
      "Ġtouch": 7058,
      "ĠMel": 7059,
      "auen": 7060,
      "ause": 7061,
      "ÌĮc": 7062,
      "ĠCe": 7063,
      "ĠCentro": 7064,
      "icina": 7065,
      "ĠLake": 7066,
      "ĠPiso": 7067,
      "sibil": 7068,
      "boca": 7069,
      "Ġlast": 7070,
      "icho": 7071,
      "izont": 7072,
      "291": 7073,
      "276": 7074,
      "279": 7075,
      "ANTE": 7076,
      "174": 7077,
      "407": 7078,
      "áĦĮáħµáĨ«áĦĴáħ¡áĦĥáħ¡": 7079,
      "áĦĮáħµáĦĨáħ©áĨºáĦĴáħ¡áĦĥáħ¡": 7080,
      "552": 7081,
      "Ìģrprete": 7082,
      "466": 7083,
      "509": 7084,
      "ASL": 7085,
      "762": 7086,
      "767": 7087,
      "ĠKe": 7088,
      "086": 7089,
      "Ġupright": 7090,
      "ĠOne": 7091,
      "obri": 7092,
      "CHE": 7093,
      "ÌĪng": 7094,
      "684": 7095,
      "609": 7096,
      "691": 7097,
      "692": 7098,
      "ances": 7099,
      "áĦĭáħ©áĦĴáħµ": 7100,
      "áĦĭáħ©áĦħáħ¢": 7101,
      "áĦĭáħ²áĦĴáħ¢áĨ¼": 7102,
      "Ġneigh": 7103,
      "Ø§Ø³": 7104,
      "great": 7105,
      "Professora": 7106,
      "Ġfois": 7107,
      "094": 7108,
      "abeth": 7109,
      "áĦĭáħŃáĦĭáħ£áĨ¨": 7110,
      "áĦīáħ©áĦĮáħµáĨ«áĦĴáħ¡áĦĥáħ¡": 7111,
      "polit": 7112,
      "Ìģnico": 7113,
      "Ġcounsel": 7114,
      "ĠNoah": 7115,
      "MENTO": 7116,
      "Ġsynago": 7117,
      "conhecer": 7118,
      "esperar": 7119,
      "Ġhappened": 7120,
      "áĦĢáħ³áĦĨáħ¡áĨ«áĦĥáħ®áĦĥáħ¡": 7121,
      "áĦĭáħ©áĦĴáħµáĦħáħ§": 7122,
      "-kommen": 7123,
      "079": 7124,
      "235": 7125,
      "425": 7126,
      "434": 7127,
      "433": 7128,
      "537": 7129,
      "625": 7130,
      "647": 7131,
      "738": 7132,
      "736": 7133,
      "799": 7134,
      "857": 7135,
      "874": 7136,
      "845": 7137,
      "@google": 7138,
      "ADA": 7139,
      "Calle": 7140,
      "ID": 7141,
      "Kra": 7142,
      "MC": 7143,
      "Pres": 7144,
      "SF": 7145,
      "TIT": 7146,
      "ZF": 7147,
      "bud": 7148,
      "god": 7149,
      "hir": 7150,
      "house": 7151,
      "kl": 7152,
      "kal": 7153,
      "kation": 7154,
      "liter": 7155,
      "ns": 7156,
      "nac": 7157,
      "ox": 7158,
      "pil": 7159,
      "wise": 7160,
      "write": 7161,
      "yel": 7162,
      "zdoe": 7163,
      "×ł": 7164,
      "inti": 7165,
      "ined": 7166,
      "Ìģna": 7167,
      "alar": 7168,
      "alous": 7169,
      "todos": 7170,
      "race": 7171,
      "rafa": 7172,
      "ilia": 7173,
      "Ġshow": 7174,
      "cover": 7175,
      "tij": 7176,
      "make": 7177,
      "lavar": 7178,
      "Ġfer": 7179,
      "Ġfaire": 7180,
      "usta": 7181,
      "divor": 7182,
      "hose": 7183,
      "quie": 7184,
      "áħ©áĦĩáħ¡": 7185,
      "áĦĮáħ¢": 7186,
      "comun": 7187,
      "amente": 7188,
      "Ì§as": 7189,
      "Ġcare": 7190,
      "ules": 7191,
      "odit": 7192,
      "ruz": 7193,
      "ĠGrupo": 7194,
      "008": 7195,
      "partir": 7196,
      "schein": 7197,
      "Ġsecre": 7198,
      "ĠHow": 7199,
      "Ġread": 7200,
      "dure": 7201,
      "atica": 7202,
      "262": 7203,
      "170": 7204,
      "251": 7205,
      "402": 7206,
      "485": 7207,
      "Ġits": 7208,
      "761": 7209,
      "áĦĮáħ¡áĦħáħ¡áĦĥáħ¡": 7210,
      "474": 7211,
      "Ġconf": 7212,
      "áĦĩáħ®áĦĮáħ©áĨ¨": 7213,
      "067": 7214,
      "541": 7215,
      "Ġrich": 7216,
      "foot": 7217,
      "443": 7218,
      "áĦĲáħ©áĦĩáħ¡": 7219,
      "internet": 7220,
      "nub": 7221,
      "áĦĮáħ¥áĨ«áĦĲáħ©áĨ¼": 7222,
      "áĦĭáħ©áĦĲáħ©áĦĩáħ¡": 7223,
      "cric": 7224,
      "892": 7225,
      "áĦİáħ®áĦĢáħ®áĨ¼": 7226,
      "ijken": 7227,
      "Ġsurdos": 7228,
      "draw": 7229,
      "cycle": 7230,
      "áĦģáħ³áĩĢ": 7231,
      "áĦĩáħ¢áĦĭáħ®áĦĥáħ¡": 7232,
      "fession": 7233,
      "aixa": 7234,
      "Grafema": 7235,
      "tief": 7236,
      "Ġfoolish": 7237,
      "Ä§ol": 7238,
      "guesa": 7239,
      "Ġjudge": 7240,
      "nineteen": 7241,
      "Ìģxico": 7242,
      "Texto": 7243,
      "Pasaje": 7244,
      "Ġindeed": 7245,
      "soever": 7246,
      "magnet": 7247,
      "@googlemail": 7248,
      "áĦĭáħ©áĦĲáħ©áĦĩáħ¡áĦĭáħµ": 7249,
      "-X": 7250,
      "-en": 7251,
      "-right": 7252,
      "017": 7253,
      "349": 7254,
      "519": 7255,
      "547": 7256,
      "714": 7257,
      "712": 7258,
      "Ara": 7259,
      "BL": 7260,
      "DF": 7261,
      "Edu": 7262,
      "Face": 7263,
      "Ga": 7264,
      "MT": 7265,
      "UG": 7266,
      "VH": 7267,
      "VX": 7268,
      "bun": 7269,
      "bai": 7270,
      "best": 7271,
      "eff": 7272,
      "free": 7273,
      "filled": 7274,
      "gno": 7275,
      "hind": 7276,
      "ndoe": 7277,
      "slo": 7278,
      "sper": 7279,
      "woman": 7280,
      "Ø°": 7281,
      "thank": 7282,
      "once": 7283,
      "espi": 7284,
      "escrita": 7285,
      "Ìģ)Ċ": 7286,
      "rea": 7287,
      "ought": 7288,
      "elt": 7289,
      "riage": 7290,
      "mada": 7291,
      "machen": 7292,
      "lav": 7293,
      "Ġfam": 7294,
      "Ġpou": 7295,
      "dice": 7296,
      "different": 7297,
      "Verbi": 7298,
      "ÌĪche": 7299,
      "áħ®áĦĴáħ¡áĦĥáħ¡": 7300,
      "computer": 7301,
      "à¸Ī": 7302,
      "Ġincrease": 7303,
      "abi": 7304,
      "Ġcould": 7305,
      "áĦĩáħ¦": 7306,
      "umer": 7307,
      "áĨ¨áĦĴáħ§": 7308,
      "accom": 7309,
      "haven": 7310,
      "áĦħáħ®áĦĴáħ¡áĦĥáħ¡": 7311,
      "ĠCa": 7312,
      "ĠCh": 7313,
      "poz": 7314,
      "ĠLL": 7315,
      "conversar": 7316,
      "Ġbei": 7317,
      "appla": 7318,
      "ĠGar": 7319,
      "estrado": 7320,
      "sole": 7321,
      "antas": 7322,
      "prar": 7323,
      "bres": 7324,
      "bril": 7325,
      "Ġlying": 7326,
      "ĠEr": 7327,
      "carne": 7328,
      "Ġremember": 7329,
      "Ġhisto": 7330,
      "358": 7331,
      "grac": 7332,
      "178": 7333,
      "suc": 7334,
      "zeichen": 7335,
      "fahr": 7336,
      "áĦĮáħµáĦħáħ®áĦĴáħ¡áĦĥáħ¡": 7337,
      "487": 7338,
      "347": 7339,
      "561": 7340,
      "pente": 7341,
      "789": 7342,
      "ÌĤndia": 7343,
      "áĦĨáħ®áĨ¨áĦĴáħ§": 7344,
      "undbild": 7345,
      "anges": 7346,
      "543": 7347,
      "Anti": 7348,
      "791": 7349,
      "Aluno": 7350,
      "607": 7351,
      "BET": 7352,
      "brother": 7353,
      "inhos": 7354,
      "oficina": 7355,
      "hysi": 7356,
      "belie": 7357,
      "mittel": 7358,
      "Ġpreach": 7359,
      "Ìģblica": 7360,
      "Elvis": 7361,
      "ziehen": 7362,
      "Ġplus": 7363,
      "dolorem": 7364,
      "áĦĩáħ¡áĨ¼áĦĩáħ¥áĨ¸": 7365,
      "-noite": 7366,
      "archite": 7367,
      "ÐµÐ": 7368,
      "Ġservants": 7369,
      "Ìģximo": 7370,
      "ĠLIBRAS": 7371,
      "Ġstraight": 7372,
      "XogÄ§ol": 7373,
      "hospital": 7374,
      "áĦĮáħ¢áĦĨáħµ": 7375,
      "áĦĨáħ®áĨ¨áĦĴáħ§áĦĥáħ®áĦĥáħ¡": 7376,
      ")-": 7377,
      "++Ċ": 7378,
      "-Y": 7379,
      "-for": 7380,
      "045": 7381,
      "128": 7382,
      "436": 7383,
      "478": 7384,
      "523": 7385,
      "749": 7386,
      "910": 7387,
      "915": 7388,
      "Brasil": 7389,
      "Daniel": 7390,
      "Flu": 7391,
      "Feliz": 7392,
      "Gi": 7393,
      "Igreja": 7394,
      "LC": 7395,
      "Nueva": 7396,
      "TQ": 7397,
      "Tr": 7398,
      "TCH": 7399,
      "UX": 7400,
      "UZ": 7401,
      "bye": 7402,
      "cry": 7403,
      "fante": 7404,
      "finger": 7405,
      "glu": 7406,
      "hdoe": 7407,
      "ipe": 7408,
      "kos": 7409,
      "ktig": 7410,
      "mim": 7411,
      "more": 7412,
      "miss": 7413,
      "nai": 7414,
      "sab": 7415,
      "sick": 7416,
      "wich": 7417,
      "wij": 7418,
      "escu": 7419,
      "Ìģmin": 7420,
      "ÌģTI": 7421,
      "orge": 7422,
      "rech": 7423,
      "rol": 7424,
      "Ġsup": 7425,
      "Ġhold": 7426,
      "elly": 7427,
      "Ġwrath": 7428,
      "tiful": 7429,
      "lac": 7430,
      "Ġpr": 7431,
      "ĠSt": 7432,
      "olho": 7433,
      "áĨ¯áĦħáħµ": 7434,
      "áĨ¯áĦħáħ¡áĦĥáħ¡": 7435,
      "eten": 7436,
      "ÌĤÌĢ": 7437,
      "Ġcard": 7438,
      "utt": 7439,
      "utton": 7440,
      "add": 7441,
      "ads": 7442,
      "action": 7443,
      "áĦĴáħ¡áĦĤáħ¡": 7444,
      "Ġdestro": 7445,
      "beber": 7446,
      "cons": 7447,
      "ĠThat": 7448,
      "rupt": 7449,
      "ĠGomes": 7450,
      "ÌĢne": 7451,
      "Ġnova": 7452,
      "prender": 7453,
      "boire": 7454,
      "Ġsel": 7455,
      "illon": 7456,
      "áĦĢáħ¡áĨ¼áĦĴáħ¡áĦĥáħ¡": 7457,
      "ĠEast": 7458,
      "cket": 7459,
      "expul": 7460,
      "162": 7461,
      "Ġliving": 7462,
      "atique": 7463,
      "áĦĨáħ¡áĨ¯": 7464,
      "range": 7465,
      "250": 7466,
      "fifty": 7467,
      "388": 7468,
      "405": 7469,
      "374": 7470,
      "taria": 7471,
      "Ġvol": 7472,
      "minha": 7473,
      "395": 7474,
      "stehen": 7475,
      "594": 7476,
      "Ġproduzido": 7477,
      "posta": 7478,
      "áĦĩáħ®áĦĴáħ¡": 7479,
      "544": 7480,
      "tyve": 7481,
      "ĠUn": 7482,
      "epto": 7483,
      "Ġattention": 7484,
      "802": 7485,
      "Ìģpolis": 7486,
      "borg": 7487,
      "áĦĮáħ¥áĨ«áĦĨáħ®áĨ«": 7488,
      "crianc": 7489,
      "865": 7490,
      "Ø§Ø¹": 7491,
      "áĦĢáħ©áĦĨáħ©": 7492,
      "Meta": 7493,
      "áĦĭáħ®áĦĳáħ§áĨ«": 7494,
      "syn": 7495,
      "large": 7496,
      "áĦİáħ¡áĨ·": 7497,
      "passion": 7498,
      "donner": 7499,
      "Ġporque": 7500,
      "cordar": 7501,
      "attle": 7502,
      "unicipal": 7503,
      "Ġfools": 7504,
      "understand": 7505,
      "Ġfuq": 7506,
      "áĦīáħµáĨ¶áĦĮáħ³áĨ¼": 7507,
      "girl": 7508,
      "ÌĬndalfabet": 7509,
      "educac": 7510,
      "molesti": 7511,
      "Ġmercy": 7512,
      "áĦĤáħ¡áĨ·áĦĥáħ©": 7513,
      "reiben": 7514,
      "Gewitter": 7515,
      "zusammen": 7516,
      "Ġmidst": 7517,
      "ĠRodrigues": 7518,
      "codile": 7519,
      "áĦĤáħ©áĨ¯áĦħáħ¡áĦĥáħ¡": 7520,
      "áĦīáħµáĨ¶áĦĮáħ³áĨ¼áĦĤáħ¡áĦĥáħ¡": 7521,
      "-der": 7522,
      "022": 7523,
      "217": 7524,
      "746": 7525,
      "896": 7526,
      "979": 7527,
      "AY": 7528,
      "Da": 7529,
      "DOR": 7530,
      "Fru": 7531,
      "GF": 7532,
      "NR": 7533,
      "NU": 7534,
      "Name": 7535,
      "Puddle": 7536,
      "SN": 7537,
      "Sara": 7538,
      "UU": 7539,
      "agu": 7540,
      "cano": 7541,
      "dans": 7542,
      "edoe": 7543,
      "fing": 7544,
      "hit": 7545,
      "yen": 7546,
      "ydia": 7547,
      "zinho": 7548,
      "Ãĺ": 7549,
      "Ìģcou": 7550,
      "ispiel": 7551,
      "sek": 7552,
      "chim": 7553,
      "cham": 7554,
      "chron": 7555,
      "deth": 7556,
      "rose": 7557,
      "ilate": 7558,
      "tical": 7559,
      "tains": 7560,
      "lieren": 7561,
      "livro": 7562,
      "Ġbas": 7563,
      "Ġoder": 7564,
      "ciel": 7565,
      "Ìĥada": 7566,
      "hoje": 7567,
      "iras": 7568,
      "ÌĪse": 7569,
      "Ġdepart": 7570,
      "gehen": 7571,
      "áĦĴáħ©": 7572,
      "áħ®áĨ¼": 7573,
      "áĦīáħ¬": 7574,
      "ĠDepto": 7575,
      "à¸ĭ": 7576,
      "ulher": 7577,
      "neu": 7578,
      "aden": 7579,
      "áĨ¨áĦĩáħ®áĨ«": 7580,
      "Ġgar": 7581,
      "Ġgone": 7582,
      "Ġgold": 7583,
      "áĦĭáħ¢": 7584,
      "noon": 7585,
      "ĠCON": 7586,
      "ĠPla": 7587,
      "ghet": 7588,
      "social": 7589,
      "feito": 7590,
      "ĠEdif": 7591,
      "ĠHa": 7592,
      "ĠHis": 7593,
      "áĦĤáħ®áĨ«": 7594,
      "tube": 7595,
      "ffre": 7596,
      "carta": 7597,
      "295": 7598,
      "marcher": 7599,
      "iena": 7600,
      "spru": 7601,
      "spiel": 7602,
      "INHO": 7603,
      "465": 7604,
      "ELO": 7605,
      "joa": 7606,
      "mont": 7607,
      "786": 7608,
      "768": 7609,
      "áĦĢáħµáĦĭáħ¥áĨ¨": 7610,
      "ĠKar": 7611,
      "212": 7612,
      "Schu": 7613,
      "short": 7614,
      "ĠUhr": 7615,
      "Ġtable": 7616,
      "áĦĢáħ®áĦĥáħ®": 7617,
      "áĦĦáħ®áĨ¼": 7618,
      "language": 7619,
      "Ġnada": 7620,
      "Deutsch": 7621,
      "áĦħáħ¡áĨ¼": 7622,
      "wake": 7623,
      "lossa": 7624,
      "áĦĢáħ³áĦħáħµ": 7625,
      "Ø§ØŃ": 7626,
      "galinha": 7627,
      "halten": 7628,
      "áĦıáħ³": 7629,
      "ceived": 7630,
      "wards": 7631,
      "áĨ¯áĦĭáħ¡áĨ«": 7632,
      "áĦĩáħµáĦĮáħ¥áĨ¼áĦīáħ¡áĨ¼": 7633,
      "Rafa": 7634,
      "ĠEscrita": 7635,
      "Ġestabl": 7636,
      "consecte": 7637,
      "áĦīáħ©áĨ¨áĦĭáħµáĦĥáħ¡": 7638,
      "fallen": 7639,
      "Ìģmeros": 7640,
      "cadeia": 7641,
      "Ġcountry": 7642,
      "áĦĨáħ¡áĨ½áĦİáħ®áĦĥáħ¡": 7643,
      "áĦĭáħ¥áĨ¼áĦĦáħ®áĨ¼": 7644,
      "áĦĮáħ©áĨ«áĦĢáħ§áĨ¼": 7645,
      "FSLI": 7646,
      "áĦĨáħ¡áĨ¼áĦīáħµáĨ«": 7647,
      "áĦģáħ¢áĦĥáħ¡áĨ®áĦĥáħ¡": 7648,
      "Ġboulevard": 7649,
      "áĦĥáħ¥áĨ¨áĦĩáħ®áĨ«": 7650,
      "áĦĩáħ®áĨ¨áĦĥáħ©": 7651,
      "alifornia": 7652,
      "Ġnamesign": 7653,
      "áĦĩáħ¡áĨ¼áĦĩáħ¥áĨ¸áĦĭáħ¥áĨ¹áĦĥáħ¡": 7654,
      "áĦĢáħ®áĦĥáħ®áĦīáħ¬": 7655,
      "consectetur": 7656,
      "-ra": 7657,
      "-com": 7658,
      ".\"": 7659,
      "046": 7660,
      "127": 7661,
      "527": 7662,
      "610": 7663,
      "690": 7664,
      "842": 7665,
      "944": 7666,
      "Dom": 7667,
      "Him": 7668,
      "IQ": 7669,
      "KES": 7670,
      "LR": 7671,
      "Lin": 7672,
      "Met": 7673,
      "Plan": 7674,
      "RS": 7675,
      "Slo": 7676,
      "Tam": 7677,
      "VJ": 7678,
      "acade": 7679,
      "bate": 7680,
      "brir": 7681,
      "cz": 7682,
      "cant": 7683,
      "dal": 7684,
      "ec": 7685,
      "ei": 7686,
      "email": 7687,
      "fna": 7688,
      "fang": 7689,
      "gato": 7690,
      "iO": 7691,
      "idoe": 7692,
      "kam": 7693,
      "ovat": 7694,
      "wil": 7695,
      "ªáĦĥáħ®áĦĥáħ¡": 7696,
      "Ġqui": 7697,
      "encontrar": 7698,
      "anho": 7699,
      "ancia": 7700,
      "aria": 7701,
      "than": 7702,
      "escol": 7703,
      "Ìģia": 7704,
      "Ìģqui": 7705,
      "orig": 7706,
      "attention": 7707,
      "rai": 7708,
      "Ġsure": 7709,
      "Ġstor": 7710,
      "Ġsua": 7711,
      "Ġsigne": 7712,
      "áĦĥáħ¡áĨ¯áĦĥáħ¡": 7713,
      "riz": 7714,
      "timo": 7715,
      "maior": 7716,
      "lid": 7717,
      "lack": 7718,
      "Ġbur": 7719,
      "Ġom": 7720,
      "Ġfl": 7721,
      "cions": 7722,
      "hoto": 7723,
      "Verbs": 7724,
      "Ġmim": 7725,
      "tera": 7726,
      "amas": 7727,
      "ĠAmen": 7728,
      "ĠAmer": 7729,
      "ÌĤS": 7730,
      "à¸Ł": 7731,
      "pez": 7732,
      "heure": 7733,
      "áĨ¨áĦīáħ¡áĨ¼": 7734,
      "acti": 7735,
      "pop": 7736,
      "appar": 7737,
      "apres": 7738,
      "apple": 7739,
      "anten": 7740,
      "feija": 7741,
      "boat": 7742,
      "ills": 7743,
      "Ġlar": 7744,
      "Ġforward": 7745,
      "ĠEgypt": 7746,
      "104": 7747,
      "carte": 7748,
      "assist": 7749,
      "154": 7750,
      "due": 7751,
      "izado": 7752,
      "grafo": 7753,
      "271": 7754,
      "ignor": 7755,
      "173": 7756,
      "ples": 7757,
      "iene": 7758,
      "zeich": 7759,
      "389": 7760,
      "mano": 7761,
      "362": 7762,
      "363": 7763,
      "904": 7764,
      "461": 7765,
      "703": 7766,
      "ÌĪrde": 7767,
      "ahl": 7768,
      "wert": 7769,
      "Intern": 7770,
      "putador": 7771,
      "Ġtegn": 7772,
      "áĦĩáħ®áĦħáħ³áĦĥáħ¡": 7773,
      "060": 7774,
      "ott": 7775,
      "441": 7776,
      "680": 7777,
      "discipl": 7778,
      "ÙħØ³": 7779,
      "ints": 7780,
      "voll": 7781,
      "coup": 7782,
      "777": 7783,
      "lichkeit": 7784,
      "versity": 7785,
      "Ġtrue": 7786,
      "áĦĢáħ³áĦĥáħ¡": 7787,
      "áĦĢáħ¨áĦīáħ¡áĨ«": 7788,
      "cinco": 7789,
      "áĦĭáħ´áĦĭáħŃ": 7790,
      "áĦĭáħ³áĨ¯": 7791,
      "China": 7792,
      "Porto": 7793,
      "ÙģÙĬ": 7794,
      "stitution": 7795,
      "áĦĮáħ®áĨ¼áĦĩáħ©áĨ¨": 7796,
      "biologi": 7797,
      "janat": 7798,
      "indow": 7799,
      "pause": 7800,
      "ristina": 7801,
      "Ġhope": 7802,
      "Ġentered": 7803,
      "ĠSousa": 7804,
      "zwei": 7805,
      "áĦħáħ£áĨ¼": 7806,
      "áĦĴáħ¡áĨ¯áĦīáħ®áĦĭáħµáĨ»áĦĥáħ¡": 7807,
      "áĦĤáħªáĦĥáħ®áĦĥáħ¡": 7808,
      "áĦĮáħ¡áĨ·áĦĢáħ³áĦĥáħ¡": 7809,
      "biblio": 7810,
      "ĠSymbol": 7811,
      "nunca": 7812,
      "Haupt": 7813,
      "Ġconcerning": 7814,
      "matematikk": 7815,
      "Mathematikunterricht": 7816,
      "áĦİáħ¡áĨ·áĦĥáħ¡": 7817,
      "áĨ¨áĦīáħ¡áĨ¼áĦīáħµáĨ¯": 7818,
      "áĦĭáħ´áĦĭáħŃáĨ¨áĦīáħ¡áĨ¼áĦīáħµáĨ¯": 7819,
      "),": 7820,
      "-mo": 7821,
      "319": 7822,
      "417": 7823,
      "678": 7824,
      "642": 7825,
      "737": 7826,
      "970": 7827,
      "945": 7828,
      "971": 7829,
      "Ama": 7830,
      "BH": 7831,
      "BAR": 7832,
      "Ei": 7833,
      "Fr": 7834,
      "Fla": 7835,
      "Gro": 7836,
      "GIA": 7837,
      "Gold": 7838,
      "HB": 7839,
      "HV": 7840,
      "LF": 7841,
      "PEN": 7842,
      "Sie": 7843,
      "TD": 7844,
      "TGB": 7845,
      "USA": 7846,
      "VAL": 7847,
      "VOS": 7848,
      "Vene": 7849,
      "WE": 7850,
      "cation": 7851,
      "eg": 7852,
      "hall": 7853,
      "jas": 7854,
      "kn": 7855,
      "krat": 7856,
      "puddle": 7857,
      "sang": 7858,
      "vou": 7859,
      "wac": 7860,
      "wach": 7861,
      "enfer": 7862,
      "anta": 7863,
      "escola": 7864,
      "ority": 7865,
      "atie": 7866,
      "seguir": 7867,
      "ched": 7868,
      "teau": 7869,
      "tement": 7870,
      "tout": 7871,
      "memor": 7872,
      "Ġsend": 7873,
      "cook": 7874,
      "elvis": 7875,
      "anden": 7876,
      "andra": 7877,
      "takt": 7878,
      "law": 7879,
      "Ġbone": 7880,
      "Ġbiex": 7881,
      "Ġpru": 7882,
      "cija": 7883,
      "uso": 7884,
      "usar": 7885,
      "loir": 7886,
      "Ġav": 7887,
      "entral": 7888,
      "quim": 7889,
      "ceit": 7890,
      "Ġdem": 7891,
      "geba": 7892,
      "Ì§Ċ": 7893,
      "Ġeu": 7894,
      "Ġeach": 7895,
      "Ġeye": 7896,
      "absch": 7897,
      "uldade": 7898,
      "near": 7899,
      "Ġdin": 7900,
      "bebe": 7901,
      "ĠMAR": 7902,
      "ÌĮati": 7903,
      "ĠCristo": 7904,
      "ĠLA": 7905,
      "Ġbecome": 7906,
      "ĠBen": 7907,
      "appel": 7908,
      "rue": 7909,
      "ayer": 7910,
      "bral": 7911,
      "áĦĢáħ¡áĦĨáħ¡áĨ«": 7912,
      "áĦĢáħ¡áĦĤáħ³áĨ¼": 7913,
      "Ġuna": 7914,
      "cky": 7915,
      "204": 7916,
      "EST": 7917,
      "luz": 7918,
      "grave": 7919,
      "254": 7920,
      "Ìģration": 7921,
      "ELVIS": 7922,
      "Instituto": 7923,
      "itura": 7924,
      "Mari": 7925,
      "ÙĬÙĪ": 7926,
      "Ġriches": 7927,
      "Aluna": 7928,
      "745": 7929,
      "Ġgover": 7930,
      "Lehrer": 7931,
      "interpre": 7932,
      "áĦĥáħ©áĦĮáħ¡áĨ¼": 7933,
      "born": 7934,
      "valho": 7935,
      "áĦĮáħ®áĦīáħ¡": 7936,
      "ensino": 7937,
      "891": 7938,
      "half": 7939,
      "à¸£à¸°": 7940,
      "crocodile": 7941,
      "áĦĨáħµáĨ¸áĦĥáħ¡": 7942,
      "áĦĭáħµáĨ«áĦĮáħ¥áĨ¼": 7943,
      "setzen": 7944,
      "warm": 7945,
      "áĦİáħ®áĨ¼áĦĩáħ®áĨ«áĦĴáħ¡áĦĥáħ¡": 7946,
      "ception": 7947,
      "Caminho": 7948,
      "Ġeiner": 7949,
      "áĦģáħ©áĨ·": 7950,
      "punkt": 7951,
      "Voce": 7952,
      "associ": 7953,
      "ĠThou": 7954,
      "áĦĴáħ¡áĨ¸áĦĭáħ´": 7955,
      "analy": 7956,
      "science": 7957,
      "brincar": 7958,
      "áĦĳáħ³áĦħáħ¡áĨ¼": 7959,
      "Kopf": 7960,
      "áĦĢáħ¡áĦĨáħ¡áĨ«áĦĭáħµáĨ»áĦĥáħ¡": 7961,
      "áĦĳáħ³áĦħáħ¡áĨ¼áĦīáħ³": 7962,
      "-of": 7963,
      "439": 7964,
      "524": 7965,
      "576": 7966,
      "652": 7967,
      "825": 7968,
      "844": 7969,
      "917": 7970,
      "933": 7971,
      "AO": 7972,
      "Cro": 7973,
      "Del": 7974,
      "Far": 7975,
      "FIL": 7976,
      "Hy": 7977,
      "Io": 7978,
      "Ich": 7979,
      "KC": 7980,
      "Kat": 7981,
      "NH": 7982,
      "Pad": 7983,
      "POS": 7984,
      "PHA": 7985,
      "SK": 7986,
      "Sol": 7987,
      "Som": 7988,
      "Tom": 7989,
      "VES": 7990,
      "YM": 7991,
      "bber": 7992,
      "cente": 7993,
      "equi": 7994,
      "gne": 7995,
      "jÃ¸r": 7996,
      "kun": 7997,
      "kru": 7998,
      "mira": 7999
    },
    "merges": [
      "á Ħ",
      "á ħ",
      "e r",
      "e n",
      "a n",
      "a r",
      "i n",
      "t h",
      "o n",
      "e s",
      "á Ĩ",
      "Ì ģ",
      "o r",
      "áħ ¡",
      "a l",
      "i s",
      "r e",
      "a t",
      "s e",
      "c h",
      "Ġ th",
      "d e",
      "l e",
      "t e",
      "a s",
      "t o",
      "o u",
      "r o",
      "r a",
      "i l",
      "áĦ ĥ",
      "m e",
      "d o",
      "i t",
      "Ġ s",
      "Ġ h",
      "c o",
      "Ġth e",
      "e l",
      "Ġ w",
      "áĦĥ áħ¡",
      "u n",
      "r i",
      "an d",
      ". Ċ",
      "t i",
      "m a",
      "áĦ ĭ",
      "t a",
      "l i",
      "l a",
      "d a",
      "áħ µ",
      "in g",
      "Ġ b",
      "Ġ o",
      "Ġ f",
      "Ġ p",
      "c a",
      "c i",
      "u s",
      "Ì ĥ",
      "l o",
      "d i",
      "Ġ a",
      "Ġ n",
      "v e",
      "h o",
      "áĦ Ģ",
      "u r",
      "en t",
      "q u",
      "V er",
      "Ġ m",
      "i r",
      "áĨ «",
      "t er",
      "c e",
      "Ì Ī",
      "Ġ de",
      "Ìĥ o",
      "áħ ©",
      "Ver se",
      "Ġo f",
      "g e",
      "i m",
      "áĦ Ĵ",
      "v er",
      "s t",
      "áħ ®",
      "i e",
      "Ġ and",
      "áĨ ¼",
      "i a",
      "áĦ Į",
      "áħ ¥",
      "Ġ S",
      "i g",
      "co m",
      "o l",
      "e d",
      "áĦ ī",
      "a m",
      "Ġ J",
      "o s",
      "Ġ A",
      "Ì §",
      "Ġ D",
      "áĨ ¯",
      "e t",
      "Ġ is",
      "i on",
      "Ġ to",
      "Ì Ĥ",
      "Ìģ Ċ",
      "à ¸",
      "Ġ in",
      "Ġ e",
      "a b",
      "Ġ c",
      "u t",
      "p e",
      "u l",
      "n e",
      "h e",
      "a d",
      "áĦ ĩ",
      "u m",
      "o e",
      "áĨ ¨",
      "a c",
      "h a",
      "áĦ Ĩ",
      "áĦĴ áħ¡",
      "es s",
      "Ġ \\",
      "o m",
      "Ġ y",
      "Ġ g",
      "h n",
      "Ġ d",
      "b e",
      "al l",
      "Ì§ a",
      "o d",
      "Ġ M",
      "t r",
      "an e",
      "Ġh e",
      "áĦĭ áħ",
      "a i",
      "n o",
      "a u",
      "Ì Į",
      "er e",
      "áĦ ħ",
      "Ġ C",
      "p o",
      "i c",
      "a me",
      "k e",
      "o hn",
      "Ġ L",
      "m o",
      "Ġ P",
      "c on",
      "Ġ I",
      "v i",
      "Ġ do",
      "Ġb e",
      "Ġ B",
      "n d",
      "a p",
      "Ġ T",
      ") Ċ",
      "áĦĴáħ¡ áĦĥáħ¡",
      "r u",
      "áħ ³",
      "áħ ¢",
      "Ġ G",
      "ou r",
      "Ì Ģ",
      "v o",
      "e m",
      "g u",
      "Ġ (",
      "p er",
      "d er",
      ". com",
      "es t",
      "n a",
      "at ion",
      "0 0",
      "s i",
      "áħ §",
      "g h",
      "Ġn o",
      "ĠD oe",
      "f or",
      "s o",
      "qu e",
      "an t",
      "p ar",
      "áĦĭ áħµ",
      "g o",
      "g en",
      "Ġ t",
      "f e",
      "Ġ F",
      "p r",
      "b er",
      "n i",
      "v a",
      "on e",
      "b o",
      "Ġn ame",
      "a y",
      "áĨ ·",
      "s ch",
      "in e",
      "Ġh im",
      "Ġ se",
      "un g",
      "v en",
      "t en",
      "Ġth at",
      "th er",
      "áĦ İ",
      "M y",
      "i o",
      "ar e",
      "il l",
      "m p",
      "u p",
      "b a",
      "G B",
      "b r",
      "Ġ l",
      "i ch",
      "m en",
      "s a",
      "Ġf or",
      "p ro",
      "áĦĢ áħ¡",
      "ma il",
      "at e",
      "Ġ E",
      "Ìģ s",
      "Ġ H",
      "w e",
      "ar a",
      "in a",
      "Ġ un",
      "c k",
      "2 0",
      "p a",
      "do e",
      "áĦ Ĥ",
      "áĦī áħµ",
      "E S",
      "j e",
      "or d",
      "1 9",
      "A R",
      "g a",
      "Ġw h",
      "e x",
      "t u",
      "1 3",
      "f f",
      "Ġ N",
      "Ġy ou",
      "1 0",
      "Ġ me",
      "1 8",
      "1 6",
      "c ar",
      "i d",
      "Ìģ n",
      "ch e",
      "as s",
      "1 5",
      "is t",
      "Ġ re",
      "d u",
      "ti on",
      "Ġ k",
      "j a",
      "an a",
      "Ġh is",
      "t ra",
      "Ġ da",
      "áĦĭ áħ¥",
      "áĨ ¸",
      "i z",
      "1 4",
      "E R",
      "l y",
      "Ìģ ri",
      "Ġ R",
      "3 0",
      "t re",
      "i th",
      "c u",
      "Ġ li",
      "ou t",
      "at i",
      "áĦĭ áħ¡",
      "2 6",
      "l u",
      "s on",
      "Ø §",
      "Ġ an",
      "ar d",
      "4 9",
      "3 5",
      "2 9",
      "m ent",
      "g ra",
      "áĦĨ áħ¡",
      "i er",
      "r es",
      "ĠJ ohn",
      "en d",
      "m ar",
      "o p",
      "2 8",
      "a v",
      "2 7",
      "A N",
      "r an",
      "p or",
      "Ġ W",
      "ig n",
      "z a",
      "1 7",
      "2 5",
      "2 4",
      "h r",
      "ci a",
      "2 3",
      "i te",
      "f i",
      "Ġw ith",
      "in al",
      "p l",
      "p re",
      "áĦ ĳ",
      "s u",
      "g ar",
      "as t",
      "m er",
      "i en",
      "z e",
      "is e",
      "ĠJ ane",
      "3 8",
      "ou s",
      "4 0",
      "Ġno t",
      "f a",
      "m an",
      "g er",
      "áĦĮ áħ¥",
      "Ġw as",
      "c t",
      "áĦĮ áħµ",
      "Ġs h",
      "el l",
      "da de",
      "k a",
      "d es",
      "1 1",
      "3 7",
      "b le",
      "Ġ ma",
      "ĠA nd",
      "Ġ com",
      "se l",
      "5 8",
      "Ġm an",
      "f t",
      "Ġ di",
      "4 8",
      "Ġw ho",
      "g i",
      "3 6",
      "Ġ -",
      "o k",
      "áĦī áħ¡",
      "Ġ V",
      "w n",
      "ro m",
      "áĦĢ áħ",
      "9 0",
      "Ġthe y",
      "Ġthe m",
      "gh t",
      "h en",
      "l d",
      "l l",
      "s p",
      "9 6",
      "Ġh a",
      "ig h",
      "i ra",
      "5 5",
      "c er",
      "Ìģ r",
      "Ġ it",
      "u d",
      "áĦ ģ",
      "I N",
      "Ġs ai",
      "4 6",
      "Ġ la",
      "E L",
      "il le",
      "Ġ le",
      "9 8",
      "g r",
      "al e",
      "7 0",
      "t ar",
      "O R",
      "a ch",
      "3 4",
      "ÌĪ r",
      "5 0",
      "A S",
      "j o",
      "áĦĩ áħ¡",
      "Ġ v",
      "m in",
      "5 6",
      "p t",
      "p en",
      "d en",
      "j ane",
      "m on",
      "f er",
      "7 8",
      "p h",
      "c or",
      "2 2",
      "k en",
      "j ohn",
      "Ġ co",
      "7 6",
      "Ġ ca",
      "y a",
      "áħ© áĨ¨",
      "3 9",
      "Ġb ut",
      "Ġ as",
      "c l",
      "r en",
      "Ġsai d",
      "ar t",
      "ÌĤ n",
      "s te",
      "it a",
      "E N",
      "áĦĢ áħµ",
      "u e",
      "áĦĮ áħ¡",
      "Ġ K",
      "Ġ on",
      "R e",
      "i re",
      "I S",
      "Ġ ch",
      "2 1",
      "A L",
      "? Ċ",
      "t ro",
      "Ġ al",
      "@ g",
      "a k",
      "áĦĨ áħ®",
      "Ġw ill",
      "s ta",
      "Ġ are",
      "0 8",
      "ho t",
      "or e",
      "6 6",
      "5 9",
      "a h",
      "@g mail",
      "Ġ all",
      "m b",
      "Ġp ro",
      "an o",
      "Ì Ĭ",
      "p os",
      "k o",
      "h ar",
      "w er",
      "an te",
      "I n",
      "un d",
      "4 7",
      "l es",
      "in d",
      "Ġ up",
      "it u",
      "Ġ O",
      "5 7",
      "M A",
      "an s",
      "3 3",
      "p i",
      "Ġun to",
      "p u",
      "Ù Ħ",
      "Ġc on",
      "es ta",
      "ci o",
      "8 8",
      "Ã ¸",
      "Ġ te",
      "is h",
      "s er",
      "O N",
      "áĦĩ áħ®",
      "Ġ \"",
      "@ hot",
      "ho o",
      "@hot mail",
      "or a",
      "at er",
      "o b",
      "an g",
      "e ar",
      "9 9",
      "1 2",
      "u se",
      "0 6",
      "el a",
      "a g",
      "o t",
      "i ro",
      "i ve",
      "i b",
      "Ġth ere",
      "n er",
      "áĦĭáħ¥ áĨ",
      "un i",
      "D oe",
      "áħ ¦",
      "in s",
      "as se",
      "5 4",
      "S ch",
      "áĦĤ áħ¡",
      "b ar",
      "à ¹",
      "es us",
      "Ġf rom",
      "áħ© áĨ¼",
      "ing s",
      "@ ya",
      "@ya hoo",
      "ĠG od",
      "áĦĴ áħ",
      "M ar",
      "Ġ lo",
      "o me",
      "b u",
      "t y",
      "Ġ j",
      "l or",
      "áħ® áĦĥáħ¡",
      "Ù Ĭ",
      "Ġsh all",
      "áĦĢ áħ§",
      "for e",
      "en te",
      "I T",
      "v es",
      "ĠT he",
      "s h",
      "Ġ ri",
      "m i",
      "ĠM ar",
      "A n",
      "w o",
      "on s",
      "i p",
      "Ġm y",
      "ch en",
      "c re",
      "e u",
      "C H",
      "s en",
      "D E",
      "in o",
      "i f",
      "R O",
      "áħ¥ áĨ«",
      "R E",
      "f o",
      "t ri",
      "ch t",
      "4 4",
      "b re",
      "áĦħ áħµ",
      "at o",
      ", Ċ",
      "or t",
      "Ìģ ti",
      "al s",
      "ÌĪ n",
      "il d",
      "br as",
      "6 8",
      "I A",
      "a do",
      "e k",
      "igh t",
      "v is",
      "Ġ U",
      "gu e",
      "Ġy our",
      "áĦĭáħ¥áĨ ¹",
      "áĨ º",
      "3 2",
      "Ġha ve",
      "d is",
      "áĦĭáħ¥áĨ¹ áĦĥáħ¡",
      "i to",
      "s k",
      "i de",
      "it y",
      "\" Ċ",
      "7 9",
      "Ù ħ",
      "u re",
      "es e",
      "al i",
      "Ġw ere",
      "3 1",
      "O S",
      "e w",
      "o se",
      "no w",
      "p ri",
      "e le",
      "r ou",
      "i x",
      "Ġ ta",
      "R A",
      "áĦĢ áħ®",
      "c tion",
      "r as",
      "áĦ Ī",
      "b ra",
      "áĦ Ĳ",
      "A l",
      "áĦĭáħ §",
      "v el",
      "Ġ one",
      "ic k",
      "l and",
      "D o",
      "in t",
      "le t",
      "áħ§ áĨ«",
      "b i",
      "m u",
      "áĦĩ áħ©",
      "6 0",
      "7 4",
      "e p",
      "a f",
      "áĨ¸ áĦĥáħ¡",
      "b en",
      "lo g",
      "r on",
      "do s",
      "Ġ at",
      "A nd",
      "Ġg o",
      "c al",
      "s s",
      "Ã Ł",
      "en to",
      "ch er",
      "Ìģri o",
      "m or",
      "L e",
      "Ġ en",
      "' t",
      "ch a",
      "ess o",
      "T he",
      "r y",
      "ĠJ esus",
      "v ol",
      "o w",
      "Ġw e",
      "r is",
      "Ġwh ich",
      "á ĩ",
      "Ġf a",
      "k t",
      "in ter",
      "f u",
      "T O",
      "Ġe m",
      "áĦ Ħ",
      "' s",
      "h er",
      "gu a",
      "r it",
      "C O",
      "C A",
      "Ġ out",
      "th e",
      "re d",
      ". j",
      "v ar",
      "I L",
      "Ġp ara",
      "áĦī áħ®",
      "l an",
      "w ay",
      "le d",
      "c ou",
      "- s",
      "k s",
      "l en",
      "u f",
      "Ġwh en",
      "M a",
      ". mp",
      "Ġn a",
      "H e",
      "áĦĥ áħ³",
      "el o",
      "áĨ¯ áĦĥáħ¡",
      "T A",
      "S A",
      "Ġp er",
      "Ø ±",
      "di a",
      "áħ§ áĨ¼",
      "7 5",
      "ch o",
      "c le",
      "u al",
      "A r",
      "Ġm o",
      "6 9",
      "f la",
      "D e",
      "4 5",
      "el le",
      "re e",
      "te d",
      "Ġth is",
      "ra c",
      "áĦĥ áħ©",
      "áĦİ áħµ",
      "8 0",
      "J ohn",
      "l er",
      "p le",
      "di o",
      "áĦħ áħ¡",
      "it i",
      "g es",
      "j u",
      "áĦĮáħ¥ áĨ¼",
      "m al",
      "Ġb y",
      "áĦħ áħ³",
      "an ce",
      "Ìģ p",
      "Ìģ m",
      "n um",
      "Ìģ e",
      "b li",
      "Ġh er",
      "g el",
      "Ġ Y",
      "Ġda y",
      "a vi",
      "is s",
      "T E",
      "Ġ que",
      "c as",
      "Ìģ t",
      "D O",
      "an c",
      "ci on",
      "R I",
      "c ul",
      "us t",
      "en ce",
      "7 7",
      "áħ¢ áĨ¼",
      "n u",
      "n ess",
      "ti r",
      "on g",
      "li ch",
      "b or",
      "w a",
      "n ing",
      "ver s",
      "p s",
      "áĦĮáħ¥ áĨ«",
      "Ġth ings",
      "ĠF or",
      "áĦĴáħ ª",
      "Ġh ad",
      "t es",
      "áĦĭ áħ©",
      "v al",
      "Ġs ay",
      "lo s",
      "is ta",
      "c ri",
      "Ìĥ O",
      "Ġ u",
      "co l",
      "áĦĮ áħ®",
      "es tr",
      "u x",
      "er o",
      "te l",
      "an ha",
      "Ġp e",
      "Ġ tr",
      "Ġthe ir",
      "D A",
      "Ġ ti",
      "B e",
      "L A",
      "áĦĢ áħ³",
      "ou th",
      "áĦĭáħ ²",
      "Ġs o",
      "da y",
      "ĠH e",
      "ĠL i",
      "Ġn e",
      "p la",
      "Ġco me",
      "b al",
      "s al",
      "b an",
      "is te",
      "h ere",
      "i k",
      "ÌĤ s",
      "4 2",
      "is ch",
      "áĨ« áĦĴáħ¡áĦĥáħ¡",
      "Ġk now",
      "S e",
      "at a",
      "ou n",
      "8 6",
      "u ch",
      "Ø§ Ø",
      "t or",
      "in k",
      "m as",
      "Ġ es",
      "er n",
      "5 1",
      "Ġh and",
      "4 1",
      "qu er",
      "4 3",
      "I E",
      "a ge",
      "d or",
      "en s",
      "Ø§ ÙĦ",
      "E n",
      "men to",
      "ver y",
      "g an",
      "L E",
      "N O",
      "a th",
      "h at",
      "sel f",
      "G e",
      "i da",
      "áĦĨáħ¡ áĨ«",
      "v il",
      "B E",
      "b ro",
      ". \"Ċ",
      "P A",
      "A b",
      "qu i",
      "g re",
      "me l",
      "lo w",
      "a se",
      "Ġw or",
      "ÌĢ re",
      "z en",
      "Ġth ou",
      "Ġd es",
      "n en",
      "a ir",
      "ci al",
      "l as",
      "por t",
      "Ġ us",
      "to s",
      "áĦĥ áħ¢",
      "áħ© áĨ«",
      "8 9",
      "T I",
      "U F",
      "P ro",
      "p as",
      "an i",
      "Ìģ c",
      "pr ess",
      "áĦĢ áħ©",
      "áĦĮ áħ¦",
      "Ġy e",
      "Ġ Z",
      "in ho",
      "áĦĨ áħ©",
      "er s",
      "Ġin to",
      "C e",
      "5 3",
      "h or",
      "- de",
      "M E",
      "l at",
      "Ġe x",
      "C on",
      "Ġf o",
      "i co",
      "i ce",
      "t ur",
      "ve d",
      "áĦİ áħ®",
      "Ġca me",
      "p p",
      "Ġ ro",
      "Ù Ĩ",
      "ĠB ut",
      "m at",
      "z o",
      "C o",
      "C om",
      "Ġs a",
      "- b",
      "0 9",
      "st and",
      "ĠI n",
      "ab e",
      "ou nd",
      ": Ċ",
      "L u",
      "Ġ or",
      "Ìģti ca",
      "a da",
      "áĨ ½",
      "Ì§ o",
      "- S",
      "n y",
      "p on",
      "ri r",
      "f ul",
      "Ġd is",
      "i j",
      "U R",
      "at ur",
      "d ar",
      "Ìģ li",
      "g al",
      "t on",
      "do m",
      "Ġa b",
      "ad or",
      "pr es",
      "s ur",
      "E s",
      "mo v",
      "p an",
      "áĩ Ģ",
      "J ane",
      "Q U",
      "o g",
      "p al",
      "t s",
      "ro w",
      "Ġm ar",
      "â Ģ",
      "f ra",
      "p ir",
      "Ġ ar",
      "ac k",
      "o f",
      "ou se",
      "Ġm en",
      "! Ċ",
      "g n",
      "u i",
      "ter n",
      "M e",
      "a us",
      "Ù Ī",
      "5 2",
      "- se",
      "F R",
      "c es",
      "ga in",
      "h is",
      "z u",
      "it ar",
      "7 3",
      "k k",
      "áĦĮáħµ áĦĥáħ¡",
      "7 2",
      "P O",
      "te m",
      "il i",
      "Ġs ur",
      "in ha",
      "h y",
      "Ġ vo",
      "ou ld",
      "i ca",
      "Ġb o",
      "s to",
      "c an",
      "b ur",
      "d ra",
      "áĦĭáħµ áĨ¯",
      ". p",
      "el d",
      "Ġp o",
      "b el",
      "h al",
      "m m",
      "v at",
      "ai re",
      "- f",
      "A M",
      "h u",
      "Ġdo wn",
      "à¸ ²",
      "w av",
      "ti g",
      "al k",
      "Ġf e",
      "i le",
      "il a",
      "li e",
      "st r",
      "Ġ qu",
      "7 1",
      "L i",
      "v ent",
      "Ġch ild",
      "u ra",
      "ci r",
      "m es",
      "áĦīáħµ áĨ¸",
      "- a",
      "de l",
      "áĦĭ áħ®",
      "ÌĪ t",
      "s y",
      "ri e",
      "k om",
      "fla c",
      "D K",
      "v an",
      "Ìģ g",
      "ra y",
      "it er",
      "áĦĩ áħ¥",
      "áĦī áħ¢áĨ¼",
      "ÌĮ i",
      "U S",
      "áĨ¨ áĦĴáħ¡áĦĥáħ¡",
      "; Ċ",
      "b l",
      "S a",
      "n g",
      "S inal",
      "áĦĳ áħ¡",
      "ĠLi bras",
      "ÌĤn cia",
      "Ø ¨",
      "e in",
      "and a",
      "ÌĮ Ċ",
      "áĦĩáħ© áĦĥáħ¡",
      "c ent",
      "er en",
      "en ta",
      "st ru",
      "f ri",
      "áĦĢáħ ¨",
      "on d",
      "Ġs ign",
      "c in",
      "h l",
      "Ġw ent",
      "N A",
      "th ing",
      "Ġw ord",
      "áĦĭáħ ¯",
      "li g",
      "ing er",
      "u b",
      "Ø ©",
      "áĦī áħ¥",
      "ĠA l",
      "E M",
      "áĦ ı",
      "Ġy ear",
      "M o",
      "g ro",
      "ĠMar anha",
      "num ber",
      ". flac",
      "b es",
      "r er",
      "Ġ r",
      ". wav",
      "L a",
      "n ame",
      "ge t",
      "áĨ¯ áĦĴáħ¡áĦĥáħ¡",
      "Ġan s",
      "g un",
      "in te",
      "con f",
      "Ġbe ca",
      "c ur",
      "z i",
      "Ġs inal",
      "ĠS an",
      "Ġe ar",
      "áĦħáħ³ áĦĥáħ¡",
      "P T",
      "it ion",
      "áĦĭáħ £",
      "tre et",
      "áĦīáħµ áĨ·",
      "Q u",
      "w or",
      "Ø ¯",
      "áĦĭáħ ´",
      "l ar",
      "áĦĭáħ Ń",
      "f in",
      "Ġth ese",
      "C ar",
      "áħ ¬",
      "se d",
      "áĦĮ áħ©",
      "áĦİ áħ¡",
      "we b",
      "s inal",
      "Ġal so",
      "an ge",
      "it t",
      "Ġh und",
      "I G",
      "c r",
      "m un",
      "à¸ £",
      "áĦĴ áħ¢",
      "os o",
      "áĦīáħ¡ áĨ¼",
      ". c",
      "z ar",
      "H A",
      "Ġ ra",
      "is mo",
      "f en",
      "p ass",
      "Ġ ver",
      "Ìģri a",
      "hr ist",
      "Ìģ le",
      "al t",
      "Ġw ay",
      "per son",
      "c ro",
      "on t",
      "ta in",
      "ul t",
      "áĦĭáħ ³",
      "d ent",
      "ar i",
      "te ous",
      "p ra",
      "Ġa gain",
      "v ie",
      "y es",
      "Ġs he",
      "áĦħáħµ áĦĥáħ¡",
      "f le",
      "p li",
      "s ol",
      "s pe",
      "v or",
      "ÌĤ te",
      "a ve",
      "Ġg re",
      "f il",
      "m it",
      "Ã ¦",
      "vo ir",
      "ation s",
      "I O",
      "o c",
      "C E",
      "d re",
      "áĦĢáħ ª",
      "C h",
      "S o",
      "Do estr",
      "Ġhund red",
      "f ic",
      "en ti",
      "il li",
      "d on",
      "m and",
      "x t",
      "en a",
      "an n",
      "ĠL ord",
      "b ol",
      "c el",
      "h el",
      "un a",
      "áĩĢ áĦĥáħ¡",
      "H O",
      "a ce",
      "m is",
      "en e",
      "co me",
      "ca c",
      "Ġans wer",
      "gh teous",
      "B A",
      "st ra",
      "áĦīáħµ áĨ«",
      "z er",
      "es te",
      "re g",
      "di re",
      "ÌĤ ni",
      "áħ¢ áĦĥáħ¡",
      "f ter",
      "i ma",
      "Ġa m",
      "P ar",
      "a ther",
      "Ø ¹",
      "à¸ Ļ",
      "B o",
      "b us",
      "h t",
      "Ġs t",
      "ĠS treet",
      "Ġun der",
      "I R",
      "in ar",
      "áĦĢáħ§ áĨ¯",
      "m us",
      "ch ar",
      "Ġs er",
      "u er",
      "a ut",
      "u g",
      "y e",
      "áĦĦ áħ©áĨ¨",
      "a ven",
      "Ø ª",
      "ĠV ille",
      "n ie",
      "pe ar",
      "áĦī áħ©",
      "00 0",
      "áĦĨáħ® áĨ«",
      "L O",
      "p el",
      "v ir",
      "ver si",
      "f r",
      "Ġp ar",
      "esso a",
      "M S",
      "y ou",
      "la do",
      "on a",
      "Ìģ l",
      "h and",
      "ro s",
      "E x",
      "l s",
      "an do",
      "Ġp la",
      "ol d",
      "P or",
      "t in",
      "v y",
      "al a",
      "ce ive",
      "S E",
      "i or",
      "ĠI s",
      "c y",
      "w ard",
      "z y",
      "es ti",
      "ĠD e",
      "ick ed",
      "Doestr asse",
      "M EL",
      "Ġs pe",
      "áĦħ áħ",
      "N E",
      "N e",
      "Å Ĥ",
      "áĨ Ń",
      "Ġth y",
      "il la",
      "it al",
      "ci pl",
      "Ġan o",
      "k on",
      "de d",
      "áĦħ áħ¥",
      "ina is",
      "Ġfa ther",
      "at or",
      "áĦĨ áħµ",
      "c is",
      "j ar",
      "áĨ¯ áĦĭáħ¡",
      "du c",
      "l ing",
      "áĦĢ áħ¥",
      "Ġt ra",
      "áĦģ áħ³",
      "log ia",
      "m y",
      "Ġh as",
      "di g",
      "ed er",
      "Ġhe art",
      "00 1",
      "ĠR e",
      "Ġsay ing",
      "C M",
      "h i",
      "Ù ģ",
      "ĠS C",
      "au f",
      "áĦĤáħ¡ áĦĥáħ¡",
      "c lo",
      "le y",
      ". avi",
      "U N",
      "w el",
      "Ġa way",
      "ĠS a",
      "ich t",
      "u a",
      "Ìģ a",
      "Ġp as",
      "am ar",
      "Ġri ghteous",
      "L I",
      "do c",
      "ĠB e",
      "n et",
      "il o",
      "Ġs on",
      "Ġp or",
      "qu es",
      "P er",
      "f ar",
      ". .",
      "I s",
      "J o",
      "P o",
      "R o",
      "Ġw icked",
      "Ì§ A",
      "ul ar",
      "áĦĩ áħµ",
      "k y",
      "l in",
      "Ø ³",
      "Ġb el",
      "áĨŃ áĦĥáħ¡",
      "it s",
      "ri ght",
      "op le",
      "áĨº áĦĴáħ¡áĦĥáħ¡",
      "G O",
      "» áĦĥáħ¡",
      "- me",
      "0 1",
      "k er",
      "Ì ¨",
      "ho ld",
      "Ġwh at",
      "N o",
      "b on",
      "áĦĩ áħ¢",
      "Ġyear s",
      "is ter",
      "ÌĪ ber",
      "ier en",
      "s v",
      "Ġo ver",
      "di r",
      "ie d",
      "ĠC hrist",
      "Ġbe fore",
      "áĦĢáħ® áĨ¨",
      "Ġgo od",
      "F or",
      "N a",
      "Ġp re",
      "áĦĭáħµ áĨ«",
      "áĦ į",
      "om an",
      "ate ma",
      "web m",
      "f al",
      "m ir",
      "s im",
      "t te",
      "Ġ im",
      "ge m",
      "Ġchild ren",
      "P e",
      "x i",
      "ia h",
      "ÌĢ Ċ",
      "à¹ Ģ",
      "2 00",
      "h am",
      "v ant",
      "la u",
      "im al",
      "ab le",
      "tr ans",
      "- M",
      ". mov",
      "f re",
      "f ess",
      "di e",
      "v ia",
      "A u",
      "p ol",
      "p ap",
      "am b",
      "Ġt wo",
      "tu re",
      "Ġ ve",
      "Ġ ent",
      "te mp",
      "lo ok",
      "ve j",
      "ÌĤ Ċ",
      "áĨ¨ áĦĥáħ¡",
      "for m",
      "A C",
      "s or",
      "se x",
      "Ġth an",
      "ÌĤ tre",
      "S u",
      "f el",
      "s ign",
      "Ġ ou",
      "ai x",
      "ke y",
      "E r",
      "Ġh ouse",
      "ho w",
      "Ġd u",
      "OR D",
      "g in",
      "g on",
      "Ġthe e",
      "à¸ Ń",
      "ul l",
      "Ġle t",
      "Ġanswer ed",
      "t al",
      "st itu",
      "Ġdo s",
      "ud ar",
      "Ġthere fore",
      "áĨ½ áĦĥáħ¡",
      "b ou",
      "ir st",
      "ÌĪ ck",
      "T e",
      "o ff",
      "Ġ '",
      "Ġ ge",
      "Ġo wn",
      "áĦĴ áħ®",
      "áĦĮ áħ©áĨ¼",
      "Ġse e",
      "da d",
      "ie t",
      "ÌĢ me",
      "Ġdi d",
      "re ad",
      "c us",
      "c ord",
      "ca do",
      "U n",
      "i ci",
      "p es",
      "s ou",
      "at ri",
      "as a",
      "áĦĢ áħ©áĨ¼",
      "Ġle ft",
      ". webm",
      "a z",
      "c ti",
      "m il",
      "Ġ vi",
      "áĦĤ áħ§áĨ«",
      "áĦĢáħ Ń",
      "ch es",
      "co s",
      "ic al",
      "áĦĥ áħ®áĦĥáħ¡",
      "áĦĥáħ³ áĨ¯áĦĥáħ¡",
      "- Ċ",
      "k i",
      "k le",
      "r in",
      "r ing",
      "on ne",
      "áĦĩáħ¡ áĨ¯",
      "se t",
      "D i",
      "en der",
      "áĨ »áĦĥáħ¡",
      "at t",
      "áĦĢáħ¡ áĨ¨",
      "tu ra",
      "pir it",
      "A us",
      "T o",
      "w ar",
      "Ø Ń",
      "an ti",
      "or n",
      "co la",
      "áĦĪ áħ¥áĨ«",
      "air ro",
      "d y",
      "h ab",
      "k el",
      "p in",
      "u te",
      "ĠS o",
      "al f",
      "áĦĩ áħ§áĨ«",
      "ĠB ar",
      "ĠT hen",
      "áħ³ áĨ¼",
      "ĠThe y",
      "0 3",
      "C L",
      "m ber",
      "v ing",
      "un o",
      "di c",
      "Ġg ra",
      "no t",
      "Ġti me",
      "Ġman y",
      "Ġbeca use",
      "S O",
      "b il",
      "n es",
      "Ġc an",
      "ÌĮ e",
      "20 1",
      "Ġear th",
      "- B",
      "k ra",
      "v re",
      "Ġ q",
      "te en",
      "Ġd er",
      "ung s",
      "0 2",
      "m os",
      "im ento",
      "our s",
      "we h",
      "áĦĩáħ¡ áĦģ",
      "Ġday s",
      "áĦİáħ® áĨ¼",
      "R a",
      "u el",
      "su b",
      "Ġth ose",
      "ci e",
      "Ġa fter",
      "ent ar",
      "Ġdis cipl",
      "R U",
      "d r",
      "j on",
      "Ġli fe",
      "Ġma de",
      "I C",
      "er a",
      "Ġa c",
      "áĦĢáħ¡ áĩĢáĦĥáħ¡",
      "20 2",
      "1 00",
      "A P",
      "Ġs ou",
      "ab et",
      "áĦĴáħ ¬",
      "Ġri ght",
      "áĦĩáħ¡áĦģ áħ®áĦĥáħ¡",
      "c la",
      "f on",
      "g l",
      "t wo",
      "al le",
      "uni ci",
      "áĦĭáħ§ áĨ«",
      "B O",
      "b y",
      "b is",
      "Ìģ bli",
      "áĦĨ áħ§áĨ¼",
      "áĦħ áħ©",
      "áĦĩáħ® áĨ«",
      "Ġbel ie",
      "E U",
      "j n",
      "m l",
      "p lo",
      "s ter",
      "Ù ĥ",
      "st ar",
      "áĦĴáħ¡ áĨ«",
      "par a",
      "par e",
      "john doe",
      "T h",
      "o ver",
      "Ġ z",
      "Ìĥ es",
      "áĦĴ áħµ",
      "pe g",
      "áĦİ áħ¥",
      "- P",
      ". od",
      "c ess",
      "Ġha th",
      "G ra",
      "M O",
      "f y",
      "áħ Ń",
      "or te",
      "Ġs ent",
      "Ġs ome",
      "ce p",
      "ĠS ur",
      "Ġc ri",
      "ah weh",
      "b as",
      "c um",
      "g ia",
      "r at",
      "u z",
      "men te",
      "cu lo",
      "35 1",
      "B ar",
      "E l",
      "d ro",
      "f un",
      "en er",
      "ĠL ORD",
      "ĠE s",
      "ff er",
      "Ġli ke",
      "áĦĳ áħŃ",
      "Ġdiscipl es",
      "U ni",
      "c ra",
      "f fe",
      "h il",
      "Ġ esta",
      "ti ff",
      "Ġb ro",
      "cion al",
      "R u",
      "ã ģ",
      "ra el",
      "Ġm outh",
      "à¸ ģ",
      "G u",
      "u ro",
      "Ġw ater",
      "doe jane",
      "Ce ara",
      "Ġunder stand",
      "e th",
      "r ar",
      "Ġ ru",
      "ti ca",
      "áĦİ áħ¥áĨ«",
      "T H",
      "h ier",
      "es se",
      "Ġs u",
      "ur s",
      "ÌĪ h",
      "st u",
      "a j",
      "c at",
      "g at",
      "ur n",
      "Ġg ive",
      "doe john",
      "Ìģn gua",
      "- A",
      "6 7",
      "H er",
      "b all",
      "Ġ if",
      "ent ro",
      "ÌĪ l",
      "ÌĪ nd",
      "ig ne",
      "versi dade",
      "g g",
      "jane doe",
      "áĦĩáħ® áĨ¯",
      "9 1",
      "C am",
      "t an",
      "is a",
      "ta c",
      "ho l",
      "áĨ¯ áĦħáħµáĦĥáħ¡",
      "Ġpe ople",
      "C U",
      "al th",
      "as h",
      "Ġab out",
      "6 4",
      "A s",
      "f lu",
      "ĠA n",
      "Ġe ven",
      "áĦĭáħ ¦",
      "Ġper son",
      "Ġgre at",
      "F e",
      "M AR",
      "Ġp ri",
      "ca p",
      "Ìĥ Ċ",
      "ĠD E",
      "ran de",
      "g ru",
      "t at",
      "z ie",
      "Ġ ci",
      "il y",
      "ti e",
      "ent y",
      "ĠA pt",
      "à¸ ¡",
      "Ġc or",
      "0 7",
      "B er",
      "H a",
      "Ġth ree",
      "con se",
      "áĦĢáħ§ áĨ¼",
      "k u",
      "s in",
      "t xt",
      "Ġ il",
      "ar y",
      "ma is",
      "ir d",
      "Ġd on",
      "ass er",
      "Ġfo ol",
      "J e",
      "V O",
      "t w",
      "Ġ um",
      "Ìģ o",
      "de z",
      "ÌĪ hr",
      "áĦī áħ©áĨ¨",
      "Ġc al",
      "ĠW hen",
      "L U",
      "f all",
      "s w",
      "Ġk ing",
      "áĦĮáħ¡ áĨ¼",
      "L o",
      "i al",
      "l ou",
      "t t",
      "v ro",
      "on te",
      "ma c",
      "us s",
      "all y",
      "ÌĢ s",
      "pl an",
      "áĦĮáħ® áĨ¼",
      "áĦīáħ¢áĨ¼ áĦĢáħ¡áĨ¨",
      "Ġword s",
      "- G",
      "b mp",
      "n am",
      "ÌĪ Ċ",
      "Ġe very",
      "ĠC AS",
      "je to",
      "C or",
      "O r",
      "T R",
      "g as",
      "g ri",
      "ck en",
      "áĦĩáħ¡ áĨ«",
      "S an",
      "b ri",
      "v in",
      "Ì £",
      "li ve",
      "ol y",
      "ab er",
      "ĠY ahweh",
      "/ MA",
      "6 1",
      "8 7",
      "J A",
      "p et",
      "Ù Ĥ",
      "Ġ ter",
      "en c",
      "vi o",
      "Ġdi re",
      "ĠU F",
      "C AS",
      "N or",
      "ia c",
      "p ie",
      "ab ri",
      "ĠP e",
      "ant s",
      "je ct",
      "ht ml",
      "A D",
      "B a",
      "u c",
      "Ì Ľ",
      "Ġ i",
      "Ġ âĢ",
      "áĨ¼ áĦĴáħ¡áĦĥáħ¡",
      "et te",
      "Ġd as",
      "sch a",
      ".c sv",
      ". tiff",
      "V I",
      "i que",
      "p g",
      "to m",
      "ti c",
      "Ġsh ould",
      "tri a",
      "rit ing",
      "Ġ ke",
      "Ġth en",
      "un e",
      "im o",
      "Ġc ar",
      "rou gh",
      ". de",
      "F ran",
      "P E",
      "i fe",
      "l ess",
      "s am",
      "Ì ĩ",
      "Ìģ d",
      "áĦĢ áħ¥áĨ«",
      "Ġhe ard",
      ".j peg",
      "b io",
      "f ro",
      "k ing",
      "áĨ ©",
      "il va",
      "it en",
      "si x",
      "sch en",
      "ga de",
      "Ġan y",
      "C I",
      "G A",
      "S T",
      "a co",
      "b ru",
      "un der",
      "Ġp l",
      "ent s",
      "ĠA r",
      "con d",
      "ĠT here",
      "Ġwh ere",
      "ew s",
      "Ġsa w",
      "6 5",
      "b la",
      "h as",
      "i ther",
      "Ġ res",
      "Ìģ mer",
      "is se",
      "it or",
      "ma in",
      "Ġf u",
      "ca de",
      "Ġm ore",
      "ge ther",
      "ĠC ar",
      "we g",
      "Ġdi e",
      "F a",
      "W e",
      "Ìģ ni",
      "áĦĴ áħ©áĨ«",
      "ol l",
      "po li",
      "ill er",
      "áĦĤ áħµ",
      "Ġlo ve",
      "0 4",
      "i ja",
      "áĨ ®",
      "Ìģ di",
      "Ìģ si",
      "un ter",
      "Ìĥ e",
      "os ta",
      "Ġe at",
      "ĠL u",
      "áĦħáħ ²",
      "9 3",
      "c li",
      "Ġe in",
      "Ġhe aven",
      "áĦĮáħ¦ áĦĭáħ¥",
      "áĦĳáħŃ áĦĮáħ¦áĦĭáħ¥",
      ". txt",
      "n or",
      "s ar",
      "de t",
      "ra u",
      "el y",
      "ĠS ign",
      "end re",
      "S ign",
      "at ro",
      "te le",
      "st en",
      "à¸ ª",
      "áĦĢáħ¡ áĦĥáħ¡",
      "ER SA",
      "IN A",
      "sh ip",
      "J esus",
      "a ma",
      "s ie",
      "s om",
      "w ie",
      "Ìģ -",
      "ÌĤ me",
      "ke it",
      "ste ll",
      "9 2",
      "h um",
      "i es",
      "s au",
      "se e",
      "áĦħ áħ§",
      "Ġse ven",
      "B R",
      "Ġ our",
      "Ġs in",
      "Ìģp io",
      "áĦĭáħŃ áĨ¼",
      "- E",
      "- e",
      "- do",
      ". bmp",
      "J an",
      "n om",
      "to p",
      "me d",
      "Ġg lor",
      "au x",
      "- T",
      "8 2",
      "ie f",
      "tr y",
      "Ġli ght",
      "sel ves",
      "E sta",
      "f ol",
      "g y",
      "g or",
      "ã Ĥ",
      "se m",
      "ti k",
      "st re",
      "Ġe vil",
      "Ġg i",
      "ĠL e",
      "áħ¢ áĦģáħ³",
      "for t",
      "iz ar",
      "áĦģ áħ¢áĦģáħ³",
      "Ã¸ r",
      "ras il",
      "áĦģáħ¢áĦģáħ³ áĨºáĦĴáħ¡áĦĥáħ¡",
      "- F",
      "0 5",
      "V A",
      "p ul",
      "en o",
      "an k",
      "Ìģ vel",
      "Ġs tr",
      "os a",
      "áĦīáħµ áĨ¯",
      "áĦĲ áħ³",
      ".p ng",
      "cr ita",
      "- R",
      "B r",
      "o i",
      "ta ble",
      "li c",
      "ment s",
      "gra m",
      "Ġma y",
      "áĦĭáħ¯ áĨ«áĦĴáħ¡áĦĥáħ¡",
      ". doc",
      ". html",
      "6 3",
      "D I",
      "S I",
      "b it",
      "u le",
      "en cia",
      "un t",
      "ta g",
      "Ġm in",
      "ĠS u",
      "od y",
      "Ġre ceive",
      "A U",
      "P a",
      "d s",
      "on der",
      "us a",
      "Ġe yes",
      "Ġhim self",
      "g ent",
      "j un",
      "k ar",
      "p ou",
      "ÌĪ ch",
      "Ì§ ar",
      "áĦİáħµ áĦĥáħ¡",
      "Ìģli a",
      "Ġpla ce",
      "áĦĩáħ¢ áĨ¨",
      "6 2",
      "M on",
      "P al",
      "b and",
      "n is",
      "u th",
      "u ri",
      "x ls",
      "ig en",
      "áĦĨ áħ¢",
      "Ġt re",
      "fi ca",
      "ell ing",
      "gr and",
      "Mar ia",
      "9 4",
      "9 5",
      "A d",
      "G U",
      "f ru",
      "m ul",
      "is er",
      "áĦĥ áħ©áĨ¨",
      "me t",
      "la m",
      "ver se",
      "à¸ ¢",
      "áĦĲ áħ©áĨ¼",
      ".j pg",
      "Ġano ther",
      "eder al",
      "8 5",
      "D V",
      "G es",
      "Ìģ re",
      "at ch",
      "áĦĥ áħ®",
      "ut ter",
      "Ġwho m",
      "J u",
      "d in",
      "i do",
      "p od",
      "ÌĪ gen",
      "à¸ µ",
      "itu de",
      "esso as",
      "Ù Ķ",
      "Ġ el",
      "in es",
      "áĨ ¶",
      "is ten",
      "is dom",
      "le ft",
      "ol har",
      "gi ve",
      "ale za",
      "Ġcal led",
      "áĨ® áĦĥáħ¡",
      "P ra",
      "Z H",
      "g le",
      "i as",
      "o h",
      "y er",
      "Ìģ de",
      "ai co",
      "ĠF ather",
      "áĦĢáħ¡ áĨ·",
      "ct or",
      "- Doe",
      "a ke",
      "f am",
      "me di",
      "do lor",
      "ÌĪ s",
      "Re g",
      "áĦīáħ® áĦĮáħ¥áĨ¼",
      "0 90",
      "8 1",
      "Ä §",
      "Ġo ther",
      "Ìĥ a",
      "Ġhe ar",
      "ai th",
      "áĦģ áħ¡",
      "áĦħáħ³ áĨ·",
      "' Ċ",
      "C R",
      "O L",
      "i ÃŁ",
      "p y",
      "t est",
      "an ger",
      "Ġs ame",
      "li a",
      "Ġp ass",
      "áĦīáħ¡ áĦħáħ¡",
      "Ġla w",
      "ille d",
      "abe to",
      "à¹Ģ à¸",
      "8 3",
      "K on",
      "an ne",
      "lo od",
      "tr as",
      "Ġas k",
      "áĦĭáħ§ áĦħáħ¥",
      "- c",
      "E I",
      "T ER",
      "t il",
      "le v",
      "ÌĤ t",
      "Ġl and",
      "ĠN ow",
      "áĦģ áħ©",
      "led ge",
      "A B",
      "j an",
      "Ġw ise",
      "ur es",
      "áĦĭáħµ áĨ»áĦĥáħ¡",
      "Ġspe ak",
      "v ore",
      "Ù ĩ",
      "Ġ jo",
      "Ġ Ø§ÙĦ",
      "Ġf ol",
      "ca m",
      "ĠS e",
      "au to",
      "vi dade",
      "Ġse u",
      "gi f",
      "T AR",
      "n os",
      "p at",
      "z ig",
      "in de",
      "le tra",
      "Ġp a",
      "em ent",
      "ort aleza",
      "gua ge",
      "RI O",
      "- H",
      "S P",
      "T U",
      "n at",
      "p is",
      "Ìģ cia",
      "us to",
      "am ento",
      "Ġc oun",
      "b at",
      "d le",
      "d ru",
      "ra do",
      "ĠS on",
      "Ġc ity",
      "ĠP ro",
      "iz e",
      "áĦĭáħ¡ áĨ¨áĦĴáħ¡áĦĥáħ¡",
      "áĦĭáħ¡ áĦĤáħµ",
      "g s",
      "áħ ±",
      "en ne",
      "in di",
      "ig o",
      "Ġte mp",
      "tur n",
      "Ġbro ther",
      "B G",
      "B I",
      "S L",
      "b om",
      "k re",
      "n as",
      "y s",
      "áĨ ±",
      "Ġth rough",
      "lo gi",
      "Ġto ok",
      "ne w",
      "gu es",
      "áĦīáħµ áĨ¶",
      "Ġup on",
      "áĦĢáħ³ áĨ·",
      "0 70",
      "9 7",
      "L et",
      "S t",
      "n ar",
      "z el",
      "re l",
      "te ll",
      "Ġw oman",
      "Ġy et",
      "ord en",
      "Re gen",
      "áĦĥáħ³ áĨ¼",
      "8 4",
      "F o",
      "b ab",
      "in i",
      "Ìģ ci",
      "at ed",
      "ch i",
      "us h",
      "ed ro",
      "he it",
      "ic ar",
      "vi de",
      "mon g",
      "log ie",
      "press a",
      "Por tu",
      ". br",
      "I RE",
      "U L",
      "g ir",
      "r est",
      "s up",
      "an imal",
      "al o",
      "li ght",
      "Ġp elo",
      "ent re",
      "po st",
      "Ġno me",
      "Ġun d",
      "áĦĦáħ©áĨ¨ áĦĴáħ¡áĦĥáħ¡",
      "áĦĦáħ©áĨ¨ áĦĦáħ©áĨ¨áĦĴáħ¡áĦĥáħ¡",
      "- D",
      ". it",
      "G E",
      "in der",
      "da m",
      "Ġa mong",
      "ĠJ ews",
      "Ġto gether",
      "Ġc er",
      "ber g",
      "Ġfor th",
      "áĦĩáħ¡ áĨ¼",
      "Z e",
      "f our",
      "i ge",
      "Ø ¬",
      "is on",
      "is che",
      "at is",
      "Ġa d",
      "qu ar",
      "ab o",
      "be c",
      "Ġno w",
      "Ġt al",
      "áĦİ áħ¬",
      "áĦĭáħ¡ áĨ«",
      "ous and",
      "fa ce",
      "mb ol",
      "ÌĬ nd",
      "pu bli",
      "- to",
      "G o",
      "V ER",
      "g os",
      "r al",
      "x e",
      "Ìģ k",
      "de m",
      "le i",
      "ma g",
      "à¸ ´",
      "ĠN e",
      "Ġte ll",
      "Ġunderstand ing",
      "- K",
      "T ra",
      "er t",
      "Ġn or",
      "pr on",
      "AN A",
      "ÌĬ r",
      "ĠU ni",
      "áĦĪ áħ¡",
      "ĠDe us",
      "P RE",
      "S al",
      "p un",
      "p essoa",
      "Ġo pen",
      "Ġof f",
      "ĠD o",
      "áĦĴáħ¡ áĨ¨",
      "su per",
      "ren te",
      "age m",
      "Ġwor ld",
      "inger sp",
      "Ġagain st",
      "H o",
      "J O",
      "T u",
      "b s",
      "d ist",
      "w h",
      "Ìģ ne",
      "le e",
      "áĦĥ áħ¬",
      "and er",
      "ti v",
      "à¸ ĩ",
      "áĦĭáħ ¨",
      "con tr",
      "AR A",
      ".j son",
      "- I",
      "- fe",
      "F A",
      "P ai",
      "i el",
      "i ano",
      "m atema",
      "v ille",
      "an y",
      "Ìģ z",
      "te ur",
      "ri ve",
      "áĦĴ áħ§áĨ¼",
      "ĠL et",
      "ant es",
      "ES E",
      "ga do",
      "áĦĳ áħ§áĨ«",
      "Ġhand s",
      "áĦĭáħ³ áĨ·",
      "- C",
      "D U",
      "E le",
      "K o",
      "P R",
      "h on",
      "× Ļ",
      "ar io",
      "in do",
      "Ìģ ch",
      "Ìģ tu",
      "Ìģ dio",
      "Ġm u",
      "ĠS ilva",
      "áĦĭáħµ áĦĭáħ£",
      "áĦĭáħ¡ áĨ¯áĦĭáħ¡",
      "Ġsai th",
      "áĦĮáħ¡ áĨ¯áĦĴáħ¡áĦĥáħ¡",
      "08 0",
      "uni dade",
      "áĦĢáħª áĨ¼",
      "- g",
      "- na",
      "? \"Ċ",
      "S y",
      "T C",
      "V al",
      "Y ou",
      "b lo",
      "b et",
      "f ac",
      "p ut",
      "u k",
      "or al",
      "le ep",
      "Ġa p",
      "he iro",
      "ĠF ederal",
      "Ġl es",
      "ish ed",
      "áĦĭáħµáĦĭáħ£ áĦĢáħµ",
      "M D",
      "r un",
      "Ġ est",
      "Ġw isdom",
      "Ġf our",
      "Ġf ound",
      "ÌĪ d",
      "Ġsur da",
      ".c ss",
      "- so",
      "M unici",
      "V E",
      "V o",
      "g ie",
      "m c",
      "s il",
      "ti vo",
      "ur al",
[...]
