{
    "<pad>": 0,
    "<unk>": 1,
    "<s>": 2,
    "</s>": 3,
    "$en": 4,
    "$bzs": 5,
    "$pt": 6,
    "$ase": 7,
    "�": 8,
    "$gsg": 9,
    "$de": 10,
    "$fr": 11,
    "$kvk": 12,
    "$es": 13,
    "$ko": 14,
    "$fcs": 15,
    "$ssr": 16,
    "$vgt": 17,
    "$ssp": 18,
    "Ġ": 19,
    ",": 20,
    "$nl": 21,
    "$nsl": 22,
    ".": 23,
    "$sgg": 24,
    "Ġthe": 25,
    "$no": 26,
    "$psr": 27,
    "다": 28,
    "$svk": 29,
    "$sfb": 30,
    "$tse": 31,
    "ar": 32,
    "$csc": 33,
    "$ysl": 34,
    "$ar": 35,
    ":": 36,
    "-": 37,
    "$ca": 38,
    "Ġof": 39,
    "$sl": 40,
    "$hds": 41,
    "$sk": 42,
    "s": 43,
    "$mdl": 44,
    "n": 45,
    "$pso": 46,
    "Ġand": 47,
    "Verse": 48,
    "Ġde": 49,
    "$": 50,
    "S": 51,
    "a": 52,
    "B": 53,
    "m": 54,
    "$mt": 55,
    "$ncs": 56,
    "$pl": 57,
    "p": 58,
    "1": 59,
    "Ġto": 60,
    "en": 61,
    "f": 62,
    "d": 63,
    "M": 64,
    "C": 65,
    "G": 66,
    "Ġa": 67,
    "b": 68,
    "é": 69,
    "to": 70,
    "$aed": 71,
    "h": 72,
    "o": 73,
    "F": 74,
    "$fsl": 75,
    "A": 76,
    "er": 77,
    "Ġis": 78,
    "$bfi": 79,
    "2": 80,
    "P": 81,
    "c": 82,
    "Ġin": 83,
    ")": 84,
    "e": 85,
    "ir": 86,
    "t": 87,
    "L": 88,
    "v": 89,
    "하": 90,
    "D": 91,
    "in": 92,
    "H": 93,
    "k": 94,
    "K": 95,
    "re": 96,
    "z": 97,
    "$ise": 98,
    "T": 99,
    "j": 100,
    "ão": 101,
    "3": 102,
    "g": 103,
    "Ġ(": 104,
    "$mfs": 105,
    "$sls": 106,
    "ch": 107,
    "N": 108,
    "R": 109,
    "l": 110,
    "u": 111,
    "$it": 112,
    "$csn": 113,
    "E": 114,
    "al": 115,
    "se": 116,
    "V": 117,
    "4": 118,
    "ia": 119,
    "á": 120,
    "J": 121,
    "$eo": 122,
    "í": 123,
    "es": 124,
    "is": 125,
    "��": 126,
    "5": 127,
    "le": 128,
    "el": 129,
    "i": 130,
    "at": 131,
    "st": 132,
    "Ġ\\": 133,
    "O": 134,
    "6": 135,
    "or": 136,
    "Ġthat": 137,
    "as": 138,
    "I": 139,
    "W": 140,
    "8": 141,
    "Z": 142,
    "Ġhe": 143,
    "w": 144,
    "ado": 145,
    "7": 146,
    "Ġyou": 147,
    "0": 148,
    "am": 149,
    "Ġdo": 150,
    "ing": 151,
    "$tsq": 152,
    "9": 153,
    "ver": 154,
    "ig": 155,
    "$dsl": 156,
    "$da": 157,
    "Ġhim": 158,
    "r": 159,
    "$swl": 160,
    "em": 161,
    "$sv": 162,
    "il": 163,
    "ro": 164,
    "it": 165,
    "os": 166,
    "$th": 167,
    "an": 168,
    "ab": 169,
    "ie": 170,
    "$isg": 171,
    "de": 172,
    "ou": 173,
    "$haf": 174,
    "Ġfor": 175,
    "ad": 176,
    "un": 177,
    "us": 178,
    "ung": 179,
    ".com": 180,
    "ed": 181,
    "ent": 182,
    "Ġwith": 183,
    "ĠI": 184,
    "im": 185,
    "io": 186,
    "end": 187,
    "Ġbe": 188,
    "ol": 189,
    "?": 190,
    "pr": 191,
    "ac": 192,
    "U": 193,
    "Ġhis": 194,
    "on": 195,
    "y": 196,
    "Ġname": 197,
    "ap": 198,
    "ĠDoe": 199,
    "te": 200,
    "In": 201,
    "My": 202,
    "ne": 203,
    "ant": 204,
    "do": 205,
    "tr": 206,
    "이": 207,
    "$csl": 208,
    "con": 209,
    "Ġnot": 210,
    "ur": 211,
    "$psp": 212,
    "$vn": 213,
    "$jsl": 214,
    "et": 215,
    "Ġon": 216,
    ";": 217,
    "Ġit": 218,
    "est": 219,
    "av": 220,
    "Ġup": 221,
    "Ġme": 222,
    "qu": 223,
    "ي": 224,
    "be": 225,
    "ag": 226,
    "ra": 227,
    "um": 228,
    "$ja": 229,
    "م": 230,
    "$sdl": 231,
    "$zh": 232,
    "Ġ-": 233,
    "Ġwas": 234,
    "ó": 235,
    "ina": 236,
    "$pys": 237,
    "ção": 238,
    "me": 239,
    "co": 240,
    "ada": 241,
    "'s": 242,
    "ul": 243,
    "Y": 244,
    "om": 245,
    "Ġthey": 246,
    "ob": 247,
    "per": 248,
    "ic": 249,
    "ach": 250,
    "ĠAnd": 251,
    "Ġthem": 252,
    "ier": 253,
    "au": 254,
    "č": 255,
    "ha": 256,
    "ate": 257,
    "ve": 258,
    "br": 259,
    "ter": 260,
    "oe": 261,
    "Ġare": 262,
    "inal": 263,
    "ge": 264,
    "ras": 265,
    "ens": 266,
    "St": 267,
    "ist": 268,
    "he": 269,
    "ma": 270,
    "GB": 271,
    "$fil": 272,
    "Ġall": 273,
    "'": 274,
    "eth": 275,
    "ine": 276,
    "지": 277,
    "Ġfrom": 278,
    "ire": 279,
    "ho": 280,
    "af": 281,
    "oc": 282,
    "des": 283,
    "gr": 284,
    "pl": 285,
    "ante": 286,
    "Ġbut": 287,
    "ä": 288,
    "Ġsaid": 289,
    "res": 290,
    "ut": 291,
    "ah": 292,
    "The": 293,
    "lo": 294,
    "ü": 295,
    "Q": 296,
    "ĠJohn": 297,
    "ien": 298,
    "idade": 299,
    "ation": 300,
    "Ġwill": 301,
    "ly": 302,
    "Ġda": 303,
    "id": 304,
    "Sch": 305,
    "기": 306,
    "X": 307,
    "que": 308,
    "x": 309,
    "$gn": 310,
    "ca": 311,
    "pe": 312,
    "com": 313,
    "Ġout": 314,
    "ce": 315,
    "ica": 316,
    "th": 317,
    "no": 318,
    "Ch": 319,
    "ja": 320,
    "Ġe": 321,
    "ĠGod": 322,
    "Ġone": 323,
    "ex": 324,
    "Ġwho": 325,
    "pro": 326,
    "To": 327,
    "we": 328,
    "che": 329,
    "je": 330,
    "ر": 331,
    "op": 332,
    "ik": 333,
    "De": 334,
    "가": 335,
    "Ġman": 336,
    "ira": 337,
    "sch": 338,
    "int": 339,
    "iz": 340,
    "ال": 341,
    "par": 342,
    "od": 343,
    "ade": 344,
    "ن": 345,
    "Ġunto": 346,
    "Re": 347,
    "ue": 348,
    "'t": 349,
    "ane": 350,
    "Ġhave": 351,
    "Ġ\"": 352,
    "are": 353,
    "cl": 354,
    "ud": 355,
    "ا": 356,
    "AR": 357,
    "Do": 358,
    "ico": 359,
    "Ġas": 360,
    "ý": 361,
    "Ġno": 362,
    "pre": 363,
    "ov": 364,
    "ite": 365,
    "Ab": 366,
    "Ġmy": 367,
    "fr": 368,
    "ع": 369,
    "Ġyour": 370,
    "ak": 371,
    "Ġshall": 372,
    "ente": 373,
    "fl": 374,
    "Ġo": 375,
    "Un": 376,
    "Not": 377,
    "ĠJane": 378,
    "all": 379,
    "age": 380,
    "and": 381,
    "man": 382,
    "ise": 383,
    "ت": 384,
    "Al": 385,
    "Ġl": 386,
    "aj": 387,
    "Ġat": 388,
    "ka": 389,
    "if": 390,
    "ern": 391,
    "bl": 392,
    "iv": 393,
    "ة": 394,
    "str": 395,
    "ers": 396,
    "ber": 397,
    "Ġby": 398,
    "ass": 399,
    "ino": 400,
    "And": 401,
    "사": 402,
    "리": 403,
    "아": 404,
    "ert": 405,
    "ins": 406,
    "iro": 407,
    "Ġs": 408,
    "ish": 409,
    "og": 410,
    "ça": 411,
    "ich": 412,
    "ale": 413,
    "ل": 414,
    "ere": 415,
    "able": 416,
    "Ġthis": 417,
    "ب": 418,
    "Ġ�": 419,
    "ard": 420,
    "ful": 421,
    "har": 422,
    "An": 423,
    "da": 424,
    "Ġwere": 425,
    "so": 426,
    "ú": 427,
    "na": 428,
    "Ver": 429,
    "ot": 430,
    "10": 431,
    "und": 432,
    "Ġhundred": 433,
    "ze": 434,
    "bo": 435,
    "la": 436,
    "arr": 437,
    "ang": 438,
    "ous": 439,
    "ast": 440,
    "po": 441,
    "car": 442,
    "ure": 443,
    "sp": 444,
    "ana": 445,
    "bar": 446,
    "ng": 447,
    "ug": 448,
    "ação": 449,
    "les": 450,
    "Ġpara": 451,
    "az": 452,
    "ĠJesus": 453,
    "za": 454,
    "He": 455,
    "ek": 456,
    "fer": 457,
    "Con": 458,
    "chen": 459,
    "و": 460,
    "Ġthere": 461,
    "ê": 462,
    "ke": 463,
    "Ġem": 464,
    "ren": 465,
    "ess": 466,
    "Ġdown": 467,
    "!": 468,
    "ieren": 469,
    "Le": 470,
    "어": 471,
    "Ġwhich": 472,
    "ĠS": 473,
    "ç": 474,
    "ato": 475,
    "-m": 476,
    "ile": 477,
    "š": 478,
    "anh": 479,
    "Com": 480,
    "EL": 481,
    "ize": 482,
    "Be": 483,
    "als": 484,
    "Ar": 485,
    "ip": 486,
    "(": 487,
    "ok": 488,
    "ö": 489,
    "ord": 490,
    "Ġque": 491,
    "정": 492,
    "@gmail": 493,
    "ear": 494,
    "ust": 495,
    "ion": 496,
    "Se": 497,
    "س": 498,
    "és": 499,
    "Ġd": 500,
    "eg": 501,
    "ĠP": 502,
    "lich": 503,
    "보": 504,
    "ador": 505,
    "ĠG": 506,
    "out": 507,
    "her": 508,
    "ž": 509,
    "cer": 510,
    "cor": 511,
    "va": 512,
    "ĠA": 513,
    "ura": 514,
    "mar": 515,
    "fe": 516,
    "mer": 517,
    "ée": 518,
    "Ġwhen": 519,
    "ux": 520,
    "د": 521,
    "ĠL": 522,
    "ide": 523,
    "Ġher": 524,
    "ba": 525,
    "ara": 526,
    "â": 527,
    "ew": 528,
    "@hotmail": 529,
    "ido": 530,
    "ĠMar": 531,
    "Sh": 532,
    "ind": 533,
    "ati": 534,
    "No": 535,
    "ique": 536,
    "ĠThe": 537,
    "our": 538,
    "up": 539,
    "art": 540,
    "ais": 541,
    "ě": 542,
    "ário": 543,
    "Ġthings": 544,
    "ill": 545,
    "ø": 546,
    "나": 547,
    "iss": 548,
    "ain": 549,
    "sh": 550,
    "ner": 551,
    "go": 552,
    "aus": 553,
    "ح": 554,
    "gen": 555,
    "Ġan": 556,
    "ub": 557,
    "ive": 558,
    "use": 559,
    "ã": 560,
    "ito": 561,
    "vo": 562,
    "let": 563,
    "Ġla": 564,
    "Ġinto": 565,
    "ai": 566,
    "ř": 567,
    "@yahoo": 568,
    "전": 569,
    "Ad": 570,
    "Ġhad": 571,
    "Tr": 572,
    "eb": 573,
    "Á": 574,
    "ri": 575,
    "ix": 576,
    "ore": 577,
    "ual": 578,
    "ES": 579,
    "dis": 580,
    "ano": 581,
    "è": 582,
    "reg": 583,
    "-se": 584,
    "vers": 585,
    "nd": 586,
    "ora": 587,
    "men": 588,
    "É": 589,
    "Ġtheir": 590,
    "IA": 591,
    "à": 592,
    "ij": 593,
    "시": 594,
    "ua": 595,
    "of": 596,
    "ice": 597,
    "ment": 598,
    "ata": 599,
    "One": 600,
    "pass": 601,
    "one": 602,
    "11": 603,
    "대": 604,
    "uch": 605,
    "Ġhand": 606,
    "-d": 607,
    "q": 608,
    "고": 609,
    "less": 610,
    "ons": 611,
    "Pr": 612,
    "elle": 613,
    "ance": 614,
    "@": 615,
    "Ġsign": 616,
    "ف": 617,
    "ĠB": 618,
    "ق": 619,
    "Gr": 620,
    "Am": 621,
    "Ġaway": 622,
    "Th": 623,
    "12": 624,
    "Ġtime": 625,
    "ond": 626,
    "ell": 627,
    "ك": 628,
    "å": 629,
    ".\"": 630,
    "Ġwe": 631,
    "Ġà": 632,
    "Dis": 633,
    "icht": 634,
    "ĠFor": 635,
    "unt": 636,
    "Fl": 637,
    "ré": 638,
    "AN": 639,
    "Ġknow": 640,
    "ann": 641,
    "만": 642,
    "13": 643,
    "ort": 644,
    "Ġday": 645,
    "oh": 646,
    "16": 647,
    "/": 648,
    "Ġus": 649,
    "Ġال": 650,
    "ĠC": 651,
    "Ġse": 652,
    "ness": 653,
    "for": 654,
    "19": 655,
    "mo": 656,
    "zen": 657,
    "eh": 658,
    "ost": 659,
    "Br": 660,
    "Sign": 661,
    "ć": 662,
    "att": 663,
    "Ġcom": 664,
    "ten": 665,
    "ler": 666,
    "ista": 667,
    "ĠHe": 668,
    "ta": 669,
    "jo": 670,
    "cr": 671,
    "amb": 672,
    "isch": 673,
    "Ġm": 674,
    "Qu": 675,
    "ĠLib": 676,
    "14": 677,
    "aut": 678,
    "You": 679,
    "du": 680,
    "Ġcome": 681,
    "ela": 682,
    "ret": 683,
    "ima": 684,
    "수": 685,
    "vent": 686,
    "min": 687,
    "land": 688,
    "ken": 689,
    "amento": 690,
    "li": 691,
    "20": 692,
    "Go": 693,
    "일": 694,
    "ser": 695,
    "ase": 696,
    "Ġc": 697,
    "sk": 698,
    "생": 699,
    "iar": 700,
    "gu": 701,
    "pa": 702,
    "ô": 703,
    "Ġen": 704,
    "ay": 705,
    "ĠF": 706,
    "En": 707,
    "Ġcame": 708,
    "ans": 709,
    "18": 710,
    "15": 711,
    "son": 712,
    "$tss": 713,
    "rel": 714,
    "ida": 715,
    "AS": 716,
    "MA": 717,
    "DE": 718,
    "제": 719,
    "Ġwhat": 720,
    "ť": 721,
    "Ġé": 722,
    "ês": 723,
    "Ex": 724,
    "ج": 725,
    "-s": 726,
    "ec": 727,
    "Ġam": 728,
    "Ġleft": 729,
    "quer": 730,
    "ĠBut": 731,
    "erv": 732,
    "Mar": 733,
    "uf": 734,
    "We": 735,
    "gl": 736,
    "At": 737,
    "ger": 738,
    "IS": 739,
    "ita": 740,
    "ém": 741,
    "$rsl": 742,
    "Oi": 743,
    "ência": 744,
    "part": 745,
    "john": 746,
    "Ġye": 747,
    "ry": 748,
    "ís": 749,
    "ss": 750,
    "col": 751,
    "Ġgo": 752,
    "$esl": 753,
    "ĠM": 754,
    "Ġright": 755,
    "ste": 756,
    "ille": 757,
    "ender": 758,
    "ign": 759,
    "ón": 760,
    "pt": 761,
    "Pl": 762,
    "Ġover": 763,
    "John": 764,
    "Ġgood": 765,
    "ence": 766,
    "vis": 767,
    "cher": 768,
    "000": 769,
    "ité": 770,
    ".mp": 771,
    "ando": 772,
    "Ġoff": 773,
    "자": 774,
    "éc": 775,
    "ru": 776,
    "-b": 777,
    "set": 778,
    "ria": 779,
    "ven": 780,
    "rem": 781,
    "It": 782,
    "rom": 783,
    "der": 784,
    "Ne": 785,
    "Ġv": 786,
    "ute": 787,
    "mat": 788,
    "not": 789,
    "$prl": 790,
    "AL": 791,
    "err": 792,
    "ity": 793,
    "oll": 794,
    "ian": 795,
    "app": 796,
    "iti": 797,
    "Pro": 798,
    "Ġor": 799,
    "ĠD": 800,
    "ه": 801,
    "imento": 802,
    "red": 803,
    "ling": 804,
    "What": 805,
    "RO": 806,
    "신": 807,
    "ont": 808,
    "ib": 809,
    "erg": 810,
    "17": 811,
    "itar": 812,
    "Per": 813,
    "Ass": 814,
    "SE": 815,
    "ros": 816,
    "치": 817,
    "ef": 818,
    "ós": 819,
    "por": 820,
    "Ġpeople": 821,
    "OS": 822,
    "들": 823,
    "Car": 824,
    "의": 825,
    "21": 826,
    "oso": 827,
    "Take": 828,
    "eta": 829,
    "acc": 830,
    "Ġg": 831,
    "igen": 832,
    "eng": 833,
    "CH": 834,
    "ement": 835,
    "asse": 836,
    "var": 837,
    "ater": 838,
    "부": 839,
    "Ġwent": 840,
    "ben": 841,
    "uit": 842,
    "ism": 843,
    "ule": 844,
    "mon": 845,
    "ave": 846,
    "sign": 847,
    "ep": 848,
    "Res": 849,
    "All": 850,
    "El": 851,
    "div": 852,
    "ĠN": 853,
    "éd": 854,
    "ies": 855,
    "esc": 856,
    "Ġb": 857,
    "Des": 858,
    "Ġt": 859,
    "ete": 860,
    "Ġmen": 861,
    "ER": 862,
    "Ġalso": 863,
    "Me": 864,
    "분": 865,
    "inho": 866,
    "أ": 867,
    "Ġthou": 868,
    "nen": 869,
    "fa": 870,
    "ß": 871,
    "stand": 872,
    "over": 873,
    "ong": 874,
    "hr": 875,
    "uc": 876,
    "ét": 877,
    "tre": 878,
    "오": 879,
    "ivo": 880,
    "Ġna": 881,
    "inc": 882,
    "ola": 883,
    "Ġso": 884,
    "sm": 885,
    "kr": 886,
    "Two": 887,
    "Port": 888,
    "For": 889,
    "ej": 890,
    "30": 891,
    "inter": 892,
    "도": 893,
    "arse": 894,
    "ose": 895,
    "IO": 896,
    "Bl": 897,
    "mal": 898,
    "di": 899,
    "the": 900,
    "ene": 901,
    "aw": 902,
    "-p": 903,
    "pol": 904,
    "Ġh": 905,
    "enc": 906,
    "상": 907,
    "Ġk": 908,
    "ço": 909,
    "Ġn": 910,
    "Ġthese": 911,
    "ás": 912,
    "vol": 913,
    "rec": 914,
    "ĠSign": 915,
    "come": 916,
    "결": 917,
    "Ġsur": 918,
    "orm": 919,
    "ismo": 920,
    "Ġyears": 921,
    "uer": 922,
    "IL": 923,
    "As": 924,
    "Ġlike": 925,
    "uss": 926,
    "Ġtwo": 927,
    "port": 928,
    "ĠSC": 929,
    "alt": 930,
    "Ġj": 931,
    "화": 932,
    "ense": 933,
    "Reg": 934,
    "ĠE": 935,
    "Ġf": 936,
    "uk": 937,
    "ĠLord": 938,
    "ph": 939,
    "eln": 940,
    "den": 941,
    "ática": 942,
    "get": 943,
    "dr": 944,
    "구": 945,
    "22": 946,
    "$zh-TW": 947,
    "ĠJ": 948,
    "olo": 949,
    "leg": 950,
    "-t": 951,
    "ning": 952,
    "-c": 953,
    "uz": 954,
    "auf": 955,
    "ath": 956,
    "arm": 957,
    "Ġle": 958,
    "ble": 959,
    "ama": 960,
    "Ġun": 961,
    "sc": 962,
    "los": 963,
    "Est": 964,
    "한": 965,
    "ร": 966,
    "cho": 967,
    "า": 968,
    "ación": 969,
    "cent": 970,
    "lim": 971,
    "test": 972,
    "anc": 973,
    "Ġmouth": 974,
    "met": 975,
    "해": 976,
    "ial": 977,
    "Ġdes": 978,
    "23": 979,
    "ero": 980,
    "-S": 981,
    "pen": 982,
    "rit": 983,
    "ary": 984,
    "ص": 985,
    "ش": 986,
    "gar": 987,
    "Ġway": 988,
    "Sub": 989,
    "24": 990,
    "$ru": 991,
    "iet": 992,
    "air": 993,
    "ĠO": 994,
    "cha": 995,
    "ister": 996,
    "can": 997,
    "ress": 998,
    "mit": 999,
    "Int": 1000,
    "IT": 1001,
    "ple": 1002,
    "$sqk": 1003,
    "Ġ'": 1004,
    "lic": 1005,
    "ér": 1006,
    "ĠT": 1007,
    "라": 1008,
    "bre": 1009,
    "är": 1010,
    "imo": 1011,
    "cal": 1012,
    "Sp": 1013,
    "amp": 1014,
    "Par": 1015,
    "kl": 1016,
    "ila": 1017,
    "Is": 1018,
    "ax": 1019,
    "ère": 1020,
    "Ġperson": 1021,
    "ft": 1022,
    "val": 1023,
    "abs": 1024,
    "Fe": 1025,
    "-M": 1026,
    "och": 1027,
    "ied": 1028,
    "Ġplace": 1029,
    "era": 1030,
    "ake": 1031,
    "문": 1032,
    "fo": 1033,
    "Hand": 1034,
    "ni": 1035,
    "atur": 1036,
    "-de": 1037,
    "ĠV": 1038,
    "cre": 1039,
    "-n": 1040,
    "Ġp": 1041,
    "inha": 1042,
    "Ol": 1043,
    "원": 1044,
    "Bo": 1045,
    "Ġu": 1046,
    "ía": 1047,
    "uel": 1048,
    "sal": 1049,
    "agem": 1050,
    "Ġdays": 1051,
    "ow": 1052,
    "ige": 1053,
    "nt": 1054,
    "ari": 1055,
    "IE": 1056,
    "ack": 1057,
    "oca": 1058,
    "-f": 1059,
    "เ": 1060,
    "Ġdos": 1061,
    "ick": 1062,
    "Ant": 1063,
    "ÃO": 1064,
    "UN": 1065,
    "iff": 1066,
    "person": 1067,
    "Em": 1068,
    "igo": 1069,
    "IN": 1070,
    "Ġthousand": 1071,
    "amar": 1072,
    "led": 1073,
    "izar": 1074,
    "bes": 1075,
    "Cor": 1076,
    "name": 1077,
    "els": 1078,
    "Ġsa": 1079,
    "27": 1080,
    "$fse": 1081,
    "ors": 1082,
    "lie": 1083,
    "Ġhas": 1084,
    "Ġbefore": 1085,
    "ON": 1086,
    "Ind": 1087,
    "Ġown": 1088,
    "ace": 1089,
    "200": 1090,
    "ema": 1091,
    "26": 1092,
    "25": 1093,
    "Ġson": 1094,
    "ame": 1095,
    "Ġwell": 1096,
    "char": 1097,
    "Acc": 1098,
    "unic": 1099,
    "vel": 1100,
    "$vsl": 1101,
    "Ġheart": 1102,
    "Ġthy": 1103,
    "mas": 1104,
    "conf": 1105,
    "น": 1106,
    "ult": 1107,
    "ail": 1108,
    "ula": 1109,
    "anda": 1110,
    "ster": 1111,
    "fall": 1112,
    "Bar": 1113,
    "28": 1114,
    "ija": 1115,
    "bel": 1116,
    "LE": 1117,
    "sl": 1118,
    "lib": 1119,
    "med": 1120,
    "Ġsaying": 1121,
    "ci": 1122,
    "Ġthree": 1123,
    "ĠK": 1124,
    "ele": 1125,
    "خ": 1126,
    "Ġhouse": 1127,
    "ĠH": 1128,
    "Ob": 1129,
    "주": 1130,
    "Ġmany": 1131,
    "gh": 1132,
    "ück": 1133,
    "Fort": 1134,
    "you": 1135,
    "ious": 1136,
    "ical": 1137,
    "Não": 1138,
    "Es": 1139,
    "ash": 1140,
    "ط": 1141,
    "100": 1142,
    "bal": 1143,
    "Get": 1144,
    "ote": 1145,
    "mp": 1146,
    "AG": 1147,
    "orn": 1148,
    "pet": 1149,
    "aff": 1150,
    "-h": 1151,
    "Ġabout": 1152,
    "kt": 1153,
    "sub": 1154,
    "ole": 1155,
    "cont": 1156,
    "cur": 1157,
    "ég": 1158,
    "Ġum": 1159,
    "ĠR": 1160,
    "én": 1161,
    "udo": 1162,
    "UF": 1163,
    "Ġfather": 1164,
    "Ġchildren": 1165,
    "ias": 1166,
    "Ġwicked": 1167,
    "ala": 1168,
    "pos": 1169,
    "ings": 1170,
    "iter": 1171,
    "Ġgive": 1172,
    "ôn": 1173,
    "jar": 1174,
    "itt": 1175,
    "act": 1176,
    "Ġsee": 1177,
    "ür": 1178,
    "tra": 1179,
    "$csg": 1180,
    "una": 1181,
    "exp": 1182,
    "mb": 1183,
    "Ġshe": 1184,
    "Ġlove": 1185,
    "elen": 1186,
    "cht": 1187,
    "ago": 1188,
    "PO": 1189,
    "Ent": 1190,
    "AC": 1191,
    "AM": 1192,
    "right": 1193,
    "ome": 1194,
    "hom": 1195,
    "OL": 1196,
    "ologia": 1197,
    "hen": 1198,
    "uro": 1199,
    "Cl": 1200,
    "rio": 1201,
    "ys": 1202,
    "ban": 1203,
    "Or": 1204,
    "MS": 1205,
    "Ag": 1206,
    "ues": 1207,
    "소": 1208,
    "Te": 1209,
    "mel": 1210,
    "self": 1211,
    "ko": 1212,
    "ĠChrist": 1213,
    "ref": 1214,
    "On": 1215,
    "AB": 1216,
    "#": 1217,
    "form": 1218,
    "อ": 1219,
    "oi": 1220,
    "iana": 1221,
    "illa": 1222,
    "hand": 1223,
    "La": 1224,
    "dar": 1225,
    "EN": 1226,
    "Ġlife": 1227,
    "pi": 1228,
    "NO": 1229,
    "off": 1230,
    "elling": 1231,
    "Er": 1232,
    "dom": 1233,
    "Ġdon": 1234,
    "comp": 1235,
    "Ġmar": 1236,
    "Ġcan": 1237,
    "look": 1238,
    "way": 1239,
    "inar": 1240,
    "ena": 1241,
    "Ġbecause": 1242,
    "ty": 1243,
    "hor": 1244,
    "God": 1245,
    "-D": 1246,
    "ager": 1247,
    "amin": 1248,
    "우": 1249,
    "Ac": 1250,
    "Give": 1251,
    "ves": 1252,
    "Ġdu": 1253,
    "29": 1254,
    "vi": 1255,
    "rir": 1256,
    "ck": 1257,
    "ank": 1258,
    "인": 1259,
    "공": 1260,
    "Ġder": 1261,
    "pan": 1262,
    "rest": 1263,
    "iste": 1264,
    "aud": 1265,
    "Ġanswered": 1266,
    "FR": 1267,
    "Ġthee": 1268,
    "sur": 1269,
    "RE": 1270,
    "IR": 1271,
    "$sq": 1272,
    "Ġtherefore": 1273,
    "ith": 1274,
    "Ġmay": 1275,
    "tem": 1276,
    "Jane": 1277,
    "del": 1278,
    "contr": 1279,
    "Bel": 1280,
    "Ġab": 1281,
    "cap": 1282,
    "Ġback": 1283,
    "ated": 1284,
    "abet": 1285,
    "OR": 1286,
    "ulo": 1287,
    "cam": 1288,
    "uck": 1289,
    "Sur": 1290,
    "Ġagain": 1291,
    "jan": 1292,
    "Good": 1293,
    "ator": 1294,
    "arn": 1295,
    "ode": 1296,
    "iment": 1297,
    "ts": 1298,
    "ette": 1299,
    "ese": 1300,
    "airro": 1301,
    "201": 1302,
    "How": 1303,
    "�다": 1304,
    "ament": 1305,
    "ios": 1306,
    "Cr": 1307,
    "ĠThey": 1308,
    "under": 1309,
    "CL": 1310,
    "tes": 1311,
    "bed": 1312,
    "40": 1313,
    "ĠZ": 1314,
    "Let": 1315,
    "Im": 1316,
    "old": 1317,
    "disc": 1318,
    "agen": 1319,
    "ium": 1320,
    "명": 1321,
    "add": 1322,
    "Ġthose": 1323,
    "Ġmore": 1324,
    "ident": 1325,
    "Ġafter": 1326,
    "don": 1327,
    "Ġtudo": 1328,
    "Ġif": 1329,
    "put": 1330,
    "Ġsay": 1331,
    "Ġnow": 1332,
    "abe": 1333,
    "sa": 1334,
    "경": 1335,
    "ł": 1336,
    "trans": 1337,
    "asc": 1338,
    "arch": 1339,
    "Ġpas": 1340,
    "ron": 1341,
    "Ġmade": 1342,
    "Ġtogether": 1343,
    "조": 1344,
    "ĠThen": 1345,
    "rist": 1346,
    "eter": 1347,
    "_": 1348,
    "33": 1349,
    "Ġearth": 1350,
    "Three": 1351,
    "Ap": 1352,
    "32": 1353,
    "Ġthan": 1354,
    "bi": 1355,
    ".fl": 1356,
    "Ġes": 1357,
    "Man": 1358,
    "él": 1359,
    "ations": 1360,
    ".wav": 1361,
    "pute": 1362,
    "ör": 1363,
    "rot": 1364,
    "ju": 1365,
    "ball": 1366,
    "But": 1367,
    "미": 1368,
    "Ġpass": 1369,
    "ley": 1370,
    "ión": 1371,
    "cri": 1372,
    "31": 1373,
    "US": 1374,
    "bol": 1375,
    "AD": 1376,
    "acht": 1377,
    "Del": 1378,
    "여": 1379,
    "Jo": 1380,
    "Gu": 1381,
    "Ġlight": 1382,
    "Ó": 1383,
    "iva": 1384,
    "len": 1385,
    "env": 1386,
    "take": 1387,
    "pat": 1388,
    "Co": 1389,
    "ende": 1390,
    "Sal": 1391,
    "ان": 1392,
    "Ġsent": 1393,
    "át": 1394,
    "Maria": 1395,
    "러": 1396,
    "ส": 1397,
    "ny": 1398,
    "ior": 1399,
    "ก": 1400,
    "akt": 1401,
    "ki": 1402,
    "ache": 1403,
    "room": 1404,
    "서": 1405,
    "fort": 1406,
    "bra": 1407,
    "202": 1408,
    "post": 1409,
    "ม": 1410,
    "Ġother": 1411,
    "Ġeyes": 1412,
    "ipe": 1413,
    "ime": 1414,
    "Can": 1415,
    "Ġth": 1416,
    "Col": 1417,
    "org": 1418,
    "New": 1419,
    "ats": 1420,
    "Don": 1421,
    "ull": 1422,
    "lu": 1423,
    "See": 1424,
    "hab": 1425,
    "aire": 1426,
    "ados": 1427,
    "PT": 1428,
    "CM": 1429,
    "-v": 1430,
    "urs": 1431,
    "ota": 1432,
    "So": 1433,
    "Ġhath": 1434,
    "bro": 1435,
    "Pass": 1436,
    "ev": 1437,
    "eur": 1438,
    "sw": 1439,
    "ĠLORD": 1440,
    "ris": 1441,
    "Ġdas": 1442,
    "ton": 1443,
    "rd": 1444,
    "Rel": 1445,
    "Ġlanguage": 1446,
    "rt": 1447,
    "mes": 1448,
    "ative": 1449,
    "Inter": 1450,
    "$fi": 1451,
    "Ġdisciples": 1452,
    "Í": 1453,
    "ll": 1454,
    "like": 1455,
    "ange": 1456,
    "-l": 1457,
    "este": 1458,
    "34": 1459,
    "ĠSur": 1460,
    "iser": 1461,
    "ali": 1462,
    "Ġbem": 1463,
    "elt": 1464,
    "Jesus": 1465,
    "ener": 1466,
    "by": 1467,
    "60": 1468,
    "Ġface": 1469,
    "Ġdie": 1470,
    "vid": 1471,
    "pal": 1472,
    "ink": 1473,
    "aleza": 1474,
    "Def": 1475,
    "Ġwords": 1476,
    "Ang": 1477,
    "50": 1478,
    "Ġsame": 1479,
    "CE": 1480,
    "heit": 1481,
    "ñ": 1482,
    "ungs": 1483,
    "Sw": 1484,
    "Ġre": 1485,
    "Ġr": 1486,
    "see": 1487,
    "ohn": 1488,
    "iane": 1489,
    "Under": 1490,
    "$ugy": 1491,
    "ERS": 1492,
    "35": 1493,
    "uir": 1494,
    "01": 1495,
    "abel": 1496,
    "내": 1497,
    "Ġsaw": 1498,
    "AT": 1499,
    "36": 1500,
    "Ġthen": 1501,
    "Ġheard": 1502,
    "ief": 1503,
    "-B": 1504,
    "uto": 1505,
    "imm": 1506,
    "my": 1507,
    "alle": 1508,
    "ĠStreet": 1509,
    "장": 1510,
    "mi": 1511,
    "ava": 1512,
    "Person": 1513,
    "에": 1514,
    "ee": 1515,
    "그": 1516,
    "ude": 1517,
    "su": 1518,
    "$hsh": 1519,
    "ume": 1520,
    "ours": 1521,
    "asa": 1522,
    "ars": 1523,
    "ET": 1524,
    "pio": 1525,
    "number": 1526,
    "cul": 1527,
    "encia": 1528,
    "kom": 1529,
    "iver": 1530,
    "Ġmuch": 1531,
    "ĠSão": 1532,
    "ème": 1533,
    "tom": 1534,
    "로": 1535,
    "esp": 1536,
    "rep": 1537,
    "iller": 1538,
    "desc": 1539,
    "08": 1540,
    "Ġset": 1541,
    "Ġil": 1542,
    "ßen": 1543,
    "aria": 1544,
    "Test": 1545,
    "Name": 1546,
    "pear": 1547,
    "Ġshould": 1548,
    "ui": 1549,
    "kn": 1550,
    "ici": 1551,
    "LO": 1552,
    "ĠVille": 1553,
    "~": 1554,
    "oma": 1555,
    "ória": 1556,
    "ges": 1557,
    "wer": 1558,
    "Sc": 1559,
    "비": 1560,
    "Ġrighteous": 1561,
    "Ġbeing": 1562,
    "mor": 1563,
    "ceive": 1564,
    "bon": 1565,
    "End": 1566,
    "ĠAl": 1567,
    "inn": 1568,
    "pir": 1569,
    "imp": 1570,
    "iah": 1571,
    "Ġwater": 1572,
    "Her": 1573,
    "00": 1574,
    "Ġwhere": 1575,
    "ĠCAS": 1576,
    "iqu": 1577,
    "has": 1578,
    "Str": 1579,
    "Ġy": 1580,
    "ga": 1581,
    "eld": 1582,
    "Pre": 1583,
    "ية": 1584,
    "Ġtake": 1585,
    "ĠWhen": 1586,
    "Six": 1587,
    "Out": 1588,
    "ush": 1589,
    "ander": 1590,
    "unter": 1591,
    "ĠYah": 1592,
    "ulation": 1593,
    "stit": 1594,
    "pot": 1595,
    "ify": 1596,
    "HO": 1597,
    "ular": 1598,
    "oz": 1599,
    "oral": 1600,
    "give": 1601,
    "Four": 1602,
    "ivers": 1603,
    "rog": 1604,
    "alm": 1605,
    "Mat": 1606,
    "Hi": 1607,
    "Ġlet": 1608,
    "iger": 1609,
    "enn": 1610,
    "chn": 1611,
    "rev": 1612,
    "inf": 1613,
    "ät": 1614,
    "lev": 1615,
    "best": 1616,
    "Ç": 1617,
    "ison": 1618,
    "iação": 1619,
    "Ele": 1620,
    "42": 1621,
    "용": 1622,
    "omb": 1623,
    "IG": 1624,
    "-g": 1625,
    "Ġanother": 1626,
    "-L": 1627,
    "ít": 1628,
    "nie": 1629,
    "fin": 1630,
    "ario": 1631,
    "UR": 1632,
    "cação": 1633,
    "anz": 1634,
    "Wh": 1635,
    "RA": 1636,
    "Eu": 1637,
    "Mal": 1638,
    "EM": 1639,
    "Ġpor": 1640,
    "isk": 1641,
    "def": 1642,
    "ating": 1643,
    "wa": 1644,
    "uni": 1645,
    "37": 1646,
    "Ġthrough": 1647,
    "001": 1648,
    "über": 1649,
    "wo": 1650,
    "far": 1651,
    "prof": 1652,
    "erto": 1653,
    "alf": 1654,
    "Pa": 1655,
    "Luc": 1656,
    "Ġnão": 1657,
    "ild": 1658,
    "osa": 1659,
    "ns": 1660,
    "Ġou": 1661,
    "richt": 1662,
    "Ġz": 1663,
    "Ġupon": 1664,
    "rou": 1665,
    "Ġch": 1666,
    "41": 1667,
    "Ġtr": 1668,
    "Che": 1669,
    "asser": 1670,
    "Val": 1671,
    "ĠSilva": 1672,
    "log": 1673,
    "Fr": 1674,
    "38": 1675,
    "Ġcalled": 1676,
    "ĠLu": 1677,
    "ativ": 1678,
    "abor": 1679,
    "zy": 1680,
    "fen": 1681,
    "Ġgreat": 1682,
    "super": 1683,
    "Pal": 1684,
    "CA": 1685,
    ".avi": 1686,
    "NE": 1687,
    "Ġword": 1688,
    "ĠFather": 1689,
    "Hello": 1690,
    "$cse": 1691,
    "idad": 1692,
    "its": 1693,
    "ition": 1694,
    "avo": 1695,
    "ĠW": 1696,
    "-a": 1697,
    "lig": 1698,
    "dos": 1699,
    "apa": 1700,
    "$eth": 1701,
    "ง": 1702,
    "ram": 1703,
    "iner": 1704,
    "Math": 1705,
    "First": 1706,
    "sn": 1707,
    "esch": 1708,
    "$dse": 1709,
    "ĠDE": 1710,
    "uh": 1711,
    "oy": 1712,
    "iano": 1713,
    "osto": 1714,
    "long": 1715,
    "ks": 1716,
    "cel": 1717,
    "emb": 1718,
    "Change": 1719,
    "enda": 1720,
    "lag": 1721,
    "elf": 1722,
    "Lib": 1723,
    "39": 1724,
    "Ġdid": 1725,
    "ño": 1726,
    "ther": 1727,
    "Look": 1728,
    "90": 1729,
    "48": 1730,
    "Ġlong": 1731,
    "lar": 1732,
    "fil": 1733,
    "Twenty": 1734,
    "seg": 1735,
    "Head": 1736,
    "?\"": 1737,
    "45": 1738,
    "Ġhimself": 1739,
    "ĠLanguage": 1740,
    "net": 1741,
    "si": 1742,
    "ions": 1743,
    "inform": 1744,
    "good": 1745,
    "van": 1746,
    "elo": 1747,
    "undo": 1748,
    "onder": 1749,
    "eu": 1750,
    "Ġcity": 1751,
    "emp": 1752,
    "SS": 1753,
    "Av": 1754,
    "-me": 1755,
    "-A": 1756,
    "ว": 1757,
    "غ": 1758,
    "Ġknowledge": 1759,
    "well": 1760,
    "pu": 1761,
    "dia": 1762,
    "TE": 1763,
    "App": 1764,
    "Ġwoman": 1765,
    "Ġold": 1766,
    "Ġevil": 1767,
    "Min": 1768,
    "03": 1769,
    "Ġtree": 1770,
    "ines": 1771,
    "PE": 1772,
    "wh": 1773,
    "ição": 1774,
    "itter": 1775,
    "ight": 1776,
    "IC": 1777,
    "orr": 1778,
    "mod": 1779,
    "Ze": 1780,
    "sel": 1781,
    "rim": 1782,
    "Ġyear": 1783,
    "Ġver": 1784,
    "Ġevery": 1785,
    "ps": 1786,
    "neg": 1787,
    "oir": 1788,
    "gre": 1789,
    "band": 1790,
    "Ġworld": 1791,
    "ump": 1792,
    "That": 1793,
    "Ġside": 1794,
    "Ġour": 1795,
    "ym": 1796,
    "sent": 1797,
    "dec": 1798,
    "Eight": 1799,
    "ض": 1800,
    "essoa": 1801,
    "ande": 1802,
    "Div": 1803,
    ".mov": 1804,
    "Ġoneself": 1805,
    "AP": 1806,
    "achen": 1807,
    "43": 1808,
    "Ġhead": 1809,
    "gel": 1810,
    "ahr": 1811,
    "Ġvocê": 1812,
    "ë": 1813,
    "unk": 1814,
    "ran": 1815,
    "Ġq": 1816,
    "voir": 1817,
    "ekt": 1818,
    "Ġwhom": 1819,
    "Ġforth": 1820,
    "zie": 1821,
    "iel": 1822,
    "Ġget": 1823,
    "uen": 1824,
    "CO": 1825,
    "ti": 1826,
    "mother": 1827,
    "cola": 1828,
    "02": 1829,
    "Ġany": 1830,
    "urt": 1831,
    "sem": 1832,
    "etic": 1833,
    "tor": 1834,
    "aux": 1835,
    "This": 1836,
    "Conf": 1837,
    "ล": 1838,
    "quire": 1839,
    "lement": 1840,
    "ped": 1841,
    "orgen": 1842,
    "atro": 1843,
    "Ġhands": 1844,
    "vert": 1845,
    "ible": 1846,
    "Oh": 1847,
    "sol": 1848,
    "adr": 1849,
    "unn": 1850,
    "ao": 1851,
    "$isr": 1852,
    "Ġmoney": 1853,
    "Ġlaw": 1854,
    "Ġeat": 1855,
    "Mon": 1856,
    "üh": 1857,
    "ixo": 1858,
    "Ġeven": 1859,
    "ĠFederal": 1860,
    "ĠSantos": 1861,
    "hip": 1862,
    "-C": 1863,
    "Ġwork": 1864,
    "ĠSon": 1865,
    "ÇÃO": 1866,
    "ric": 1867,
    "mag": 1868,
    "grand": 1869,
    "QU": 1870,
    "Ġyet": 1871,
    "Ġagainst": 1872,
    "ature": 1873,
    "44": 1874,
    "Ġuma": 1875,
    "Ġpar": 1876,
    "nia": 1877,
    "Ter": 1878,
    "Every": 1879,
    "ار": 1880,
    "ĠDo": 1881,
    "rig": 1882,
    "raz": 1883,
    "oss": 1884,
    "irm": 1885,
    "atter": 1886,
    "70": 1887,
    "Ġund": 1888,
    "kon": 1889,
    "ants": 1890,
    "aba": 1891,
    "Long": 1892,
    "요": 1893,
    "Ġro": 1894,
    "ingers": 1895,
    "igung": 1896,
    "alar": 1897,
    "Red": 1898,
    "uff": 1899,
    "sv": 1900,
    "Art": 1901,
    "Ġseven": 1902,
    "zo": 1903,
    "nov": 1904,
    "mos": 1905,
    "uda": 1906,
    "rv": 1907,
    "animal": 1908,
    "Ge": 1909,
    "-G": 1910,
    "Ġqu": 1911,
    "kle": 1912,
    "isa": 1913,
    "Writing": 1914,
    "She": 1915,
    "hum": 1916,
    "fel": 1917,
    "Unt": 1918,
    ".web": 1919,
    "-R": 1920,
    "cou": 1921,
    "ape": 1922,
    "Ġtook": 1923,
    "nam": 1924,
    "gi": 1925,
    "aro": 1926,
    "Il": 1927,
    "야": 1928,
    "ز": 1929,
    "Ġamong": 1930,
    "ĠNow": 1931,
    "mente": 1932,
    "ey": 1933,
    "anger": 1934,
    "amente": 1935,
    "Dr": 1936,
    "49": 1937,
    "two": 1938,
    "plan": 1939,
    "ini": 1940,
    "iente": 1941,
    "ark": 1942,
    "alo": 1943,
    "Sil": 1944,
    "Exp": 1945,
    "ika": 1946,
    "cu": 1947,
    "DO": 1948,
    "80": 1949,
    "$hu": 1950,
    "án": 1951,
    "umb": 1952,
    "sten": 1953,
    "Ġtell": 1954,
    "uno": 1955,
    "oud": 1956,
    "Ġwise": 1957,
    "Ġmake": 1958,
    "une": 1959,
    "pres": 1960,
    "cas": 1961,
    "Sk": 1962,
    "'m": 1963,
    "rita": 1964,
    "atar": 1965,
    "ship": 1966,
    "ider": 1967,
    "eto": 1968,
    "erm": 1969,
    "ents": 1970,
    "Imp": 1971,
    "IST": 1972,
    "Ġlot": 1973,
    "ĠIn": 1974,
    "qui": 1975,
    "gest": 1976,
    "express": 1977,
    "arg": 1978,
    "Back": 1979,
    "Absent": 1980,
    "$he": 1981,
    "oto": 1982,
    "uta": 1983,
    "lem": 1984,
    "HA": 1985,
    "07": 1986,
    "Ġma": 1987,
    "anto": 1988,
    "BE": 1989,
    "되": 1990,
    "Ġspeak": 1991,
    "Ġdia": 1992,
    "Ġbody": 1993,
    "Set": 1994,
    "être": 1995,
    "nis": 1996,
    "oul": 1997,
    "organ": 1998,
    "lang": 1999,
    "ikk": 2000,
    "ein": 2001,
    "bs": 2002,
    "55": 2003,
    "46": 2004,
    "Ġtal": 2005,
    "Ġmother": 2006,
    "ès": 2007,
    "-up": 2008,
    "Ġheaven": 2009,
    "sim": 2010,
    "olog": 2011,
    "itation": 2012,
    "ih": 2013,
    "Turn": 2014,
    "Move": 2015,
    "inate": 2016,
    "erra": 2017,
    "aim": 2018,
    "Pol": 2019,
    "Pe": 2020,
    "Ma": 2021,
    "rg": 2022,
    "nder": 2023,
    "Bes": 2024,
    "ĠLet": 2025,
    "mir": 2026,
    "ky": 2027,
    "kel": 2028,
    "ett": 2029,
    "ets": 2030,
    "Sup": 2031,
    "름": 2032,
    "Ġexist": 2033,
    "Ġdire": 2034,
    "ĠSo": 2035,
    "work": 2036,
    "erta": 2037,
    "Ed": 2038,
    "Ü": 2039,
    "jet": 2040,
    "ht": 2041,
    "ely": 2042,
    "Water": 2043,
    "ĠUF": 2044,
    "Ca": 2045,
    "ด": 2046,
    "î": 2047,
    "INA": 2048,
    "Clean": 2049,
    "Sem": 2050,
    "اب": 2051,
    "zt": 2052,
    "liv": 2053,
    "lin": 2054,
    "fé": 2055,
    "CAS": 2056,
    "ução": 2057,
    "ral": 2058,
    "erc": 2059,
    "Ġland": 2060,
    "Ġhour": 2061,
    "Jan": 2062,
    "Fil": 2063,
    "67": 2064,
    "amm": 2065,
    "Work": 2066,
    "-F": 2067,
    "ĠDeus": 2068,
    "ï": 2069,
    "ient": 2070,
    "Ġw": 2071,
    "Ġchild": 2072,
    "Five": 2073,
    "ĠJews": 2074,
    "urg": 2075,
    "rad": 2076,
    "pas": 2077,
    "ische": 2078,
    "aven": 2079,
    "Open": 2080,
    "ż": 2081,
    "Ġking": 2082,
    "Ġdone": 2083,
    "utter": 2084,
    "rer": 2085,
    "orte": 2086,
    "Mis": 2087,
    "Ġunderstanding": 2088,
    "Ġal": 2089,
    "æ": 2090,
    "light": 2091,
    "ioso": 2092,
    "iate": 2093,
    "UG": 2094,
    "OC": 2095,
    "vir": 2096,
    "ait": 2097,
    "ĠMaria": 2098,
    "vor": 2099,
    "itor": 2100,
    "Je": 2101,
    "ument": 2102,
    "rent": 2103,
    "fly": 2104,
    "book": 2105,
    "ask": 2106,
    "aci": 2107,
    "rend": 2108,
    "ona": 2109,
    "ff": 2110,
    "ez": 2111,
    "Univers": 2112,
    "PA": 2113,
    "Ġnight": 2114,
    "äng": 2115,
    "uid": 2116,
    "tern": 2117,
    "Ped": 2118,
    "PI": 2119,
    "Ġsomething": 2120,
    "Ġdel": 2121,
    "esse": 2122,
    "Ġhere": 2123,
    "reat": 2124,
    "hol": 2125,
    "ares": 2126,
    "agn": 2127,
    "fre": 2128,
    "eli": 2129,
    "ĠDe": 2130,
    "oo": 2131,
    "gal": 2132,
    "Ġwould": 2133,
    "iga": 2134,
    "ifer": 2135,
    "ald": 2136,
    "There": 2137,
    "Ġles": 2138,
    "pes": 2139,
    "past": 2140,
    "head": 2141,
    "but": 2142,
    "antes": 2143,
    "Tw": 2144,
    "91": 2145,
    "51": 2146,
    "동": 2147,
    "Ġlittle": 2148,
    "Ġforward": 2149,
    "rap": 2150,
    "inger": 2151,
    "heiro": 2152,
    "IF": 2153,
    "$zh-CN": 2154,
    "Ġsomeone": 2155,
    "ker": 2156,
    "illo": 2157,
    "Po": 2158,
    "64": 2159,
    "54": 2160,
    "음": 2161,
    "ĠU": 2162,
    "inder": 2163,
    "ST": 2164,
    "351": 2165,
    "-in": 2166,
    "ín": 2167,
    "ulado": 2168,
    "cin": 2169,
    "aze": 2170,
    "BA": 2171,
    "AND": 2172,
    "open": 2173,
    "Ha": 2174,
    "Di": 2175,
    "dem": 2176,
    "UL": 2177,
    "Ein": 2178,
    "omet": 2179,
    "ní": 2180,
    "day": 2181,
    "Rest": 2182,
    "IRE": 2183,
    "Ġtimes": 2184,
    "Ġsp": 2185,
    "Ġfour": 2186,
    "nik": 2187,
    "iten": 2188,
    "acer": 2189,
    "61": 2190,
    "ĠSpirit": 2191,
    "there": 2192,
    "sup": 2193,
    "hal": 2194,
    "Van": 2195,
    "OM": 2196,
    "$am": 2197,
    "Ġput": 2198,
    "ibus": 2199,
    "aste": 2200,
    "Ana": 2201,
    "ام": 2202,
    "verb": 2203,
    "aine": 2204,
    "ات": 2205,
    "Ġli": 2206,
    "UB": 2207,
    "Have": 2208,
    "Aut": 2209,
    "56": 2210,
    "Ġwisdom": 2211,
    "just": 2212,
    "Ph": 2213,
    "ต": 2214,
    "Ġseu": 2215,
    "ál": 2216,
    "ilo": 2217,
    "Ġfirst": 2218,
    "jon": 2219,
    "cle": 2220,
    "help": 2221,
    "Auf": 2222,
    "Ġnome": 2223,
    "ør": 2224,
    "uar": 2225,
    "aper": 2226,
    "Gen": 2227,
    "-J": 2228,
    "enz": 2229,
    "bit": 2230,
    "teen": 2231,
    "rid": 2232,
    "read": 2233,
    "Cur": 2234,
    "ค": 2235,
    "uy": 2236,
    "pare": 2237,
    "San": 2238,
    "69": 2239,
    "iert": 2240,
    "Trans": 2241,
    "Dé": 2242,
    "ADO": 2243,
    "اء": 2244,
    "Ġgoing": 2245,
    "ting": 2246,
    "preh": 2247,
    "Ġlips": 2248,
    "oth": 2249,
    "into": 2250,
    "ific": 2251,
    "Ra": 2252,
    "Health": 2253,
    "Great": 2254,
    "ĠPeter": 2255,
    "time": 2256,
    "sect": 2257,
    "Part": 2258,
    "Cap": 2259,
    "06": 2260,
    "Ġint": 2261,
    "Ġim": 2262,
    "die": 2263,
    "Sun": 2264,
    "Post": 2265,
    "Cont": 2266,
    "58": 2267,
    "ย": 2268,
    "Ġfound": 2269,
    "pect": 2270,
    "estr": 2271,
    "Put": 2272,
    "rie": 2273,
    "inte": 2274,
    "53": 2275,
    "회": 2276,
    "Ġos": 2277,
    "ough": 2278,
    "nes": 2279,
    "cat": 2280,
    "berg": 2281,
    "$cs": 2282,
    "ização": 2283,
    "have": 2284,
    "anco": 2285,
    "Lu": 2286,
    "65": 2287,
    "Ġwalk": 2288,
    "ĠEs": 2289,
    "sto": 2290,
    "rat": 2291,
    "onto": 2292,
    "avi": 2293,
    "aring": 2294,
    "Over": 2295,
    "ques": 2296,
    "own": 2297,
    "atz": 2298,
    "alk": 2299,
    "By": 2300,
    "Ġglory": 2301,
    "ĠApt": 2302,
    "onne": 2303,
    "igkeit": 2304,
    "Well": 2305,
    "TR": 2306,
    "Ġcomp": 2307,
    "how": 2308,
    "gle": 2309,
    "fol": 2310,
    "color": 2311,
    "87": 2312,
    "ير": 2313,
    "Ġhair": 2314,
    "aber": 2315,
    "EU": 2316,
    "57": 2317,
    "-H": 2318,
    "father": 2319,
    "bat": 2320,
    "HE": 2321,
    "ED": 2322,
    "place": 2323,
    "fast": 2324,
    "Die": 2325,
    "Abs": 2326,
    "Ġest": 2327,
    "pend": 2328,
    "mil": 2329,
    "isc": 2330,
    "fi": 2331,
    "arte": 2332,
    "ZH": 2333,
    "Right": 2334,
    "Aus": 2335,
    "äh": 2336,
    "water": 2337,
    "regar": 2338,
    "joy": 2339,
    "ingu": 2340,
    "four": 2341,
    "fon": 2342,
    "ext": 2343,
    "Come": 2344,
    "-P": 2345,
    "ília": 2346,
    "ova": 2347,
    "eler": 2348,
    "Esc": 2349,
    "04": 2350,
    "Ġvery": 2351,
    "ĠIsrael": 2352,
    "zig": 2353,
    "59": 2354,
    "roll": 2355,
    "eno": 2356,
    "cart": 2357,
    "bers": 2358,
    "Text": 2359,
    "복": 2360,
    "Ġvon": 2361,
    "ĠIt": 2362,
    "zeit": 2363,
    "mand": 2364,
    "loss": 2365,
    "bew": 2366,
    "autom": 2367,
    "Ġpelo": 2368,
    "Ġpart": 2369,
    "Ġfive": 2370,
    "uv": 2371,
    "ried": 2372,
    "Super": 2373,
    "-K": 2374,
    "wind": 2375,
    "rag": 2376,
    "dire": 2377,
    "Enc": 2378,
    "ิ": 2379,
    "rop": 2380,
    "lik": 2381,
    "itz": 2382,
    "Bro": 2383,
    "ĠRe": 2384,
    "zer": 2385,
    "numero": 2386,
    "cro": 2387,
    "Dar": 2388,
    "Ġnicht": 2389,
    "Ġhow": 2390,
    "verse": 2391,
    "nehmen": 2392,
    "esso": 2393,
    "Express": 2394,
    "Ġlook": 2395,
    "Gl": 2396,
    "66": 2397,
    "đ": 2398,
    "ün": 2399,
    "yes": 2400,
    "unto": 2401,
    "leta": 2402,
    "inta": 2403,
    "When": 2404,
    "Tor": 2405,
    "Region": 2406,
    "Ġ변": 2407,
    "press": 2408,
    "lat": 2409,
    "ift": 2410,
    "ificar": 2411,
    "Where": 2412,
    "run": 2413,
    "pon": 2414,
    "iza": 2415,
    "inh": 2416,
    "dist": 2417,
    "ality": 2418,
    "Ġfe": 2419,
    "stitute": 2420,
    "sit": 2421,
    "dre": 2422,
    "angel": 2423,
    "52": 2424,
    "-T": 2425,
    "Ġsin": 2426,
    "Ġbread": 2427,
    "mus": 2428,
    "irt": 2429,
    "eral": 2430,
    "auen": 2431,
    "any": 2432,
    "Wind": 2433,
    "TO": 2434,
    "99": 2435,
    "ologie": 2436,
    "icher": 2437,
    "aten": 2438,
    "ae": 2439,
    "Fre": 2440,
    "DK": 2441,
    "Ġdrink": 2442,
    "ovo": 2443,
    "esta": 2444,
    "erte": 2445,
    "dd": 2446,
    "They": 2447,
    "93": 2448,
    "ĠJan": 2449,
    "Ste": 2450,
    "PR": 2451,
    "Grand": 2452,
    ".t": 2453,
    ".csv": 2454,
    "make": 2455,
    "cast": 2456,
    "Question": 2457,
    "Ir": 2458,
    "AE": 2459,
    "six": 2460,
    "rito": 2461,
    "oda": 2462,
    "jn": 2463,
    "Por": 2464,
    "cons": 2465,
    "zi": 2466,
    "present": 2467,
    "enter": 2468,
    "embro": 2469,
    "aca": 2470,
    "Son": 2471,
    "Mad": 2472,
    ".jpeg": 2473,
    ".de": 2474,
    "-r": 2475,
    "program": 2476,
    "back": 2477,
    "aul": 2478,
    "Sl": 2479,
    "Ġi": 2480,
    "atura": 2481,
    "apt": 2482,
    "Saint": 2483,
    "Cam": 2484,
    "Best": 2485,
    "Ber": 2486,
    "05": 2487,
    "Ġvoice": 2488,
    "Ġend": 2489,
    "û": 2490,
    "érer": 2491,
    "emat": 2492,
    "ates": 2493,
    "ahl": 2494,
    "Prof": 2495,
    "ท": 2496,
    "Ġcare": 2497,
    "temp": 2498,
    "poss": 2499,
    "more": 2500,
    "isme": 2501,
    "aje": 2502,
    "Um": 2503,
    "92": 2504,
    "62": 2505,
    "ête": 2506,
    "º": 2507,
    "unde": 2508,
    "oria": 2509,
    "BO": 2510,
    "68": 2511,
    "์": 2512,
    "love": 2513,
    "fish": 2514,
    "Ġcar": 2515,
    "Ġano": 2516,
    "ĠBrasil": 2517,
    "uito": 2518,
    "agar": 2519,
    "IZ": 2520,
    "Form": 2521,
    "ะ": 2522,
    "88": 2523,
    "63": 2524,
    "Ġne": 2525,
    "Ġfür": 2526,
    "turn": 2527,
    "sil": 2528,
    "ecer": 2529,
    "ct": 2530,
    "Little": 2531,
    "Bank": 2532,
    "Ġaround": 2533,
    "orro": 2534,
    "nom": 2535,
    "legen": 2536,
    "igar": 2537,
    "cia": 2538,
    "82": 2539,
    "$sfs": 2540,
    "sexual": 2541,
    "opp": 2542,
    "ichen": 2543,
    "elho": 2544,
    "ania": 2545,
    "SC": 2546,
    "IM": 2547,
    "Even": 2548,
    "래": 2549,
    "Ġkeep": 2550,
    "show": 2551,
    "bad": 2552,
    "arian": 2553,
    "North": 2554,
    "Ġter": 2555,
    "Ġnothing": 2556,
    "ugu": 2557,
    "roz": 2558,
    "point": 2559,
    "las": 2560,
    "Same": 2561,
    "Gar": 2562,
    "-feira": 2563,
    "Ġspirit": 2564,
    "Ġbeg": 2565,
    "uba": 2566,
    "prec": 2567,
    "89": 2568,
    "74": 2569,
    "ĠAr": 2570,
    "üt": 2571,
    "ön": 2572,
    "erk": 2573,
    "bot": 2574,
    "asp": 2575,
    "DA": 2576,
    "크": 2577,
    "mm": 2578,
    "line": 2579,
    "ery": 2580,
    "Vers": 2581,
    ".txt": 2582,
    "Ġyourself": 2583,
    "tele": 2584,
    "ematics": 2585,
    "Similar": 2586,
    "Fra": 2587,
    "86": 2588,
    "Ġbed": 2589,
    "gram": 2590,
    "bin": 2591,
    "Old": 2592,
    "47": 2593,
    "Ġwhole": 2594,
    "stre": 2595,
    "Number": 2596,
    "으": 2597,
    "Ġsons": 2598,
    "ward": 2599,
    "lex": 2600,
    "ella": 2601,
    "Ġsome": 2602,
    "sen": 2603,
    "oun": 2604,
    "omm": 2605,
    "iso": 2606,
    "anch": 2607,
    "FC": 2608,
    "75": 2609,
    "/C": 2610,
    "Ġtwenty": 2611,
    "ĠMel": 2612,
    "walk": 2613,
    "ily": 2614,
    "ibe": 2615,
    "geben": 2616,
    "fire": 2617,
    "aur": 2618,
    "Ro": 2619,
    "PRE": 2620,
    "Ġta": 2621,
    "uld": 2622,
    "pod": 2623,
    "hh": 2624,
    "IB": 2625,
    "Ġhear": 2626,
    "Ġbeen": 2627,
    "stop": 2628,
    "rc": 2629,
    "ove": 2630,
    "exc": 2631,
    "eren": 2632,
    "Tem": 2633,
    "Mil": 2634,
    "95": 2635,
    ".bmp": 2636,
    "Ġhigh": 2637,
    "Ġel": 2638,
    "ahn": 2639,
    "MAR": 2640,
    "Ġwife": 2641,
    "Ġte": 2642,
    "ث": 2643,
    "Ġdoor": 2644,
    "Ġdeath": 2645,
    "Ġbecame": 2646,
    "upt": 2647,
    "tro": 2648,
    "ory": 2649,
    "ology": 2650,
    "left": 2651,
    "iß": 2652,
    "UM": 2653,
    "Sm": 2654,
    "Happy": 2655,
    "98": 2656,
    "94": 2657,
    "ů": 2658,
    "mis": 2659,
    "loc": 2660,
    "ani": 2661,
    "85": 2662,
    "Ġbelieve": 2663,
    "PL": 2664,
    "ا�": 2665,
    "utor": 2666,
    "uge": 2667,
    "ever": 2668,
    "Mo": 2669,
    "Close": 2670,
    "78": 2671,
    "Ġmit": 2672,
    "Ġestá": 2673,
    "trad": 2674,
    "eff": 2675,
    "ced": 2676,
    "ME": 2677,
    "Ġthing": 2678,
    "Ġfaith": 2679,
    "äch": 2680,
    "what": 2681,
    "weg": 2682,
    "som": 2683,
    "pour": 2684,
    "mov": 2685,
    "eling": 2686,
    ".png": 2687,
    "-k": 2688,
    "Ġwithout": 2689,
    "Ġsoul": 2690,
    "Ġgave": 2691,
    "Ġba": 2692,
    "aver": 2693,
    "aster": 2694,
    "Child": 2695,
    "Ġpela": 2696,
    "ya": 2697,
    "peg": 2698,
    "move": 2699,
    "ils": 2700,
    "ilet": 2701,
    "idence": 2702,
    "aco": 2703,
    "ĠIP": 2704,
    "ree": 2705,
    "pers": 2706,
    "ower": 2707,
    "last": 2708,
    "ière": 2709,
    "ixa": 2710,
    "gor": 2711,
    "change": 2712,
    "ativo": 2713,
    "ally": 2714,
    "Sam": 2715,
    "Ins": 2716,
    "Aff": 2717,
    "니다": 2718,
    "ี": 2719,
    "ünd": 2720,
    "star": 2721,
    "rm": 2722,
    "olar": 2723,
    "oci": 2724,
    "list": 2725,
    "ival": 2726,
    "indo": 2727,
    "Up": 2728,
    "May": 2729,
    "Mag": 2730,
    "IV": 2731,
    "Ba": 2732,
    "79": 2733,
    "71": 2734,
    ".html": 2735,
    ".doc": 2736,
    "Ġunderstand": 2737,
    "Ġer": 2738,
    "ved": 2739,
    "urar": 2740,
    "ungen": 2741,
    "uj": 2742,
    "oder": 2743,
    "hl": 2744,
    "andon": 2745,
    "Item": 2746,
    "rea": 2747,
    "ommen": 2748,
    "ites": 2749,
    "dy": 2750,
    "content": 2751,
    "bet": 2752,
    "arc": 2753,
    "Modify": 2754,
    "uis": 2755,
    "lan": 2756,
    "guard": 2757,
    "class": 2758,
    "Support": 2759,
    "Of": 2760,
    "ّ": 2761,
    "Ġnor": 2762,
    "Ġauf": 2763,
    "ível": 2764,
    "ées": 2765,
    "zw": 2766,
    "urb": 2767,
    "real": 2768,
    "fant": 2769,
    "ering": 2770,
    "Thank": 2771,
    "Mel": 2772,
    "-do": 2773,
    "게": 2774,
    "termin": 2775,
    "mot": 2776,
    "bor": 2777,
    "ança": 2778,
    "Yes": 2779,
    "83": 2780,
    "72": 2781,
    "ذ": 2782,
    "ĠGal": 2783,
    "icken": 2784,
    "fore": 2785,
    "emon": 2786,
    "atan": 2787,
    "Rem": 2788,
    "Med": 2789,
    "Id": 2790,
    "81": 2791,
    "ห": 2792,
    "unc": 2793,
    "serve": 2794,
    "omen": 2795,
    "ogen": 2796,
    "Real": 2797,
    "76": 2798,
    "บ": 2799,
    "Ġwhile": 2800,
    "Ġprop": 2801,
    "Ġbrought": 2802,
    "table": 2803,
    "appen": 2804,
    ".jpg": 2805,
    "ustr": 2806,
    "Ren": 2807,
    "-E": 2808,
    "bas": 2809,
    "Please": 2810,
    "...": 2811,
    "Ġ“": 2812,
    "vest": 2813,
    "ugar": 2814,
    "ork": 2815,
    "oni": 2816,
    "ional": 2817,
    "ension": 2818,
    "cut": 2819,
    "bst": 2820,
    "Ev": 2821,
    "Ġfood": 2822,
    "Ġflesh": 2823,
    "rum": 2824,
    "ols": 2825,
    "ives": 2826,
    "dest": 2827,
    "Ten": 2828,
    "Fel": 2829,
    "spr": 2830,
    "pf": 2831,
    "ID": 2832,
    "wei": 2833,
    "rr": 2834,
    "orrow": 2835,
    "live": 2836,
    "chi": 2837,
    "anta": 2838,
    "Var": 2839,
    "Make": 2840,
    "Light": 2841,
    "High": 2842,
    "09": 2843,
    "Ġfront": 2844,
    "iden": 2845,
    "Ġwant": 2846,
    "Ġmorning": 2847,
    "stra": 2848,
    "chat": 2849,
    "anna": 2850,
    "ami": 2851,
    "Who": 2852,
    "ículo": 2853,
    "uma": 2854,
    "sum": 2855,
    "fac": 2856,
    "een": 2857,
    "UC": 2858,
    "LS": 2859,
    "Disc": 2860,
    "Break": 2861,
    "Ġonly": 2862,
    "ße": 2863,
    "adora": 2864,
    "Keep": 2865,
    "dro": 2866,
    "boa": 2867,
    "97": 2868,
    "600": 2869,
    "ĠAn": 2870,
    "uter": 2871,
    "new": 2872,
    "geb": 2873,
    "ester": 2874,
    "OK": 2875,
    "900": 2876,
    "090": 2877,
    "Ġschool": 2878,
    "Ġper": 2879,
    "Ġago": 2880,
    "zar": 2881,
    "uchen": 2882,
    "order": 2883,
    "opt": 2884,
    "mt": 2885,
    "may": 2886,
    "ixe": 2887,
    "hi": 2888,
    "azer": 2889,
    "aid": 2890,
    "199": 2891,
    "ĠJo": 2892,
    "prop": 2893,
    "iot": 2894,
    "iling": 2895,
    "big": 2896,
    "ardo": 2897,
    "ains": 2898,
    "-to": 2899,
    "ั": 2900,
    "Ġneither": 2901,
    "ĠShe": 2902,
    "ville": 2903,
    "mc": 2904,
    "illy": 2905,
    "comm": 2906,
    "amos": 2907,
    "Mont": 2908,
    "Den": 2909,
    "Ġroom": 2910,
    "rez": 2911,
    "qual": 2912,
    "pad": 2913,
    "oke": 2914,
    "abal": 2915,
    "Ret": 2916,
    "Compare": 2917,
    "Ġmind": 2918,
    "Ġmight": 2919,
    "raft": 2920,
    "inen": 2921,
    "eme": 2922,
    "Tur": 2923,
    "Ġprojeto": 2924,
    "ĠJacob": 2925,
    "élé": 2926,
    "ável": 2927,
    "anne": 2928,
    "ages": 2929,
    "-five": 2930,
    "Ġcri": 2931,
    "Ġcourse": 2932,
    "watch": 2933,
    "ierung": 2934,
    "emin": 2935,
    "correct": 2936,
    "Signal": 2937,
    "Different": 2938,
    "84": 2939,
    "-one": 2940,
    "$rms": 2941,
    "개": 2942,
    "Ġmais": 2943,
    "yr": 2944,
    "ufen": 2945,
    "atal": 2946,
    "aan": 2947,
    "Rev": 2948,
    "Power": 2949,
    "Ġpessoas": 2950,
    "ĠLe": 2951,
    "ítulo": 2952,
    "sin": 2953,
    "pron": 2954,
    "para": 2955,
    "BR": 2956,
    "Ġar": 2957,
    "js": 2958,
    "Ve": 2959,
    "OP": 2960,
    "Lo": 2961,
    "IRA": 2962,
    "Hair": 2963,
    "-two": 2964,
    "할": 2965,
    "을": 2966,
    "Ġsina": 2967,
    "zeug": 2968,
    "stoff": 2969,
    "acion": 2970,
    "Stay": 2971,
    "Far": 2972,
    "Ġmoment": 2973,
    "Ġcall": 2974,
    "quel": 2975,
    "ouse": 2976,
    "mut": 2977,
    "kk": 2978,
    "hn": 2979,
    "eder": 2980,
    "cour": 2981,
    "aran": 2982,
    "Ġcard": 2983,
    "ĠBar": 2984,
    "ág": 2985,
    "uler": 2986,
    "ike": 2987,
    "gew": 2988,
    "ento": 2989,
    "bek": 2990,
    "300": 2991,
    "question": 2992,
    "entr": 2993,
    "clean": 2994,
    "bu": 2995,
    "ป": 2996,
    "sole": 2997,
    "ld": 2998,
    "ience": 2999,
    "elig": 3000,
    "dan": 3001,
    "bag": 3002,
    "Time": 3003,
    "96": 3004,
    "Ġopen": 3005,
    "ę": 3006,
    "érica": 3007,
    "äd": 3008,
    "ores": 3009,
    "miss": 3010,
    "iber": 3011,
    "avel": 3012,
    "Rio": 3013,
    "Ġboth": 3014,
    "strar": 3015,
    "rij": 3016,
    "hold": 3017,
    "ehen": 3018,
    "ativa": 3019,
    "ather": 3020,
    "aise": 3021,
    "abb": 3022,
    "Esp": 3023,
    "ím": 3024,
    "zz": 3025,
    "isse": 3026,
    "isation": 3027,
    "icip": 3028,
    "find": 3029,
    "Inf": 3030,
    "Eng": 3031,
    "Class": 3032,
    "Af": 3033,
    "070": 3034,
    "Ġlive": 3035,
    "play": 3036,
    "non": 3037,
    "hos": 3038,
    "dez": 3039,
    "Start": 3040,
    "Now": 3041,
    "Dist": 3042,
    "CD": 3043,
    "Ġdidn": 3044,
    "ls": 3045,
    "cop": 3046,
    "SL": 3047,
    "Cent": 3048,
    "Ġmultitude": 3049,
    "ĠIf": 3050,
    "was": 3051,
    "rs": 3052,
    "phabet": 3053,
    "metro": 3054,
    "lad": 3055,
    "ital": 3056,
    "frog": 3057,
    "'clock": 3058,
    "Ġgiven": 3059,
    "ĠCosta": 3060,
    "ĠAlla": 3061,
    "óg": 3062,
    "än": 3063,
    "with": 3064,
    "tu": 3065,
    "tain": 3066,
    "nc": 3067,
    "jes": 3068,
    "ião": 3069,
    "ischen": 3070,
    "iny": 3071,
    "igt": 3072,
    "ayer": 3073,
    "amen": 3074,
    "aks": 3075,
    "EST": 3076,
    "73": 3077,
    "Ġseek": 3078,
    "rus": 3079,
    "quis": 3080,
    "icious": 3081,
    "iche": 3082,
    "Your": 3083,
    "Off": 3084,
    "700": 3085,
    "간": 3086,
    "vin": 3087,
    "ilit": 3088,
    "번": 3089,
    "إ": 3090,
    "Ġform": 3091,
    "Ġfl": 3092,
    "änd": 3093,
    "uses": 3094,
    "prim": 3095,
    "prend": 3096,
    "orden": 3097,
    "law": 3098,
    "key": 3099,
    "kap": 3100,
    "imal": 3101,
    "ibr": 3102,
    "Ġže": 3103,
    "Ġhours": 3104,
    "usto": 3105,
    "send": 3106,
    "pp": 3107,
    "ization": 3108,
    "entes": 3109,
    "azz": 3110,
    "Kon": 3111,
    "House": 3112,
    "Att": 3113,
    ".br": 3114,
    "ĠTherefore": 3115,
    "ĠPaul": 3116,
    "ĠBr": 3117,
    "will": 3118,
    "via": 3119,
    "ulate": 3120,
    "iam": 3121,
    "from": 3122,
    "edit": 3123,
    "diff": 3124,
    "assen": 3125,
    "arta": 3126,
    "alter": 3127,
    "Ban": 3128,
    "800": 3129,
    "Ġden": 3130,
    "ística": 3131,
    "Â": 3132,
    "odo": 3133,
    "kar": 3134,
    "break": 3135,
    "board": 3136,
    "Zero": 3137,
    "Pat": 3138,
    "JO": 3139,
    ".it": 3140,
    "Ġreceive": 3141,
    "Ġblood": 3142,
    "vy": 3143,
    "nost": 3144,
    "mark": 3145,
    "BC": 3146,
    "Ġdoesn": 3147,
    "ĠMan": 3148,
    "urer": 3149,
    "nee": 3150,
    "cz": 3151,
    "cond": 3152,
    "alg": 3153,
    "United": 3154,
    "Pas": 3155,
    ".od": 3156,
    "Ġlos": 3157,
    "Ġcomes": 3158,
    "Ġbrother": 3159,
    "Ġ/": 3160,
    "wie": 3161,
    "she": 3162,
    "ring": 3163,
    "orse": 3164,
    "nome": 3165,
    "lier": 3166,
    "kind": 3167,
    "etr": 3168,
    "aman": 3169,
    "Why": 3170,
    "Job": 3171,
    "Har": 3172,
    "+": 3173,
    "Ġmovement": 3174,
    "ĠEdu": 3175,
    "ĠAm": 3176,
    "rol": 3177,
    "ments": 3178,
    "chts": 3179,
    "ĠCH": 3180,
    "ural": 3181,
    "row": 3182,
    "ować": 3183,
    "ified": 3184,
    "educ": 3185,
    "chem": 3186,
    "chaft": 3187,
    "Walk": 3188,
    "Day": 3189,
    "Dan": 3190,
    "AV": 3191,
    "ARE": 3192,
    "Ġsecond": 3193,
    "Ġfrente": 3194,
    "Ġdois": 3195,
    "olic": 3196,
    "gra": 3197,
    "gn": 3198,
    "fat": 3199,
    "aken": 3200,
    "TH": 3201,
    "Past": 3202,
    "ND": 3203,
    "MO": 3204,
    "Letter": 3205,
    "입": 3206,
    "venir": 3207,
    "urd": 3208,
    "ony": 3209,
    "ock": 3210,
    "obre": 3211,
    "nav": 3212,
    "fun": 3213,
    "also": 3214,
    "adas": 3215,
    "Na": 3216,
    "Hum": 3217,
    "Bad": 3218,
    "AY": 3219,
    "ANT": 3220,
    "$psc": 3221,
    "Ġtest": 3222,
    "Ġdoes": 3223,
    "Ġcommand": 3224,
    "Ġav": 3225,
    "zn": 3226,
    "rock": 3227,
    "ping": 3228,
    "oub": 3229,
    "ification": 3230,
    "equ": 3231,
    "Sn": 3232,
    "After": 3233,
    "Ġways": 3234,
    "Ġmuito": 3235,
    "twenty": 3236,
    "til": 3237,
    "pic": 3238,
    "nu": 3239,
    "little": 3240,
    "irk": 3241,
    "iction": 3242,
    "Leave": 3243,
    "ICA": 3244,
    "Ġeach": 3245,
    "sy": 3246,
    "lot": 3247,
    "iat": 3248,
    "cool": 3249,
    "bis": 3250,
    "anim": 3251,
    "Santa": 3252,
    "Mor": 3253,
    ".json": 3254,
    "ĠX": 3255,
    "vere": 3256,
    "enden": 3257,
    "elligent": 3258,
    "cult": 3259,
    "Ur": 3260,
    "Just": 3261,
    "Find": 3262,
    "Ġweek": 3263,
    "Ġtruth": 3264,
    "Ġquestion": 3265,
    "urre": 3266,
    "rar": 3267,
    "ogo": 3268,
    "happy": 3269,
    "dent": 3270,
    "UD": 3271,
    "Self": 3272,
    "RI": 3273,
    "Jos": 3274,
    "EX": 3275,
    "Ġx": 3276,
    "Ġlived": 3277,
    "Ġfall": 3278,
    "vement": 3279,
    "prom": 3280,
    "ilha": 3281,
    "ict": 3282,
    "egen": 3283,
    "amil": 3284,
    "South": 3285,
    "Men": 3286,
    "Lie": 3287,
    "Dec": 3288,
    "Beh": 3289,
    "Ġbr": 3290,
    "your": 3291,
    "tur": 3292,
    "ips": 3293,
    "dev": 3294,
    "asta": 3295,
    "arto": 3296,
    "acher": 3297,
    "Talk": 3298,
    "Ref": 3299,
    "MD": 3300,
    "Jud": 3301,
    "500": 3302,
    "080": 3303,
    "Ġfool": 3304,
    "ícia": 3305,
    "ving": 3306,
    "rier": 3307,
    "mont": 3308,
    "ifty": 3309,
    "hin": 3310,
    "ety": 3311,
    "agne": 3312,
    "If": 3313,
    "Ġpessoa": 3314,
    "itate": 3315,
    "flu": 3316,
    "call": 3317,
    "VER": 3318,
    "Ask": 3319,
    "Ġmatter": 3320,
    "Ġet": 3321,
    "user": 3322,
    "sehen": 3323,
    "onde": 3324,
    "lico": 3325,
    "avor": 3326,
    "Rob": 3327,
    "Kn": 3328,
    "Brazil": 3329,
    "-V": 3330,
    "”.": 3331,
    "ول": 3332,
    "Ġbook": 3333,
    "pel": 3334,
    "olt": 3335,
    "ml": 3336,
    "ilee": 3337,
    "ieve": 3338,
    "front": 3339,
    "child": 3340,
    "aga": 3341,
    "UA": 3342,
    "NA": 3343,
    ".css": 3344,
    "-no": 3345,
    "Ġtwelve": 3346,
    "Ġtie": 3347,
    "Ġao": 3348,
    "umen": 3349,
    "power": 3350,
    "nut": 3351,
    "invest": 3352,
    "hot": 3353,
    "cele": 3354,
    "avar": 3355,
    "arrass": 3356,
    "VA": 3357,
    "Que": 3358,
    "AF": 3359,
    "적": 3360,
    "اد": 3361,
    "Ġfind": 3362,
    "ĠSuite": 3363,
    "ye": 3364,
    "ored": 3365,
    "oj": 3366,
    "king": 3367,
    "import": 3368,
    "icult": 3369,
    "grav": 3370,
    "enta": 3371,
    "abo": 3372,
    "496": 3373,
    ".js": 3374,
    "Ġobject": 3375,
    "Ġmat": 3376,
    "ĠThis": 3377,
    "olver": 3378,
    "ces": 3379,
    "boy": 3380,
    "ango": 3381,
    "ales": 3382,
    "Vict": 3383,
    "Thought": 3384,
    "OD": 3385,
    "Ġsein": 3386,
    "Ġforty": 3387,
    "ĠSt": 3388,
    "sec": 3389,
    "raf": 3390,
    "onn": 3391,
    "irs": 3392,
    "ienne": 3393,
    "IX": 3394,
    "Excellent": 3395,
    "Ġtemple": 3396,
    "ĠNorte": 3397,
    "public": 3398,
    "nung": 3399,
    "mail": 3400,
    "fest": 3401,
    "chrift": 3402,
    "ancer": 3403,
    "ades": 3404,
    "Many": 3405,
    "GR": 3406,
    "-four": 3407,
    "Ġlado": 3408,
    "Ġele": 3409,
    "ĠYou": 3410,
    "ód": 3411,
    "temps": 3412,
    "ellen": 3413,
    "Pot": 3414,
    "Franc": 3415,
    ".p": 3416,
    "Ġfeet": 3417,
    "ĠY": 3418,
    "ĠOliveira": 3419,
    "ões": 3420,
    "very": 3421,
    "that": 3422,
    "start": 3423,
    "oco": 3424,
    "nel": 3425,
    "house": 3426,
    "estado": 3427,
    "down": 3428,
    "atis": 3429,
    "Study": 3430,
    "Sim": 3431,
    "More": 3432,
    "Cal": 3433,
    "$ro": 3434,
    "Ġlil": 3435,
    "ĠThere": 3436,
    "ĠJerusalem": 3437,
    "ña": 3438,
    "web": 3439,
    "stellen": 3440,
    "quir": 3441,
    "obile": 3442,
    "ität": 3443,
    "grad": 3444,
    "Hard": 3445,
    "Christ": 3446,
    "$ukl": 3447,
    "산": 3448,
    "Ġunder": 3449,
    "Ġpoor": 3450,
    "Ġog": 3451,
    "unda": 3452,
    "unch": 3453,
    "gg": 3454,
    "eat": 3455,
    "Nor": 3456,
    "LB": 3457,
    "Each": 3458,
    "Ġturn": 3459,
    "Ġfruit": 3460,
    "ĠGR": 3461,
    "tn": 3462,
    "otion": 3463,
    "normal": 3464,
    "ination": 3465,
    "endo": 3466,
    "cert": 3467,
    "Small": 3468,
    "March": 3469,
    "Fire": 3470,
    "400": 3471,
    "-three": 3472,
    "재": 3473,
    "Ġever": 3474,
    "Ġattention": 3475,
    "Ġangry": 3476,
    "ĠPaulo": 3477,
    "ên": 3478,
    "vé": 3479,
    "rá": 3480,
    "ijo": 3481,
    "Special": 3482,
    "Pan": 3483,
    "Nach": 3484,
    "Met": 3485,
    "-I": 3486,
    "üss": 3487,
    "zel": 3488,
    "rip": 3489,
    "rin": 3490,
    "pra": 3491,
    "position": 3492,
    "ox": 3493,
    "mu": 3494,
    "esper": 3495,
    "Then": 3496,
    "Black": 3497,
    "ANA": 3498,
    "Ġworks": 3499,
    "Ġnumber": 3500,
    "where": 3501,
    "ugal": 3502,
    "kö": 3503,
    "jud": 3504,
    "ized": 3505,
    "ieux": 3506,
    "ensch": 3507,
    "auer": 3508,
    "ancia": 3509,
    "agon": 3510,
    "Travel": 3511,
    "Mexico": 3512,
    "ść": 3513,
    "Ġsię": 3514,
    "Ġsi": 3515,
    "Ġpour": 3516,
    "Ġpast": 3517,
    "Ġol": 3518,
    "Ġist": 3519,
    "Ġfoot": 3520,
    "ância": 3521,
    "unicip": 3522,
    "uga": 3523,
    "rik": 3524,
    "ourage": 3525,
    "iles": 3526,
    "essa": 3527,
    "curso": 3528,
    "ansen": 3529,
    "Poss": 3530,
    "Place": 3531,
    "Mother": 3532,
    "Educ": 3533,
    "Dep": 3534,
    "목": 3535,
    "دي": 3536,
    "Ġaus": 3537,
    "Ġart": 3538,
    "lor": 3539,
    "iness": 3540,
    "ded": 3541,
    "SA": 3542,
    "Miss": 3543,
    "INT": 3544,
    "Der": 3545,
    "과": 3546,
    "Ġvez": 3547,
    "Ġune": 3548,
    "Ġco": 3549,
    "respons": 3550,
    "earing": 3551,
    "Watch": 3552,
    "Ted": 3553,
    "Hom": 3554,
    "-eight": 3555,
    "Ġá": 3556,
    "Ġ~": 3557,
    "Ġpé": 3558,
    "Ġasked": 3559,
    "urn": 3560,
    "rib": 3561,
    "ool": 3562,
    "olor": 3563,
    "lect": 3564,
    "bus": 3565,
    "Fall": 3566,
    "Depart": 3567,
    "ĠSul": 3568,
    "ĠHand": 3569,
    "tel": 3570,
    "outh": 3571,
    "cy": 3572,
    "Tri": 3573,
    "Sa": 3574,
    "Rec": 3575,
    "Mit": 3576,
    "Help": 3577,
    "Ce": 3578,
    "류": 3579,
    "Ġcasa": 3580,
    "yl": 3581,
    "throw": 3582,
    "produ": 3583,
    "ordo": 3584,
    "ishing": 3585,
    "ird": 3586,
    "gesch": 3587,
    "friend": 3588,
    "ammen": 3589,
    "Rain": 3590,
    "Emp": 3591,
    "Da": 3592,
    "Contr": 3593,
    "Ġwitness": 3594,
    "Ġmal": 3595,
    "Ġbear": 3596,
    "øy": 3597,
    "zung": 3598,
    "stag": 3599,
    "rei": 3600,
    "iant": 3601,
    "gro": 3602,
    "great": 3603,
    "ateur": 3604,
    "amer": 3605,
    "ader": 3606,
    "Wie": 3607,
    "Seg": 3608,
    "Nine": 3609,
    "Fac": 3610,
    "Bur": 3611,
    "Ġtongue": 3612,
    "ções": 3613,
    "urch": 3614,
    "rente": 3615,
    "rain": 3616,
    "here": 3617,
    "essen": 3618,
    "circ": 3619,
    "assist": 3620,
    "UE": 3621,
    "INAL": 3622,
    "\"": 3623,
    "Ġjust": 3624,
    "reck": 3625,
    "né": 3626,
    "isen": 3627,
    "hat": 3628,
    "ello": 3629,
    "cord": 3630,
    "amo": 3631,
    "Thanks": 3632,
    "Prec": 3633,
    "Ġfilled": 3634,
    "Ġcomun": 3635,
    "Ġask": 3636,
    "ĠAb": 3637,
    "tras": 3638,
    "sta": 3639,
    "pop": 3640,
    "pec": 3641,
    "pay": 3642,
    "ished": 3643,
    "igh": 3644,
    "even": 3645,
    "ede": 3646,
    "adv": 3647,
    "Spr": 3648,
    "Ser": 3649,
    "Lord": 3650,
    "List": 3651,
    "Last": 3652,
    "Ġfear": 3653,
    "Ġdead": 3654,
    "ĠCar": 3655,
    "year": 3656,
    "ucht": 3657,
    "tim": 3658,
    "rob": 3659,
    "pin": 3660,
    "imer": 3661,
    "fra": 3662,
    "asil": 3663,
    "Seven": 3664,
    "Perform": 3665,
    "Christmas": 3666,
    "Add": 3667,
    "능": 3668,
    "Ġservant": 3669,
    "ĠGrande": 3670,
    "usion": 3671,
    "uddle": 3672,
    "rique": 3673,
    "rible": 3674,
    "leur": 3675,
    "ires": 3676,
    "ieg": 3677,
    "Wonder": 3678,
    "OT": 3679,
    "Gab": 3680,
    "Abr": 3681,
    "Ġsat": 3682,
    "Ġnear": 3683,
    "Ġletter": 3684,
    "À": 3685,
    "ures": 3686,
    "hora": 3687,
    "halt": 3688,
    "clo": 3689,
    "PRO": 3690,
    ".gif": 3691,
    ".fr": 3692,
    "-e": 3693,
    "Ġcomo": 3694,
    "war": 3695,
    "uth": 3696,
    "umble": 3697,
    "support": 3698,
    "rank": 3699,
    "merc": 3700,
    "lob": 3701,
    "ji": 3702,
    "cken": 3703,
    "West": 3704,
    "UT": 3705,
    "Nic": 3706,
    "LA": 3707,
    "Group": 3708,
    "Cut": 3709,
    "Cool": 3710,
    "ور": 3711,
    "Ġstate": 3712,
    "Ġst": 3713,
    "íc": 3714,
    "view": 3715,
    "vat": 3716,
    "serv": 3717,
    "main": 3718,
    "licht": 3719,
    "cos": 3720,
    "ception": 3721,
    "Sy": 3722,
    "!\"": 3723,
    "Ġtold": 3724,
    "Ġphone": 3725,
    "ray": 3726,
    "ponder": 3727,
    "people": 3728,
    "ms": 3729,
    "iale": 3730,
    "det": 3731,
    "cost": 3732,
    "box": 3733,
    "Su": 3734,
    "Paul": 3735,
    "ĠLima": 3736,
    "uri": 3737,
    "plane": 3738,
    "ocup": 3739,
    "know": 3740,
    "habit": 3741,
    "gas": 3742,
    "Vi": 3743,
    "Ja": 3744,
    "Hold": 3745,
    "Book": 3746,
    "Ġnine": 3747,
    "ähr": 3748,
    "spring": 3749,
    "same": 3750,
    "ries": 3751,
    "prime": 3752,
    "mad": 3753,
    "istance": 3754,
    "heart": 3755,
    "clus": 3756,
    "UV": 3757,
    "Terr": 3758,
    "작": 3759,
    "Ġsh": 3760,
    "Ġbring": 3761,
    "ĠSan": 3762,
    "ª": 3763,
    "wear": 3764,
    "vida": 3765,
    "tar": 3766,
    "large": 3767,
    "jen": 3768,
    "halten": 3769,
    "elves": 3770,
    "Tom": 3771,
    "PH": 3772,
    "Fin": 3773,
    "77": 3774,
    "-six": 3775,
    "-(": 3776,
    "Ġlexical": 3777,
    "Ġbase": 3778,
    "yst": 3779,
    "utar": 3780,
    "print": 3781,
    "period": 3782,
    "onom": 3783,
    "ono": 3784,
    "observe": 3785,
    "female": 3786,
    "enu": 3787,
    "ds": 3788,
    "Smart": 3789,
    "Food": 3790,
    "FA": 3791,
    "CON": 3792,
    "Ġstand": 3793,
    "Ġrighteousness": 3794,
    "Ġborn": 3795,
    "Ġarea": 3796,
    "ą": 3797,
    "ío": 3798,
    "now": 3799,
    "mission": 3800,
    "mann": 3801,
    "iker": 3802,
    "gan": 3803,
    "Thirty": 3804,
    "Stop": 3805,
    "Cost": 3806,
    "Bre": 3807,
    "Ast": 3808,
    "-nine": 3809,
    "้": 3810,
    "ĠAs": 3811,
    "uela": 3812,
    "top": 3813,
    "they": 3814,
    "oup": 3815,
    "lock": 3816,
    "ired": 3817,
    "erie": 3818,
    "cé": 3819,
    "arten": 3820,
    "SO": 3821,
    "-W": 3822,
    "력": 3823,
    "Ġmesmo": 3824,
    "ĠWhat": 3825,
    "ício": 3826,
    "uation": 3827,
    "sand": 3828,
    "reh": 3829,
    "inda": 3830,
    "hard": 3831,
    "emen": 3832,
    "apel": 3833,
    "Sol": 3834,
    "Ann": 3835,
    "Ġtrad": 3836,
    "Ġtalk": 3837,
    "Ġsix": 3838,
    "Ġhelp": 3839,
    "Ġclass": 3840,
    "ĠWe": 3841,
    "vre": 3842,
    "stellung": 3843,
    "ografia": 3844,
    "kan": 3845,
    "VO": 3846,
    "Nov": 3847,
    "Marc": 3848,
    "ADA": 3849,
    "-seven": 3850,
    "Ġdem": 3851,
    "ân": 3852,
    "ária": 3853,
    "who": 3854,
    "oter": 3855,
    "lé": 3856,
    "lij": 3857,
    "idi": 3858,
    "hus": 3859,
    "emi": 3860,
    "ea": 3861,
    "beeld": 3862,
    "ست": 3863,
    "ĠEst": 3864,
    "werk": 3865,
    "tract": 3866,
    "rac": 3867,
    "ones": 3868,
    "care": 3869,
    "aso": 3870,
    "Op": 3871,
    "Land": 3872,
    "Gold": 3873,
    "Forget": 3874,
    "Cross": 3875,
    "Ġsk": 3876,
    "Ġein": 3877,
    "ös": 3878,
    "yn": 3879,
    "sun": 3880,
    "second": 3881,
    "school": 3882,
    "leich": 3883,
    "istic": 3884,
    "istan": 3885,
    "else": 3886,
    "dog": 3887,
    "bring": 3888,
    "azar": 3889,
    "aves": 3890,
    "astic": 3891,
    "Like": 3892,
    "Invest": 3893,
    "Free": 3894,
    "'é": 3895,
    "Ġmin": 3896,
    "ĠCrist": 3897,
    "ând": 3898,
    "tt": 3899,
    "phone": 3900,
    "oring": 3901,
    "liche": 3902,
    "every": 3903,
    "bank": 3904,
    "autor": 3905,
    "Qual": 3906,
    "Fantastic": 3907,
    "Call": 3908,
    "ุ": 3909,
    "Ġpesso": 3910,
    "Ġits": 3911,
    "ĠNew": 3912,
    "ær": 3913,
    "venida": 3914,
    "lei": 3915,
    "kre": 3916,
    "face": 3917,
    "coll": 3918,
    "beits": 3919,
    "aza": 3920,
    "School": 3921,
    "Kom": 3922,
    "Big": 3923,
    "Ġworship": 3924,
    "Ġsignal": 3925,
    "Ä": 3926,
    "ots": 3927,
    "oon": 3928,
    "itude": 3929,
    "iere": 3930,
    "achten": 3931,
    "Ros": 3932,
    "Family": 3933,
    "Bon": 3934,
    "Aug": 3935,
    "Ġwine": 3936,
    "Ġuntil": 3937,
    "ò": 3938,
    "yer": 3939,
    "writing": 3940,
    "uten": 3941,
    "omes": 3942,
    "erson": 3943,
    "consider": 3944,
    "cell": 3945,
    "accept": 3946,
    "Kind": 3947,
    "Father": 3948,
    "Correct": 3949,
    "Arr": 3950,
    "Ġع": 3951,
    "Ġlo": 3952,
    "ĠRio": 3953,
    "ĠJoseph": 3954,
    "êt": 3955,
    "plus": 3956,
    "plant": 3957,
    "ited": 3958,
    "etter": 3959,
    "eight": 3960,
    "beh": 3961,
    "Sex": 3962,
    "Neg": 3963,
    "BS": 3964,
    "터": 3965,
    "Ġgrade": 3966,
    "Ġbar": 3967,
    "ĠHoly": 3968,
    "vier": 3969,
    "uffer": 3970,
    "respond": 3971,
    "quet": 3972,
    "ott": 3973,
    "night": 3974,
    "kommen": 3975,
    "ensive": 3976,
    "crit": 3977,
    "ches": 3978,
    "aupt": 3979,
    "aling": 3980,
    "agog": 3981,
    "ael": 3982,
    "acional": 3983,
    "Jul": 3984,
    "From": 3985,
    "191": 3986,
    "Ġcon": 3987,
    "Ġbehold": 3988,
    "ĠDavid": 3989,
    "rows": 3990,
    "orient": 3991,
    "observ": 3992,
    "igi": 3993,
    "erna": 3994,
    "chte": 3995,
    "boat": 3996,
    "OU": 3997,
    "Motor": 3998,
    "Mac": 3999,
    "France": 4000,
    "Ġwaters": 4001,
    "Ġtem": 4002,
    "Ġitem": 4003,
    "Ġfield": 4004,
    "äft": 4005,
    "ást": 4006,
    "tron": 4007,
    "sleep": 4008,
    "sam": 4009,
    "radi": 4010,
    "pie": 4011,
    "oute": 4012,
    "ods": 4013,
    "lit": 4014,
    "inner": 4015,
    "ding": 4016,
    "cum": 4017,
    "Speak": 4018,
    "JA": 4019,
    "Hey": 4020,
    "Flat": 4021,
    "Ess": 4022,
    "Before": 4023,
    "-N": 4024,
    "ו�": 4025,
    "ś": 4026,
    "Ġsleep": 4027,
    "Ġpower": 4028,
    "Ġpoint": 4029,
    "Ġfil": 4030,
    "Ġanimal": 4031,
    "ĠStates": 4032,
    "ĠSchool": 4033,
    "ĠBarcelona": 4034,
    "small": 4035,
    "ku": 4036,
    "ech": 4037,
    "bow": 4038,
    "beg": 4039,
    "apple": 4040,
    "after": 4041,
    "Pet": 4042,
    "NT": 4043,
    "Israel": 4044,
    "Imm": 4045,
    "051": 4046,
    "่": 4047,
    "Ġeight": 4048,
    "vac": 4049,
    "tw": 4050,
    "sex": 4051,
    "osta": 4052,
    "nap": 4053,
    "ife": 4054,
    "capt": 4055,
    "ational": 4056,
    "andre": 4057,
    "LOSS": 4058,
    "Achie": 4059,
    "Ġwatch": 4060,
    "Ġtop": 4061,
    "Ġfavor": 4062,
    "ĠSou": 4063,
    "ĠEsc": 4064,
    "ître": 4065,
    "ác": 4066,
    "win": 4067,
    "osp": 4068,
    "omp": 4069,
    "iques": 4070,
    "illes": 4071,
    "ificador": 4072,
    "gem": 4073,
    "ect": 4074,
    "close": 4075,
    "agua": 4076,
    "ZZ": 4077,
    "Rom": 4078,
    "Mov": 4079,
    "Ġthemselves": 4080,
    "Ġhome": 4081,
    "ême": 4082,
    "wait": 4083,
    "sz": 4084,
    "ständ": 4085,
    "shop": 4086,
    "rl": 4087,
    "reiben": 4088,
    "learn": 4089,
    "ised": 4090,
    "blo": 4091,
    "before": 4092,
    "With": 4093,
    "Present": 4094,
    "Master": 4095,
    "COVID": 4096,
    "-O": 4097,
    "Ġsuch": 4098,
    "Ġsem": 4099,
    "Ġpare": 4100,
    "Ġbetween": 4101,
    "úmero": 4102,
    "zin": 4103,
    "uls": 4104,
    "rost": 4105,
    "ject": 4106,
    "ilen": 4107,
    "his": 4108,
    "high": 4109,
    "embre": 4110,
    "beb": 4111,
    "Student": 4112,
    "Snow": 4113,
    "196": 4114,
    "Ġrue": 4115,
    "Ġbrothers": 4116,
    "used": 4117,
    "san": 4118,
    "riz": 4119,
    "oes": 4120,
    "next": 4121,
    "mom": 4122,
    "human": 4123,
    "contin": 4124,
    "bib": 4125,
    "acr": 4126,
    "Tre": 4127,
    "Love": 4128,
    "Adv": 4129,
    "150": 4130,
    "Ġseen": 4131,
    "Ġmust": 4132,
    "Ġbi": 4133,
    "ĠSch": 4134,
    "woman": 4135,
    "wen": 4136,
    "tax": 4137,
    "rub": 4138,
    "orb": 4139,
    "nero": 4140,
    "hist": 4141,
    "chie": 4142,
    "bye": 4143,
    "aint": 4144,
    "IP": 4145,
    "Hope": 4146,
    "FL": 4147,
    "Ġmed": 4148,
    "ĠLB": 4149,
    "riel": 4150,
    "pret": 4151,
    "ometer": 4152,
    "low": 4153,
    "beit": 4154,
    "aub": 4155,
    "arden": 4156,
    "abra": 4157,
    "Symbol": 4158,
    "Rep": 4159,
    "Organ": 4160,
    "Du": 4161,
    "-Z": 4162,
    "Ġsea": 4163,
    "Ġfeast": 4164,
    "Ġcap": 4165,
    "Ġabove": 4166,
    "Ú": 4167,
    "tie": 4168,
    "lt": 4169,
    "inde": 4170,
    "ids": 4171,
    "icina": 4172,
    "hu": 4173,
    "camp": 4174,
    "asi": 4175,
    "apo": 4176,
    "Video": 4177,
    "Sure": 4178,
    "Emb": 4179,
    "$lws": 4180,
    "ágina": 4181,
    "utsch": 4182,
    "tell": 4183,
    "ropa": 4184,
    "rek": 4185,
    "rate": 4186,
    "ograph": 4187,
    "iele": 4188,
    "direct": 4189,
    "bec": 4190,
    "atre": 4191,
    "SP": 4192,
    "Next": 4193,
    "Demon": 4194,
    "$asf": 4195,
    "จ": 4196,
    "Ġthirty": 4197,
    "vit": 4198,
    "reira": 4199,
    "qa": 4200,
    "psych": 4201,
    "pis": 4202,
    "objet": 4203,
    "nos": 4204,
    "mac": 4205,
    "lichkeit": 4206,
    "icos": 4207,
    "ened": 4208,
    "eda": 4209,
    "dim": 4210,
    "dad": 4211,
    "city": 4212,
    "GE": 4213,
    "Estado": 4214,
    "Carlos": 4215,
    "Area": 4216,
    "Ġwritten": 4217,
    "Ġsick": 4218,
    "Ġsch": 4219,
    "Ġevening": 4220,
    "Ġcertain": 4221,
    "inz": 4222,
    "hair": 4223,
    "haft": 4224,
    "grab": 4225,
    "first": 4226,
    "chan": 4227,
    "Top": 4228,
    "Hot": 4229,
    "Dev": 4230,
    "임": 4231,
    "لا": 4232,
    "Ġten": 4233,
    "Ġknown": 4234,
    "Ġfar": 4235,
    "Ġbo": 4236,
    "ĠMary": 4237,
    "år": 4238,
    "week": 4239,
    "this": 4240,
    "sap": 4241,
    "oli": 4242,
    "lee": 4243,
    "iture": 4244,
    "fix": 4245,
    "atic": 4246,
    "ables": 4247,
    "Offer": 4248,
    "Consider": 4249,
    "Ġم": 4250,
    "Ġzu": 4251,
    "Ġrest": 4252,
    "Ġear": 4253,
    "Ġdentro": 4254,
    "vas": 4255,
    "standing": 4256,
    "sort": 4257,
    "raise": 4258,
    "ides": 4259,
    "idente": 4260,
    "bé": 4261,
    "bole": 4262,
    "base": 4263,
    "Sweet": 4264,
    "Mass": 4265,
    "IAN": 4266,
    "Direct": 4267,
    "يل": 4268,
    "Ġmonth": 4269,
    "ĠFer": 4270,
    "éri": 4271,
    "vr": 4272,
    "teste": 4273,
    "onda": 4274,
    "math": 4275,
    "izer": 4276,
    "inkel": 4277,
    "igr": 4278,
    "had": 4279,
    "ença": 4280,
    "dat": 4281,
    "catch": 4282,
    "aren": 4283,
    "aged": 4284,
    "SD": 4285,
    "Rub": 4286,
    "Pres": 4287,
    "Plan": 4288,
    "Know": 4289,
    "ENT": 4290,
    "위": 4291,
    "Ġused": 4292,
    "Ġtodos": 4293,
    "Ġcoming": 4294,
    "word": 4295,
    "weis": 4296,
    "udent": 4297,
    "state": 4298,
    "pub": 4299,
    "inst": 4300,
    "icate": 4301,
    "gang": 4302,
    "card": 4303,
    "aug": 4304,
    "Use": 4305,
    "Run": 4306,
    "Replace": 4307,
    "INE": 4308,
    "Exc": 4309,
    "Cover": 4310,
    "Cart": 4311,
    "CR": 4312,
    "Ġtil": 4313,
    "Ġjob": 4314,
    "Ġiz": 4315,
    "Ġaccording": 4316,
    "íst": 4317,
    "tran": 4318,
    "three": 4319,
    "spe": 4320,
    "sg": 4321,
    "rodu": 4322,
    "render": 4323,
    "rb": 4324,
    "preg": 4325,
    "mist": 4326,
    "levard": 4327,
    "itch": 4328,
    "ingen": 4329,
    "icia": 4330,
    "ental": 4331,
    "encer": 4332,
    "Ġtaken": 4333,
    "Ġreceived": 4334,
    "Ġméd": 4335,
    "ĠUniversity": 4336,
    "ĠMy": 4337,
    "érie": 4338,
    "éné": 4339,
    "wand": 4340,
    "transport": 4341,
    "park": 4342,
    "oper": 4343,
    "kin": 4344,
    "gent": 4345,
    "chten": 4346,
    "awn": 4347,
    "arme": 4348,
    "Vis": 4349,
    "Kar": 4350,
    "His": 4351,
    "011": 4352,
    "ĠPere": 4353,
    "ross": 4354,
    "plate": 4355,
    "ossa": 4356,
    "iquer": 4357,
    "ili": 4358,
    "geh": 4359,
    "comb": 4360,
    "anga": 4361,
    "agnet": 4362,
    "VE": 4363,
    "Mer": 4364,
    "Finish": 4365,
    "Contin": 4366,
    "진": 4367,
    "글": 4368,
    "Ġfull": 4369,
    "Ġbeginning": 4370,
    "ury": 4371,
    "interpret": 4372,
    "fund": 4373,
    "final": 4374,
    "avis": 4375,
    "aram": 4376,
    "appro": 4377,
    "acle": 4378,
    "Transfer": 4379,
    "Strong": 4380,
    "Sport": 4381,
    "Match": 4382,
    "Det": 4383,
    "거": 4384,
    "Ġstood": 4385,
    "Ġpr": 4386,
    "Ġhearing": 4387,
    "unden": 4388,
    "tte": 4389,
    "tle": 4390,
    "roc": 4391,
    "idy": 4392,
    "grupo": 4393,
    "anche": 4394,
    "amine": 4395,
    "UP": 4396,
    "Para": 4397,
    "Non": 4398,
    "Meeting": 4399,
    "Hit": 4400,
    "Contact": 4401,
    "Ġexpression": 4402,
    "Ġdé": 4403,
    "secret": 4404,
    "oster": 4405,
    "initely": 4406,
    "erry": 4407,
    "egr": 4408,
    "clar": 4409,
    "Pick": 4410,
    "Federal": 4411,
    "Face": 4412,
    "Ben": 4413,
    "939": 4414,
    "호": 4415,
    "Ġyourselves": 4416,
    "Ġopened": 4417,
    "Ġneed": 4418,
    "Ġdied": 4419,
    "ĠVer": 4420,
    "ĠMont": 4421,
    "usc": 4422,
    "rown": 4423,
    "resent": 4424,
    "pause": 4425,
    "nnen": 4426,
    "nage": 4427,
    "enne": 4428,
    "Sit": 4429,
    "QUE": 4430,
    "PG": 4431,
    "Meet": 4432,
    "Beat": 4433,
    "Ġlib": 4434,
    "Ġleave": 4435,
    "ĠUnivers": 4436,
    "ĠPR": 4437,
    "ático": 4438,
    "upid": 4439,
    "uação": 4440,
    "try": 4441,
    "short": 4442,
    "quiet": 4443,
    "prove": 4444,
    "ands": 4445,
    "abr": 4446,
    "Train": 4447,
    "Second": 4448,
    "Remove": 4449,
    "Greetings": 4450,
    "$uk": 4451,
    "Ġmove": 4452,
    "Ġfish": 4453,
    "Ġenter": 4454,
    "lio": 4455,
    "him": 4456,
    "free": 4457,
    "eller": 4458,
    "bone": 4459,
    "appl": 4460,
    "Table": 4461,
    "Short": 4462,
    "Sen": 4463,
    "Brun": 4464,
    "Bi": 4465,
    "588": 4466,
    "'n": 4467,
    "št": 4468,
    "Ġmonths": 4469,
    "Ġlaid": 4470,
    "ĠAL": 4471,
    "öff": 4472,
    "zial": 4473,
    "ying": 4474,
    "uição": 4475,
    "road": 4476,
    "pose": 4477,
    "ograf": 4478,
    "obo": 4479,
    "logo": 4480,
    "immer": 4481,
    "iation": 4482,
    "full": 4483,
    "finish": 4484,
    "ays": 4485,
    "USA": 4486,
    "Most": 4487,
    "Main": 4488,
    "Liv": 4489,
    "Join": 4490,
    "FG": 4491,
    "180": 4492,
    "แ": 4493,
    "Ġmet": 4494,
    "Ġmeet": 4495,
    "Ġgirl": 4496,
    "Ġeveryone": 4497,
    "Ġdog": 4498,
    "Ġbrethren": 4499,
    "Ġable": 4500,
    "sequ": 4501,
    "reet": 4502,
    "prise": 4503,
    "never": 4504,
    "jem": 4505,
    "group": 4506,
    "ertain": 4507,
    "din": 4508,
    "TV": 4509,
    "Problem": 4510,
    "Joy": 4511,
    "Ho": 4512,
    "Gal": 4513,
    "Ens": 4514,
    "Como": 4515,
    "Clo": 4516,
    "êm": 4517,
    "äl": 4518,
    "write": 4519,
    "usa": 4520,
    "struct": 4521,
    "reement": 4522,
    "oba": 4523,
    "itat": 4524,
    "issen": 4525,
    "inge": 4526,
    "ilk": 4527,
    "heim": 4528,
    "fung": 4529,
    "elve": 4530,
    "bef": 4531,
    "aph": 4532,
    "antom": 4533,
    "abar": 4534,
    "Road": 4535,
    "GL": 4536,
    ".key": 4537,
    "Ġpe": 4538,
    "Ġknew": 4539,
    "Ġcause": 4540,
    "Ġbelieved": 4541,
    "ĠEstado": 4542,
    "ĠAll": 4543,
    "zu": 4544,
    "riage": 4545,
    "omo": 4546,
    "imar": 4547,
    "gt": 4548,
    "eden": 4549,
    "action": 4550,
    "Sunday": 4551,
    "ICO": 4552,
    "Desc": 4553,
    "Association": 4554,
    "Ġsom": 4555,
    "Ġmain": 4556,
    "Ġex": 4557,
    "zap": 4558,
    "warm": 4559,
    "wan": 4560,
    "vet": 4561,
    "uras": 4562,
    "record": 4563,
    "onor": 4564,
    "lä": 4565,
    "itory": 4566,
    "gress": 4567,
    "eks": 4568,
    "State": 4569,
    "Point": 4570,
    "Park": 4571,
    "Life": 4572,
    "China": 4573,
    "CAR": 4574,
    "195": 4575,
    "189": 4576,
    "ู": 4577,
    "Ġsins": 4578,
    "Ġmyself": 4579,
    "Ġheures": 4580,
    "Ġchief": 4581,
    "ĠPhar": 4582,
    "ueva": 4583,
    "tri": 4584,
    "train": 4585,
    "ride": 4586,
    "petition": 4587,
    "idades": 4588,
    "god": 4589,
    "ged": 4590,
    "bur": 4591,
    "born": 4592,
    "adi": 4593,
    "Inform": 4594,
    "FE": 4595,
    "-re": 4596,
    "พ": 4597,
    "Ġtrans": 4598,
    "Ġsaber": 4599,
    "Ġgr": 4600,
    "ĠNe": 4601,
    "ĠFace": 4602,
    "öh": 4603,
    "ças": 4604,
    "url": 4605,
    "peri": 4606,
    "num": 4607,
    "lein": 4608,
    "collect": 4609,
    "bairro": 4610,
    "atie": 4611,
    "Step": 4612,
    "Index": 4613,
    "Collect": 4614,
    "Ġsight": 4615,
    "Ġnew": 4616,
    "Ġfifty": 4617,
    "ĠEn": 4618,
    "ĠCh": 4619,
    "lose": 4620,
    "ilar": 4621,
    "ician": 4622,
    "haust": 4623,
    "asty": 4624,
    "Ru": 4625,
    "Mus": 4626,
    "Individual": 4627,
    "Dark": 4628,
    "ATE": 4629,
    "세": 4630,
    "اف": 4631,
    "Ġgh": 4632,
    "ĠDay": 4633,
    "ivre": 4634,
    "eti": 4635,
    "cir": 4636,
    "ajo": 4637,
    "Tim": 4638,
    "PS": 4639,
    "NG": 4640,
    "Comp": 4641,
    "'est": 4642,
    "열": 4643,
    "Ġvers": 4644,
    "Ġres": 4645,
    "rico": 4646,
    "reb": 4647,
    "meet": 4648,
    "mass": 4649,
    "keit": 4650,
    "jour": 4651,
    "aque": 4652,
    "agu": 4653,
    "Wait": 4654,
    "Show": 4655,
    "Les": 4656,
    "ING": 4657,
    "431": 4658,
    "167": 4659,
    "Ġhast": 4660,
    "Ġentre": 4661,
    "ĠPort": 4662,
    "ĠCan": 4663,
    "ĠAna": 4664,
    "Ġ+": 4665,
    "ús": 4666,
    "éro": 4667,
    "think": 4668,
    "stein": 4669,
    "orange": 4670,
    "lia": 4671,
    "heid": 4672,
    "fig": 4673,
    "cycle": 4674,
    "acha": 4675,
    "Green": 4676,
    "Dia": 4677,
    "Dem": 4678,
    "는": 4679,
    "ى": 4680,
    "י�": 4681,
    "Ġninety": 4682,
    "Ġjoy": 4683,
    "Ġcountry": 4684,
    "Ġcast": 4685,
    "ĠIs": 4686,
    "ĠCor": 4687,
    "utz": 4688,
    "uce": 4689,
    "tour": 4690,
    "sed": 4691,
    "reich": 4692,
    "oly": 4693,
    "map": 4694,
    "ius": 4695,
    "ises": 4696,
    "ijn": 4697,
    "film": 4698,
    "dream": 4699,
    "dig": 4700,
    "cade": 4701,
    "areth": 4702,
    "Jer": 4703,
    "GO": 4704,
    "EE": 4705,
    "ACH": 4706,
    "Ġnach": 4707,
    "Ġmov": 4708,
    "Ġgrace": 4709,
    "ères": 4710,
    "rière": 4711,
    "igner": 4712,
    "hel": 4713,
    "begin": 4714,
    "acao": 4715,
    "Final": 4716,
    "Cloud": 4717,
    "-w": 4718,
    "--": 4719,
    "ข": 4720,
    "Ġshow": 4721,
    "Ġseg": 4722,
    "Ġmine": 4723,
    "Ġfoolish": 4724,
    "Ġdepart": 4725,
    "ĠJa": 4726,
    "ĠDO": 4727,
    "ĠBe": 4728,
    "ĠAbraham": 4729,
    "rice": 4730,
    "pick": 4731,
    "noch": 4732,
    "kop": 4733,
    "ility": 4734,
    "ifen": 4735,
    "fruit": 4736,
    "bear": 4737,
    "Psych": 4738,
    "People": 4739,
    "LES": 4740,
    "FO": 4741,
    "Air": 4742,
    "ARA": 4743,
    "-tr": 4744,
    "-le": 4745,
    "Ġlivro": 4746,
    "Ġfeel": 4747,
    "ĠJud": 4748,
    "zero": 4749,
    "want": 4750,
    "vio": 4751,
    "thing": 4752,
    "peak": 4753,
    "obra": 4754,
    "erno": 4755,
    "cie": 4756,
    "chsel": 4757,
    "bird": 4758,
    "Training": 4759,
    "Enjoy": 4760,
    "Bed": 4761,
    "Amb": 4762,
    "193": 4763,
    "131": 4764,
    "042": 4765,
    "Ġship": 4766,
    "Ġmetro": 4767,
    "Ġdesire": 4768,
    "umin": 4769,
    "uelle": 4770,
    "travel": 4771,
    "talk": 4772,
    "side": 4773,
    "ouver": 4774,
    "orf": 4775,
    "oler": 4776,
    "nat": 4777,
    "male": 4778,
    "letter": 4779,
    "essel": 4780,
    "erd": 4781,
    "drink": 4782,
    "dark": 4783,
    "body": 4784,
    "acia": 4785,
    "Sent": 4786,
    "Ram": 4787,
    "Phil": 4788,
    "Os": 4789,
    "$gss": 4790,
    "Ġwall": 4791,
    "Ġsound": 4792,
    "paint": 4793,
    "lav": 4794,
    "illage": 4795,
    "enty": 4796,
    "cess": 4797,
    "arent": 4798,
    "Prime": 4799,
    "Pen": 4800,
    "Pay": 4801,
    "Mom": 4802,
    "Ich": 4803,
    "Gain": 4804,
    "188": 4805,
    ".pt": 4806,
    "ไ": 4807,
    "Ġpriest": 4808,
    "ĠUFC": 4809,
    "ĠSh": 4810,
    "vous": 4811,
    "viol": 4812,
    "ragon": 4813,
    "posit": 4814,
    "phant": 4815,
    "many": 4816,
    "ieder": 4817,
    "estar": 4818,
    "chant": 4819,
    "bild": 4820,
    "ared": 4821,
    "Tax": 4822,
    "Send": 4823,
    "Pers": 4824,
    "PU": 4825,
    "Fa": 4826,
    "Awesome": 4827,
    "239": 4828,
    "Ġtable": 4829,
    "Ġseventy": 4830,
    "Ġpeace": 4831,
    "ĠWhere": 4832,
    "ót": 4833,
    "udi": 4834,
    "teil": 4835,
    "strong": 4836,
    "quit": 4837,
    "ouch": 4838,
    "oro": 4839,
    "nh": 4840,
    "mul": 4841,
    "lore": 4842,
    "lette": 4843,
    "lass": 4844,
    "lagen": 4845,
    "lab": 4846,
    "girl": 4847,
    "ennen": 4848,
    "aña": 4849,
    "ause": 4850,
    "atisfied": 4851,
    "affe": 4852,
    "ady": 4853,
    "about": 4854,
    "Viet": 4855,
    "Und": 4856,
    "Daniel": 4857,
    "Complete": 4858,
    "اس": 4859,
    "Ġjudgment": 4860,
    "Ġfu": 4861,
    "Ġfell": 4862,
    "Ġau": 4863,
    "ários": 4864,
    "wi": 4865,
    "rika": 4866,
    "oa": 4867,
    "mem": 4868,
    "iron": 4869,
    "chein": 4870,
    "aps": 4871,
    "ability": 4872,
    "Was": 4873,
    "Very": 4874,
    "Social": 4875,
    "Professor": 4876,
    "Leg": 4877,
    "CI": 4878,
    "BD": 4879,
    "Az": 4880,
    "Auto": 4881,
    "AK": 4882,
    "ีย": 4883,
    "Ġprophet": 4884,
    "Ġhold": 4885,
    "Ġdoing": 4886,
    "Ġdans": 4887,
    "ĠProf": 4888,
    "çon": 4889,
    "west": 4890,
    "thank": 4891,
    "sold": 4892,
    "ogram": 4893,
    "nas": 4894,
    "ham": 4895,
    "fang": 4896,
    "ehr": 4897,
    "appear": 4898,
    "Nome": 4899,
    "Mark": 4900,
    "Hospital": 4901,
    "Entr": 4902,
    "Clear": 4903,
    "ART": 4904,
    "-law": 4905,
    "Ġuna": 4906,
    "Ġsixty": 4907,
    "Ġshalt": 4908,
    "Ġcommanded": 4909,
    "wy": 4910,
    "why": 4911,
    "uts": 4912,
    "ution": 4913,
    "ube": 4914,
    "shine": 4915,
    "remove": 4916,
    "prü": 4917,
    "pression": 4918,
    "onia": 4919,
    "leave": 4920,
    "fulness": 4921,
    "fic": 4922,
    "essor": 4923,
    "error": 4924,
    "elly": 4925,
    "elles": 4926,
    "ego": 4927,
    "conv": 4928,
    "aja": 4929,
    "Ident": 4930,
    "Friday": 4931,
    "Ġsu": 4932,
    "Ġser": 4933,
    "Ġré": 4934,
    "Ġmil": 4935,
    "Ġcut": 4936,
    "uí": 4937,
    "salt": 4938,
    "quina": 4939,
    "pack": 4940,
    "ollen": 4941,
    "jun": 4942,
    "ians": 4943,
    "got": 4944,
    "dir": 4945,
    "chnitt": 4946,
    "black": 4947,
    "amed": 4948,
    "Unable": 4949,
    "Left": 4950,
    "Fit": 4951,
    "Bet": 4952,
    "Become": 4953,
    "Bear": 4954,
    "Ġspoken": 4955,
    "Ġorder": 4956,
    "Ġisso": 4957,
    "Ġinstruction": 4958,
    "ĠGeb": 4959,
    "ĠFre": 4960,
    "ĠBel": 4961,
    "ühl": 4962,
    "special": 4963,
    "soc": 4964,
    "prot": 4965,
    "path": 4966,
    "ound": 4967,
    "orry": 4968,
    "irc": 4969,
    "etz": 4970,
    "empl": 4971,
    "dob": 4972,
    "aret": 4973,
    "alia": 4974,
    "ague": 4975,
    "Ti": 4976,
    "Kr": 4977,
    "HS": 4978,
    "Ey": 4979,
    "Content": 4980,
    "Color": 4981,
    "City": 4982,
    "Bah": 4983,
    "American": 4984,
    "383": 4985,
    "113": 4986,
    ".M": 4987,
    "-sur": 4988,
    "ń": 4989,
    "Ġfinger": 4990,
    "Ġeye": 4991,
    "ĠBras": 4992,
    "ĠAnt": 4993,
    "quil": 4994,
    "quad": 4995,
    "onte": 4996,
    "mouth": 4997,
    "liste": 4998,
    "issa": 4999,
    "dur": 5000,
    "deb": 5001,
    "Separ": 5002,
    "RL": 5003,
    "Ec": 5004,
    "Animal": 5005,
    "665": 5006,
    "401": 5007,
    "-j": 5008,
    "Ġfollowed": 5009,
    "Ġad": 5010,
    "ĠRodrig": 5011,
    "ĠMoses": 5012,
    "Ġ...": 5013,
    "wash": 5014,
    "rich": 5015,
    "ivid": 5016,
    "itect": 5017,
    "ifier": 5018,
    "ication": 5019,
    "ibility": 5020,
    "home": 5021,
    "different": 5022,
    "conc": 5023,
    "coc": 5024,
    "atisf": 5025,
    "anie": 5026,
    "Ger": 5027,
    "Fly": 5028,
    "Country": 5029,
    "Cold": 5030,
    "Ball": 5031,
    "309": 5032,
    "181": 5033,
    "Ġstraight": 5034,
    "wal": 5035,
    "usch": 5036,
    "unge": 5037,
    "ugg": 5038,
    "tail": 5039,
    "oin": 5040,
    "ió": 5041,
    "iete": 5042,
    "füh": 5043,
    "fu": 5044,
    "faith": 5045,
    "altar": 5046,
    "ags": 5047,
    "Spe": 5048,
    "Ring": 5049,
    "Computer": 5050,
    "929": 5051,
    "758": 5052,
    "190": 5053,
    "182": 5054,
    "드": 5055,
    "Ġproblem": 5056,
    "Ġgone": 5057,
    "Ġcor": 5058,
    "ĠSous": 5059,
    "ĠMat": 5060,
    "ún": 5061,
    "oble": 5062,
    "lear": 5063,
    "init": 5064,
    "iers": 5065,
    "hem": 5066,
    "ently": 5067,
    "computer": 5068,
    "bir": 5069,
    "akk": 5070,
    "acon": 5071,
    "Thursday": 5072,
    "TC": 5073,
    "Sum": 5074,
    "Roll": 5075,
    "Mir": 5076,
    "Bird": 5077,
    "530": 5078,
    "290": 5079,
    "258": 5080,
    "$mw": 5081,
    "Ġvehicle": 5082,
    "Ġthird": 5083,
    "Ġmeat": 5084,
    "Ġfun": 5085,
    "ĠEl": 5086,
    "ĠEd": 5087,
    "ĠBeh": 5088,
    "ücken": 5089,
    "íf": 5090,
    "young": 5091,
    "uns": 5092,
    "orce": 5093,
    "lica": 5094,
    "itas": 5095,
    "indre": 5096,
    "history": 5097,
    "ances": 5098,
    "aller": 5099,
    "_gr": 5100,
    "Strange": 5101,
    "Story": 5102,
    "NS": 5103,
    "Certainly": 5104,
    "938": 5105,
    "732": 5106,
    "730": 5107,
    "315": 5108,
    "Ġweeks": 5109,
    "Ġtouch": 5110,
    "Ġmachine": 5111,
    "Ġlá": 5112,
    "Ġfaire": 5113,
    "ĠOne": 5114,
    "ète": 5115,
    "uber": 5116,
    "ubb": 5117,
    "science": 5118,
    "once": 5119,
    "ney": 5120,
    "local": 5121,
    "kil": 5122,
    "dress": 5123,
    "atch": 5124,
    "aser": 5125,
    "alous": 5126,
    "accom": 5127,
    "Write": 5128,
    "View": 5129,
    "Drop": 5130,
    "AI": 5131,
    "Ġvan": 5132,
    "Ġreason": 5133,
    "Ġholy": 5134,
    "Ġanswer": 5135,
    "Ġafraid": 5136,
    "ĠSal": 5137,
    "todo": 5138,
    "stat": 5139,
    "social": 5140,
    "search": 5141,
    "nothing": 5142,
    "ijk": 5143,
    "hon": 5144,
    "hit": 5145,
    "hec": 5146,
    "codile": 5147,
    "buch": 5148,
    "bil": 5149,
    "bell": 5150,
    "aign": 5151,
    "Wednesday": 5152,
    "Rod": 5153,
    "OO": 5154,
    "English": 5155,
    "Cons": 5156,
    "329": 5157,
    "Ġmor": 5158,
    "Ġmatch": 5159,
    "Ġfr": 5160,
    "Ġbil": 5161,
    "ued": 5162,
    "ually": 5163,
    "pla": 5164,
    "owy": 5165,
    "olf": 5166,
    "ography": 5167,
    "language": 5168,
    "individual": 5169,
    "hello": 5170,
    "eten": 5171,
    "dif": 5172,
    "cover": 5173,
    "cole": 5174,
    "cker": 5175,
    "ceptive": 5176,
    "baby": 5177,
    "añ": 5178,
    "area": 5179,
    "Word": 5180,
    "Tree": 5181,
    "Roman": 5182,
    "Law": 5183,
    "King": 5184,
    "Half": 5185,
    "Concern": 5186,
    "Au": 5187,
    "Ġsigns": 5188,
    "Ġlí": 5189,
    "Ġcabe": 5190,
    "thes": 5191,
    "ois": 5192,
    "irst": 5193,
    "ifik": 5194,
    "foot": 5195,
    "fahren": 5196,
    "eso": 5197,
    "chl": 5198,
    "andra": 5199,
    "allet": 5200,
    "Hal": 5201,
    "Grow": 5202,
    "Equ": 5203,
    "ASS": 5204,
    "ADE": 5205,
    "965": 5206,
    "620": 5207,
    "327": 5208,
    "체": 5209,
    "Ġteeth": 5210,
    "Ġsemana": 5211,
    "Ġpre": 5212,
    "Ġpage": 5213,
    "Ġfew": 5214,
    "ár": 5215,
    "util": 5216,
    "unes": 5217,
    "sky": 5218,
    "sie": 5219,
    "pleasant": 5220,
    "orge": 5221,
    "orado": 5222,
    "ologi": 5223,
    "nice": 5224,
    "itten": 5225,
    "isco": 5226,
    "ipp": 5227,
    "dry": 5228,
    "contact": 5229,
    "cellent": 5230,
    "bens": 5231,
    "Som": 5232,
    "Sie": 5233,
    "Holy": 5234,
    "156": 5235,
    "101": 5236,
    "030": 5237,
    "018": 5238,
    "بر": 5239,
    "Ġmillion": 5240,
    "Ġlist": 5241,
    "Ġfire": 5242,
    "ĠAd": 5243,
    "çu": 5244,
    "wert": 5245,
    "ukt": 5246,
    "rok": 5247,
    "piration": 5248,
    "orno": 5249,
    "omin": 5250,
    "nde": 5251,
    "lop": 5252,
    "irty": 5253,
    "irse": 5254,
    "door": 5255,
    "culo": 5256,
    "Young": 5257,
    "Various": 5258,
    "Employ": 5259,
    "Comm": 5260,
    "Catch": 5261,
    "AZ": 5262,
    "963": 5263,
    "152": 5264,
    "062": 5265,
    ".se": 5266,
    "-z": 5267,
    "Ġtrue": 5268,
    "Ġtempo": 5269,
    "Ġsol": 5270,
    "Ġhappened": 5271,
    "Ġboat": 5272,
    "ĠHam": 5273,
    "ĠApp": 5274,
    "ù": 5275,
    "yp": 5276,
    "term": 5277,
    "rupt": 5278,
    "noon": 5279,
    "ming": 5280,
    "istema": 5281,
    "iek": 5282,
    "fit": 5283,
    "firm": 5284,
    "fair": 5285,
    "escal": 5286,
    "dess": 5287,
    "bere": 5288,
    "bage": 5289,
    "Year": 5290,
    "Ré": 5291,
    "Once": 5292,
    "Ju": 5293,
    "Iron": 5294,
    "FS": 5295,
    "Europe": 5296,
    "Diff": 5297,
    "Bone": 5298,
    "BI": 5299,
    "370": 5300,
    "357": 5301,
    "ช": 5302,
    "Ġpriests": 5303,
    "Ġpes": 5304,
    "Ġfloor": 5305,
    "Ġens": 5306,
    "Ġdis": 5307,
    "Ġarose": 5308,
    "ĠFil": 5309,
    "ĠDaniel": 5310,
    "visual": 5311,
    "rise": 5312,
    "quia": 5313,
    "possible": 5314,
    "onest": 5315,
    "nin": 5316,
    "lle": 5317,
    "iverse": 5318,
    "iciente": 5319,
    "gener": 5320,
    "enez": 5321,
    "deliver": 5322,
    "complete": 5323,
    "anje": 5324,
    "alphabet": 5325,
    "SH": 5326,
    "Return": 5327,
    "Hel": 5328,
    "Heart": 5329,
    "Down": 5330,
    "DES": 5331,
    "Ġwh": 5332,
    "Ġstory": 5333,
    "Ġsal": 5334,
    "Ġpresent": 5335,
    "Ġlast": 5336,
    "Ġhalf": 5337,
    "ĠNO": 5338,
    "ĠDon": 5339,
    "zes": 5340,
    "xico": 5341,
    "udd": 5342,
    "quick": 5343,
    "ocks": 5344,
    "much": 5345,
    "motor": 5346,
    "igion": 5347,
    "icho": 5348,
    "icação": 5349,
    "ection": 5350,
    "dam": 5351,
    "cross": 5352,
    "chu": 5353,
    "chor": 5354,
    "anela": 5355,
    "ancy": 5356,
    "XT": 5357,
    "White": 5358,
    "WD": 5359,
    "Texto": 5360,
    "Save": 5361,
    "Quiet": 5362,
    "Guide": 5363,
    "Following": 5364,
    "Autom": 5365,
    "583": 5366,
    "549": 5367,
    "435": 5368,
    "198": 5369,
    ".'": 5370,
    "운": 5371,
    "Ġwriting": 5372,
    "Ġstone": 5373,
    "Ġhope": 5374,
    "Ġdeaf": 5375,
    "Ġcried": 5376,
    "ĠEducation": 5377,
    "vil": 5378,
    "veget": 5379,
    "urm": 5380,
    "porte": 5381,
    "occ": 5382,
    "mur": 5383,
    "lever": 5384,
    "izado": 5385,
    "ics": 5386,
    "esser": 5387,
    "eous": 5388,
    "cn": 5389,
    "athroom": 5390,
    "angu": 5391,
    "Via": 5392,
    "UY": 5393,
    "Hol": 5394,
    "Gro": 5395,
    "Fight": 5396,
    "643": 5397,
    "424": 5398,
    "139": 5399,
    "-on": 5400,
    "-es": 5401,
    "ظ": 5402,
    "Ġspoke": 5403,
    "Ġap": 5404,
    "ório": 5405,
    "ufficient": 5406,
    "text": 5407,
    "rose": 5408,
    "progress": 5409,
    "pri": 5410,
    "green": 5411,
    "ging": 5412,
    "audi": 5413,
    "aler": 5414,
    "addy": 5415,
    "VD": 5416,
    "Type": 5417,
    "Pause": 5418,
    "Ni": 5419,
    "IRO": 5420,
    "Earth": 5421,
    "192": 5422,
    "020": 5423,
    "ר": 5424,
    "Ġstrong": 5425,
    "Ġreg": 5426,
    "Ġpo": 5427,
    "Ġhaving": 5428,
    "Ġdi": 5429,
    "ören": 5430,
    "weight": 5431,
    "save": 5432,
    "rece": 5433,
    "owl": 5434,
    "kov": 5435,
    "iken": 5436,
    "iding": 5437,
    "icycle": 5438,
    "icon": 5439,
    "hibit": 5440,
    "earth": 5441,
    "create": 5442,
    "bab": 5443,
    "andes": 5444,
    "XX": 5445,
    "TA": 5446,
    "Prop": 5447,
    "Pad": 5448,
    "Opp": 5449,
    "Lux": 5450,
    "Ke": 5451,
    "@g": 5452,
    "950": 5453,
    "649": 5454,
    "288": 5455,
    "157": 5456,
    "010": 5457,
    ".pdf": 5458,
    "$nzs": 5459,
    "$icl": 5460,
    "트": 5461,
    "Ġkill": 5462,
    "Ġground": 5463,
    "Ġbehind": 5464,
    "ĠUhr": 5465,
    "änder": 5466,
    "wel": 5467,
    "stay": 5468,
    "rett": 5469,
    "perform": 5470,
    "ope": 5471,
    "most": 5472,
    "mana": 5473,
    "lead": 5474,
    "iras": 5475,
    "haus": 5476,
    "hands": 5477,
    "atri": 5478,
    "Typ": 5479,
    "Tuesday": 5480,
    "Human": 5481,
    "Female": 5482,
    "Australia": 5483,
    "159": 5484,
    "Ġب": 5485,
    "Ġvar": 5486,
    "Ġthanks": 5487,
    "Ġmundo": 5488,
    "ĠSe": 5489,
    "ĠNo": 5490,
    "ĠHer": 5491,
    "été": 5492,
    "Ã": 5493,
    "uche": 5494,
    "ocê": 5495,
    "isi": 5496,
    "ipl": 5497,
    "api": 5498,
    "allow": 5499,
    "Sad": 5500,
    "PC": 5501,
    "Dom": 5502,
    "662": 5503,
    "269": 5504,
    "175": 5505,
    "137": 5506,
    "074": 5507,
    "Ġmostra": 5508,
    "Ġmachen": 5509,
    "äm": 5510,
    "ám": 5511,
    "°": 5512,
    "ured": 5513,
    "umar": 5514,
    "rape": 5515,
    "pur": 5516,
    "olve": 5517,
    "ohl": 5518,
    "ilig": 5519,
    "hil": 5520,
    "hic": 5521,
    "arel": 5522,
    "Without": 5523,
    "Tag": 5524,
    "Play": 5525,
    "Occ": 5526,
    "MI": 5527,
    "FF": 5528,
    "Cook": 5529,
    "Are": 5530,
    "585": 5531,
    "567": 5532,
    "209": 5533,
    "105": 5534,
    "Ġprodu": 5535,
    "Ġbecome": 5536,
    "Ġalphabet": 5537,
    "ĠLL": 5538,
    "ĠGr": 5539,
    "ĠFern": 5540,
    "ĠAmerica": 5541,
    "ías": 5542,
    "ética": 5543,
    "transform": 5544,
    "stitution": 5545,
    "plat": 5546,
    "ordinate": 5547,
    "isl": 5548,
    "führ": 5549,
    "fully": 5550,
    "five": 5551,
    "extra": 5552,
    "course": 5553,
    "chw": 5554,
    "blue": 5555,
    "bind": 5556,
    "antic": 5557,
    "aden": 5558,
    "adapt": 5559,
    "Which": 5560,
    "Tra": 5561,
    "Phys": 5562,
    "Bow": 5563,
    "Ali": 5564,
    "902": 5565,
    "785": 5566,
    "741": 5567,
    "185": 5568,
    "151": 5569,
    "136": 5570,
    "032": 5571,
    "Ġofficer": 5572,
    "Ġnext": 5573,
    "Ġhat": 5574,
    "Ġfriend": 5575,
    "Ġdirection": 5576,
    "Ġdeparted": 5577,
    "wor": 5578,
    "vl": 5579,
    "vie": 5580,
    "true": 5581,
    "seven": 5582,
    "sek": 5583,
    "rod": 5584,
    "respect": 5585,
    "reme": 5586,
    "punkt": 5587,
    "plain": 5588,
    "ounce": 5589,
    "gment": 5590,
    "frag": 5591,
    "format": 5592,
    "ered": 5593,
    "control": 5594,
    "cant": 5595,
    "cab": 5596,
    "azione": 5597,
    "UX": 5598,
    "Teacher": 5599,
    "Saturday": 5600,
    "Sand": 5601,
    "Ham": 5602,
    "HT": 5603,
    "HH": 5604,
    "DS": 5605,
    "Cast": 5606,
    "514": 5607,
    "340": 5608,
    "237": 5609,
    "$gr": 5610,
    "Ġthought": 5611,
    "Ġplan": 5612,
    "Ġmir": 5613,
    "Ġball": 5614,
    "Ġalone": 5615,
    "ĠWho": 5616,
    "ĠLIB": 5617,
    "world": 5618,
    "urate": 5619,
    "union": 5620,
    "span": 5621,
    "ski": 5622,
    "represent": 5623,
    "oise": 5624,
    "norm": 5625,
    "lov": 5626,
    "levant": 5627,
    "kur": 5628,
    "kont": 5629,
    "dict": 5630,
    "cest": 5631,
    "beat": 5632,
    "aving": 5633,
    "ault": 5634,
    "ahren": 5635,
    "aching": 5636,
    "WC": 5637,
    "TER": 5638,
    "Note": 5639,
    "Distinct": 5640,
    "August": 5641,
    "810": 5642,
    "627": 5643,
    "064": 5644,
    "'en": 5645,
    "ה": 5646,
    "Ġtre": 5647,
    "Ġtoward": 5648,
    "Ġsymbol": 5649,
    "Ġimmediately": 5650,
    "Ġcase": 5651,
    "ève": 5652,
    "tab": 5653,
    "quant": 5654,
    "poser": 5655,
    "onsense": 5656,
    "oking": 5657,
    "near": 5658,
    "nar": 5659,
    "itu": 5660,
    "impl": 5661,
    "hang": 5662,
    "food": 5663,
    "emo": 5664,
    "cold": 5665,
    "chied": 5666,
    "ajar": 5667,
    "aison": 5668,
    "acad": 5669,
    "French": 5670,
    "Document": 5671,
    "563": 5672,
    "341": 5673,
    "293": 5674,
    "169": 5675,
    "-sign": 5676,
    "),": 5677,
    "당": 5678,
    "Ġrejoice": 5679,
    "Ġraised": 5680,
    "Ġop": 5681,
    "Ġnames": 5682,
    "Ġbit": 5683,
    "ĠPu": 5684,
    "zahl": 5685,
    "yc": 5686,
    "tam": 5687,
    "rase": 5688,
    "ops": 5689,
    "manifest": 5690,
    "lassen": 5691,
    "ither": 5692,
    "icio": 5693,
    "feito": 5694,
    "cit": 5695,
    "atório": 5696,
    "ams": 5697,
    "Us": 5698,
    "RT": 5699,
    "Male": 5700,
    "FD": 5701,
    "Bus": 5702,
    "916": 5703,
    "834": 5704,
    "806": 5705,
    "286": 5706,
    "229": 5707,
    "197": 5708,
    "165": 5709,
    "135": 5710,
    "111": 5711,
    "-ch": 5712,
    "*": 5713,
    ").": 5714,
    "Ġliving": 5715,
    "Ġbone": 5716,
    "Ġalways": 5717,
    "ĠAp": 5718,
    "âte": 5719,
    "urry": 5720,
    "uan": 5721,
    "tol": 5722,
    "strate": 5723,
    "roduce": 5724,
    "requ": 5725,
    "object": 5726,
    "minus": 5727,
    "licher": 5728,
    "kor": 5729,
    "ince": 5730,
    "alla": 5731,
    "ahlen": 5732,
    "Radi": 5733,
    "PK": 5734,
    "Orange": 5735,
    "MB": 5736,
    "Capital": 5737,
    "597": 5738,
    "556": 5739,
    "542": 5740,
    "495": 5741,
    "372": 5742,
    "307": 5743,
    "282": 5744,
    "016": 5745,
    "니": 5746,
    "ود": 5747,
    "Ġwhose": 5748,
    "Ġproject": 5749,
    "Ġpl": 5750,
    "Ġlying": 5751,
    "Ġkingdom": 5752,
    "Ġjudge": 5753,
    "Ġfort": 5754,
    "Ġfast": 5755,
    "Ġdesp": 5756,
    "Ġcharge": 5757,
    "ĠBil": 5758,
    "äche": 5759,
    "zent": 5760,
    "udos": 5761,
    "total": 5762,
    "study": 5763,
    "oux": 5764,
    "ourn": 5765,
    "mol": 5766,
    "lauf": 5767,
    "kv": 5768,
    "istr": 5769,
    "iento": 5770,
    "eline": 5771,
    "const": 5772,
    "anken": 5773,
    "altern": 5774,
    "alten": 5775,
    "Unc": 5776,
    "RES": 5777,
    "Practice": 5778,
    "JE": 5779,
    "Internet": 5780,
    "ITE": 5781,
    "FT": 5782,
    "Element": 5783,
    "Eff": 5784,
    "DV": 5785,
    "Cro": 5786,
    "Comfort": 5787,
    "969": 5788,
    "958": 5789,
    "884": 5790,
    "719": 5791,
    "660": 5792,
    "497": 5793,
    "423": 5794,
    "033": 5795,
    "른": 5796,
    "Ġpal": 5797,
    "Ġblessed": 5798,
    "Ġbl": 5799,
    "ĠSanto": 5800,
    "ĠPr": 5801,
    "urse": 5802,
    "umm": 5803,
    "stration": 5804,
    "sons": 5805,
    "refer": 5806,
    "produce": 5807,
    "osen": 5808,
    "oor": 5809,
    "obj": 5810,
    "lam": 5811,
    "izing": 5812,
    "illon": 5813,
    "ificado": 5814,
    "gether": 5815,
    "feel": 5816,
    "enti": 5817,
    "dag": 5818,
    "cheid": 5819,
    "UI": 5820,
    "Personal": 5821,
    "Link": 5822,
    "IMA": 5823,
    "AH": 5824,
    "529": 5825,
    "371": 5826,
    "354": 5827,
    "261": 5828,
    "Ġperish": 5829,
    "Ġmã": 5830,
    "Ġmidst": 5831,
    "Ġgod": 5832,
    "Ġcolor": 5833,
    "Ġbegan": 5834,
    "ĠTr": 5835,
    "ĠSimon": 5836,
    "ĠQu": 5837,
    "ĠPiano": 5838,
    "ĠMA": 5839,
    "ĠJaneiro": 5840,
    "örper": 5841,
    "plex": 5842,
    "ilt": 5843,
    "ieu": 5844,
    "icular": 5845,
    "icial": 5846,
    "cream": 5847,
    "brace": 5848,
    "bla": 5849,
    "astro": 5850,
    "Sleep": 5851,
    "Monday": 5852,
    "Full": 5853,
    "711": 5854,
    "313": 5855,
    "168": 5856,
    "053": 5857,
    "009": 5858,
    "-i": 5859,
    "Ġtrês": 5860,
    "Ġline": 5861,
    "Ġbrasile": 5862,
    "urr": 5863,
    "reu": 5864,
    "ration": 5865,
    "quest": 5866,
    "oren": 5867,
    "isson": 5868,
    "enci": 5869,
    "ega": 5870,
    "auto": 5871,
    "always": 5872,
    "aires": 5873,
    "OW": 5874,
    "538": 5875,
    "499": 5876,
    "310": 5877,
    "306": 5878,
    "-o": 5879,
    "Ġza": 5880,
    "Ġnos": 5881,
    "Ġnada": 5882,
    "Ġminutes": 5883,
    "Ġmi": 5884,
    "ĠCentro": 5885,
    "vious": 5886,
    "vez": 5887,
    "urst": 5888,
    "ulg": 5889,
    "omer": 5890,
    "ocate": 5891,
    "innen": 5892,
    "igator": 5893,
    "idos": 5894,
    "emplate": 5895,
    "claim": 5896,
    "asure": 5897,
    "Techn": 5898,
    "Search": 5899,
    "MW": 5900,
    "Line": 5901,
    "Guard": 5902,
    "GS": 5903,
    "949": 5904,
    "899": 5905,
    "795": 5906,
    "676": 5907,
    "630": 5908,
    "244": 5909,
    "138": 5910,
    "109": 5911,
    "055": 5912,
    "028": 5913,
    "013": 5914,
    "Ġindeed": 5915,
    "Ġimage": 5916,
    "Ġgroup": 5917,
    "Ġbest": 5918,
    "Ġangel": 5919,
    "ĠNoah": 5920,
    "ôt": 5921,
    "ums": 5922,
    "roupe": 5923,
    "lamp": 5924,
    "izo": 5925,
    "inas": 5926,
    "icion": 5927,
    "han": 5928,
    "erais": 5929,
    "date": 5930,
    "compet": 5931,
    "como": 5932,
    "burg": 5933,
    "bt": 5934,
    "beautiful": 5935,
    "avra": 5936,
    "agree": 5937,
    "Large": 5938,
    "Inc": 5939,
    "Electric": 5940,
    "Dani": 5941,
    "Baby": 5942,
    "515": 5943,
    "494": 5944,
    "445": 5945,
    "437": 5946,
    "304": 5947,
    "265": 5948,
    "264": 5949,
    "004": 5950,
    "스": 5951,
    "Ġpron": 5952,
    "Ġeighty": 5953,
    "Ö": 5954,
    "ulous": 5955,
    "tent": 5956,
    "semble": 5957,
    "piel": 5958,
    "lay": 5959,
    "communic": 5960,
    "ases": 5961,
    "antar": 5962,
    "Strike": 5963,
    "Store": 5964,
    "Stand": 5965,
    "SW": 5966,
    "Police": 5967,
    "OME": 5968,
    "Language": 5969,
    "Ignore": 5970,
    "GY": 5971,
    "Arm": 5972,
    "April": 5973,
    "985": 5974,
    "937": 5975,
    "813": 5976,
    "754": 5977,
    "214": 5978,
    "098": 5979,
    "050": 5980,
    "Ġig": 5981,
    "platz": 5982,
    "ocol": 5983,
    "jug": 5984,
    "ities": 5985,
    "ifice": 5986,
    "icas": 5987,
    "fü": 5988,
    "chair": 5989,
    "bul": 5990,
    "brown": 5991,
    "arrow": 5992,
    "amous": 5993,
    "airs": 5994,
    "Program": 5995,
    "Labor": 5996,
    "Fab": 5997,
    "EC": 5998,
    "COM": 5999,
    "AW": 6000,
    "518": 6001,
    "449": 6002,
    "438": 6003,
    "406": 6004,
    "345": 6005,
    "334": 6006,
    "274": 6007,
    "107": 6008,
    "-ne": 6009,
    "Ġsystem": 6010,
    "Ġsich": 6011,
    "Ġservants": 6012,
    "Ġpai": 6013,
    "Ġahead": 6014,
    "ĠHis": 6015,
    "ètre": 6016,
    "vig": 6017,
    "usk": 6018,
    "tree": 6019,
    "todos": 6020,
    "sport": 6021,
    "oph": 6022,
    "ocal": 6023,
    "mind": 6024,
    "keep": 6025,
    "item": 6026,
    "instr": 6027,
    "iance": 6028,
    "horse": 6029,
    "expl": 6030,
    "esa": 6031,
    "draw": 6032,
    "ceed": 6033,
    "brush": 6034,
    "ancel": 6035,
    "already": 6036,
    "abol": 6037,
    "VIS": 6038,
    "Path": 6039,
    "Mos": 6040,
    "Both": 6041,
    "Block": 6042,
    "957": 6043,
    "901": 6044,
    "868": 6045,
    "816": 6046,
    "805": 6047,
    "721": 6048,
    "664": 6049,
    "489": 6050,
    "218": 6051,
    "049": 6052,
    "006": 6053,
    "Ġthink": 6054,
    "Ġcenter": 6055,
    "ĠOr": 6056,
    "ĠNacional": 6057,
    "ĠMor": 6058,
    "ĠEgypt": 6059,
    "usual": 6060,
    "uppe": 6061,
    "stad": 6062,
    "sea": 6063,
    "ril": 6064,
    "resa": 6065,
    "pert": 6066,
    "pain": 6067,
    "ousand": 6068,
    "offer": 6069,
    "obs": 6070,
    "mond": 6071,
    "gua": 6072,
    "axe": 6073,
    "attr": 6074,
    "athering": 6075,
    "arde": 6076,
    "ampion": 6077,
    "aker": 6078,
    "Ta": 6079,
    "Sold": 6080,
    "Profit": 6081,
    "November": 6082,
    "Mess": 6083,
    "Design": 6084,
    "DF": 6085,
    "409": 6086,
    "301": 6087,
    "-left": 6088,
    "رو": 6089,
    "Ġل": 6090,
    "Ġsmall": 6091,
    "Ġrun": 6092,
    "Ġrich": 6093,
    "Ġmercy": 6094,
    "Ġgold": 6095,
    "zeich": 6096,
    "tal": 6097,
    "story": 6098,
    "sj": 6099,
    "similar": 6100,
    "ses": 6101,
    "rias": 6102,
    "phot": 6103,
    "ounsel": 6104,
    "lion": 6105,
    "lage": 6106,
    "join": 6107,
    "job": 6108,
    "inv": 6109,
    "iben": 6110,
    "hm": 6111,
    "fern": 6112,
    "enh": 6113,
    "electric": 6114,
    "allo": 6115,
    "aben": 6116,
    "Sat": 6117,
    "Public": 6118,
    "OF": 6119,
    "Learn": 6120,
    "Cell": 6121,
    "Ah": 6122,
    "961": 6123,
    "803": 6124,
    "793": 6125,
    "770": 6126,
    "726": 6127,
    "673": 6128,
    "422": 6129,
    "355": 6130,
    "117": 6131,
    "Ġtag": 6132,
    "Ġbon": 6133,
    "Ġbei": 6134,
    "ĠKingdom": 6135,
    "ĠIslands": 6136,
    "ĠGrupo": 6137,
    "érieur": 6138,
    "vn": 6139,
    "urance": 6140,
    "umber": 6141,
    "ugh": 6142,
    "texto": 6143,
    "stant": 6144,
    "sf": 6145,
    "sad": 6146,
    "round": 6147,
    "osexual": 6148,
    "ordin": 6149,
    "mate": 6150,
    "link": 6151,
    "illing": 6152,
    "flex": 6153,
    "endant": 6154,
    "avia": 6155,
    "Secure": 6156,
    "Previous": 6157,
    "Home": 6158,
    "Fail": 6159,
    "ANG": 6160,
    "480": 6161,
    "403": 6162,
    "041": 6163,
    "Ġtemps": 6164,
    "Ġsub": 6165,
    "Ġsend": 6166,
    "Ġesp": 6167,
    "Ġent": 6168,
    "Ġbou": 6169,
    "ĠThat": 6170,
    "ĠSouth": 6171,
    "úmeros": 6172,
    "ôle": 6173,
    "vision": 6174,
    "uct": 6175,
    "rian": 6176,
    "pecial": 6177,
    "ood": 6178,
    "ogn": 6179,
    "ificação": 6180,
    "iffer": 6181,
    "ibir": 6182,
    "hospital": 6183,
    "grow": 6184,
    "fal": 6185,
    "ei": 6186,
    "deck": 6187,
    "cup": 6188,
    "cc": 6189,
    "amt": 6190,
    "adel": 6191,
    "RC": 6192,
    "Mas": 6193,
    "MAN": 6194,
    "LY": 6195,
    "Here": 6196,
    "FORM": 6197,
    "984": 6198,
    "976": 6199,
    "973": 6200,
    "932": 6201,
    "921": 6202,
    "880": 6203,
    "861": 6204,
    "856": 6205,
    "829": 6206,
    "757": 6207,
    "740": 6208,
    "651": 6209,
    "498": 6210,
    "429": 6211,
    "312": 6212,
    "222": 6213,
    "219": 6214,
    "213": 6215,
    "149": 6216,
    "132": 6217,
    "035": 6218,
    ".pages": 6219,
    ".num": 6220,
    "Ġva": 6221,
    "Ġdw": 6222,
    "ĠTest": 6223,
    "ĠLa": 6224,
    "áb": 6225,
    "tement": 6226,
    "oved": 6227,
    "nement": 6228,
    "mount": 6229,
    "liter": 6230,
    "jam": 6231,
    "ichte": 6232,
    "grave": 6233,
    "eros": 6234,
    "erin": 6235,
    "ends": 6236,
    "emble": 6237,
    "email": 6238,
    "cry": 6239,
    "command": 6240,
    "cm": 6241,
    "berry": 6242,
    "asy": 6243,
    "ardon": 6244,
    "anel": 6245,
    "aille": 6246,
    "Prom": 6247,
    "Mate": 6248,
    "EG": 6249,
    "Card": 6250,
    "Bal": 6251,
    "ATO": 6252,
    "578": 6253,
    "559": 6254,
    "430": 6255,
    "375": 6256,
    "350": 6257,
    "303": 6258,
    "260": 6259,
    "Ġve": 6260,
    "Ġupright": 6261,
    "Ġstudent": 6262,
    "Ġstay": 6263,
    "Ġplus": 6264,
    "Ġmas": 6265,
    "ĠHow": 6266,
    "xious": 6267,
    "which": 6268,
    "uo": 6269,
    "trag": 6270,
    "tion": 6271,
    "rence": 6272,
    "recht": 6273,
    "py": 6274,
    "prov": 6275,
    "ouv": 6276,
    "onz": 6277,
    "ongo": 6278,
    "ody": 6279,
    "illed": 6280,
    "igu": 6281,
    "iba": 6282,
    "hy": 6283,
    "encil": 6284,
    "ems": 6285,
    "cidade": 6286,
    "chef": 6287,
    "build": 6288,
    "bei": 6289,
    "asco": 6290,
    "ascimento": 6291,
    "WP": 6292,
    "Record": 6293,
    "Pour": 6294,
    "OLA": 6295,
    "National": 6296,
    "Italy": 6297,
    "IDADE": 6298,
    "Fu": 6299,
    "Dire": 6300,
    "Buy": 6301,
    "Argentina": 6302,
    "995": 6303,
    "951": 6304,
    "906": 6305,
    "885": 6306,
    "876": 6307,
    "846": 6308,
    "633": 6309,
    "419": 6310,
    "323": 6311,
    "220": 6312,
    "187": 6313,
    "120": 6314,
    "061": 6315,
    "-out": 6316,
    "-mail": 6317,
    "Ġالم": 6318,
    "Ġvor": 6319,
    "Ġseason": 6320,
    "Ġbom": 6321,
    "Ġant": 6322,
    "ĠTh": 6323,
    "ĠPessoa": 6324,
    "ĠDar": 6325,
    "ĠAmen": 6326,
    "ños": 6327,
    "xiety": 6328,
    "ulação": 6329,
    "profession": 6330,
    "pig": 6331,
    "natural": 6332,
    "national": 6333,
    "moment": 6334,
    "lice": 6335,
    "inq": 6336,
    "hest": 6337,
    "favor": 6338,
    "ench": 6339,
    "emand": 6340,
    "cow": 6341,
    "bie": 6342,
    "aqu": 6343,
    "adar": 6344,
    "Will": 6345,
    "Trad": 6346,
    "Should": 6347,
    "Fast": 6348,
    "Dream": 6349,
    "Char": 6350,
    "Bag": 6351,
    "598": 6352,
    "554": 6353,
    "356": 6354,
    "242": 6355,
    "Ġ–": 6356,
    "Ġpróp": 6357,
    "Ġeu": 6358,
    "ügen": 6359,
    "yt": 6360,
    "video": 6361,
    "unds": 6362,
    "ssa": 6363,
    "osten": 6364,
    "must": 6365,
    "izont": 6366,
    "ifs": 6367,
    "gard": 6368,
    "forward": 6369,
    "_k": 6370,
    "RS": 6371,
    "ONT": 6372,
    "Lock": 6373,
    "GH": 6374,
    "Double": 6375,
    "Date": 6376,
    "Brief": 6377,
    "962": 6378,
    "960": 6379,
    "953": 6380,
    "811": 6381,
    "727": 6382,
    "695": 6383,
    "631": 6384,
    "468": 6385,
    "420": 6386,
    "299": 6387,
    "216": 6388,
    "072": 6389,
    "-con": 6390,
    "็": 6391,
    "Ġđ": 6392,
    "Ġwrath": 6393,
    "Ġpray": 6394,
    "Ġmim": 6395,
    "Ġlater": 6396,
    "Ġfools": 6397,
    "Ġche": 6398,
    "ĠPil": 6399,
    "ĠFort": 6400,
    "áticas": 6401,
    "ßer": 6402,
    "xa": 6403,
    "spread": 6404,
    "scar": 6405,
    "rove": 6406,
    "ressed": 6407,
    "primer": 6408,
    "mult": 6409,
    "iu": 6410,
    "irteen": 6411,
    "inity": 6412,
    "het": 6413,
    "gia": 6414,
    "erve": 6415,
    "emiah": 6416,
    "elijk": 6417,
    "doc": 6418,
    "develop": 6419,
    "ction": 6420,
    "argo": 6421,
    "amiento": 6422,
    "allen": 6423,
    "Wood": 6424,
    "Warm": 6425,
    "Vari": 6426,
    "Stock": 6427,
    "Progress": 6428,
    "Night": 6429,
    "Memory": 6430,
    "Mail": 6431,
    "East": 6432,
    "BY": 6433,
    "540": 6434,
    "404": 6435,
    "342": 6436,
    "336": 6437,
    "177": 6438,
    "식": 6439,
    "ש": 6440,
    "Ġ안": 6441,
    "Ġremember": 6442,
    "Ġoder": 6443,
    "Ġentered": 6444,
    "Ġca": 6445,
    "ène": 6446,
    "vention": 6447,
    "should": 6448,
    "rica": 6449,
    "quin": 6450,
    "perf": 6451,
    "ows": 6452,
    "oven": 6453,
    "ouro": 6454,
    "oration": 6455,
    "lasses": 6456,
    "jas": 6457,
    "izz": 6458,
    "itting": 6459,
    "isto": 6460,
    "empre": 6461,
    "craft": 6462,
    "cluir": 6463,
    "anst": 6464,
    "andal": 6465,
    "amas": 6466,
    "adult": 6467,
    "ZA": 6468,
    "Unexpected": 6469,
    "Say": 6470,
    "President": 6471,
    "Opt": 6472,
    "ORA": 6473,
    "NY": 6474,
    "MN": 6475,
    "Japan": 6476,
    "Adam": 6477,
    "AU": 6478,
    "974": 6479,
    "942": 6480,
    "925": 6481,
    "872": 6482,
    "815": 6483,
    "781": 6484,
    "694": 6485,
    "685": 6486,
    "622": 6487,
    "616": 6488,
    "604": 6489,
    "602": 6490,
    "580": 6491,
    "273": 6492,
    "221": 6493,
    "147": 6494,
    "125": 6495,
    "121": 6496,
    "112": 6497,
    "056": 6498,
    "027": 6499,
    ".xlsx": 6500,
    "Ġwindow": 6501,
    "Ġtodo": 6502,
    "Ġsun": 6503,
    "Ġregion": 6504,
    "Ġquer": 6505,
    "Ġnone": 6506,
    "Ġescol": 6507,
    "Ġac": 6508,
    "ĠTestament": 6509,
    "ĠPedro": 6510,
    "Ġ,": 6511,
    "zug": 6512,
    "ximo": 6513,
    "when": 6514,
    "uve": 6515,
    "syn": 6516,
    "roup": 6517,
    "report": 6518,
    "ovan": 6519,
    "nahme": 6520,
    "igation": 6521,
    "iful": 6522,
    "icked": 6523,
    "emplo": 6524,
    "dra": 6525,
    "corn": 6526,
    "cook": 6527,
    "company": 6528,
    "atten": 6529,
    "ately": 6530,
    "Unique": 6531,
    "Sin": 6532,
    "Mountain": 6533,
    "Grad": 6534,
    "Flo": 6535,
    "EP": 6536,
    "Does": 6537,
    "Cou": 6538,
    "COR": 6539,
    "526": 6540,
    "492": 6541,
    "472": 6542,
    "452": 6543,
    "440": 6544,
    "275": 6545,
    "263": 6546,
    "153": 6547,
    "-ver": 6548,
    "้า": 6549,
    "ัน": 6550,
    "Ġأ": 6551,
    "Ġsou": 6552,
    "Ġseed": 6553,
    "Ġhem": 6554,
    "Ġcontact": 6555,
    "Ġbreak": 6556,
    "Ġboy": 6557,
    "Ġanything": 6558,
    "Ġafternoon": 6559,
    "äß": 6560,
    "white": 6561,
    "umn": 6562,
    "uggle": 6563,
    "uchar": 6564,
    "uben": 6565,
    "thers": 6566,
    "techn": 6567,
    "stim": 6568,
    "root": 6569,
    "raw": 6570,
    "raid": 6571,
    "quito": 6572,
    "pit": 6573,
    "ologist": 6574,
    "lymp": 6575,
    "legal": 6576,
    "ining": 6577,
    "histoire": 6578,
    "follow": 6579,
    "exist": 6580,
    "eric": 6581,
    "enses": 6582,
    "config": 6583,
    "aya": 6584,
    "atif": 6585,
    "antage": 6586,
    "andro": 6587,
    "abh": 6588,
    "TS": 6589,
    "Sel": 6590,
    "SK": 6591,
    "Peter": 6592,
    "Organization": 6593,
    "LOG": 6594,
    "Disappear": 6595,
    "941": 6596,
    "940": 6597,
    "935": 6598,
    "888": 6599,
    "858": 6600,
    "837": 6601,
    "748": 6602,
    "747": 6603,
    "469": 6604,
    "414": 6605,
    "289": 6606,
    "194": 6607,
    "172": 6608,
    "145": 6609,
    ".uk": 6610,
    ".co": 6611,
    "-hand": 6612,
    "Ġpen": 6613,
    "Ġnova": 6614,
    "Ġhusband": 6615,
    "Ġdan": 6616,
    "ĠMend": 6617,
    "ĠKing": 6618,
    "üns": 6619,
    "ération": 6620,
    "yellow": 6621,
    "wards": 6622,
    "touch": 6623,
    "toc": 6624,
    "step": 6625,
    "sat": 6626,
    "rew": 6627,
    "other": 6628,
    "osc": 6629,
    "ombre": 6630,
    "olen": 6631,
    "ln": 6632,
    "ič": 6633,
    "iolet": 6634,
    "iler": 6635,
    "func": 6636,
    "ellow": 6637,
    "edy": 6638,
    "daughter": 6639,
    "cue": 6640,
    "bron": 6641,
    "bio": 6642,
    "ames": 6643,
    "Pop": 6644,
    "Medical": 6645,
    "Introduction": 6646,
    "Ice": 6647,
    "Conflict": 6648,
    "Compet": 6649,
    "Arg": 6650,
    "AMIL": 6651,
    "596": 6652,
    "560": 6653,
    "513": 6654,
    "491": 6655,
    "343": 6656,
    "294": 6657,
    "256": 6658,
    "234": 6659,
    "231": 6660,
    "103": 6661,
    "085": 6662,
    "021": 6663,
    ".B": 6664,
    "ถ": 6665,
    "Ġwalking": 6666,
    "Ġthoughts": 6667,
    "Ġperiod": 6668,
    "Ġfingers": 6669,
    "Ġcol": 6670,
    "Ġalong": 6671,
    "ĠWest": 6672,
    "ĠVie": 6673,
    "če": 6674,
    "too": 6675,
    "today": 6676,
    "razy": 6677,
    "ocolate": 6678,
    "need": 6679,
    "mill": 6680,
    "micro": 6681,
    "lichen": 6682,
    "istant": 6683,
    "ischer": 6684,
    "igate": 6685,
    "ichtig": 6686,
    "hib": 6687,
    "geme": 6688,
    "flower": 6689,
    "fight": 6690,
    "eres": 6691,
    "duc": 6692,
    "continue": 6693,
    "birthday": 6694,
    "bill": 6695,
    "ações": 6696,
    "arbeit": 6697,
    "arb": 6698,
    "appe": 6699,
    "acious": 6700,
    "access": 6701,
    "above": 6702,
    "Want": 6703,
    "Você": 6704,
    "Tour": 6705,
    "Title": 6706,
    "Okay": 6707,
    "Lang": 6708,
    "KE": 6709,
    "Hor": 6710,
    "Fine": 6711,
    "Egypt": 6712,
    "Box": 6713,
    "ADOR": 6714,
    "996": 6715,
    "975": 6716,
    "930": 6717,
    "924": 6718,
    "773": 6719,
    "755": 6720,
    "687": 6721,
    "477": 6722,
    "476": 6723,
    "467": 6724,
    "369": 6725,
    "367": 6726,
    "287": 6727,
    "160": 6728,
    "106": 6729,
    "066": 6730,
    "-q": 6731,
    "-com": 6732,
    "버": 6733,
    "ב": 6734,
    "Ġwhite": 6735,
    "Ġwerden": 6736,
    "Ġsure": 6737,
    "Ġstation": 6738,
    "Ġspace": 6739,
    "Ġsn": 6740,
    "Ġpå": 6741,
    "Ġluz": 6742,
    "Ġeiner": 6743,
    "Ġconcerning": 6744,
    "Ġclothes": 6745,
    "ĠSaint": 6746,
    "ĠPar": 6747,
    "ĠNorth": 6748,
    "Ġ?": 6749,
    "wort": 6750,
    "sweet": 6751,
    "student": 6752,
    "snow": 6753,
    "perse": 6754,
    "pai": 6755,
    "olina": 6756,
    "kat": 6757,
    "idea": 6758,
    "glas": 6759,
    "force": 6760,
    "ention": 6761,
    "eken": 6762,
    "cohol": 6763,
    "apor": 6764,
    "Spread": 6765,
    "Merc": 6766,
    "Kat": 6767,
    "Information": 6768,
    "Girl": 6769,
    "Bold": 6770,
    "593": 6771,
    "551": 6772,
    "392": 6773,
    "365": 6774,
    "359": 6775,
    "179": 6776,
    "065": 6777,
    "-par": 6778,
    "(a": 6779,
    "Ġwind": 6780,
    "Ġtarde": 6781,
    "Ġsua": 6782,
    "Ġriches": 6783,
    "Ġred": 6784,
    "Ġlooked": 6785,
    "Ġlay": 6786,
    "Ġbirth": 6787,
    "ĠSanta": 6788,
    "ĠMund": 6789,
    "ĠGu": 6790,
    "ĠCL": 6791,
    "ĠAra": 6792,
    "ências": 6793,
    "ych": 6794,
    "uur": 6795,
    "store": 6796,
    "still": 6797,
    "ruz": 6798,
    "rella": 6799,
    "rab": 6800,
    "oucher": 6801,
    "material": 6802,
    "ibilidade": 6803,
    "hood": 6804,
    "forma": 6805,
    "event": 6806,
    "equal": 6807,
    "ebra": 6808,
    "drop": 6809,
    "chr": 6810,
    "bing": 6811,
    "bindung": 6812,
    "bee": 6813,
    "Notice": 6814,
    "NZ": 6815,
    "Later": 6816,
    "Frank": 6817,
    "Commit": 6818,
    "Christian": 6819,
    "Aud": 6820,
    "Attention": 6821,
    "990": 6822,
    "918": 6823,
    "878": 6824,
    "854": 6825,
    "840": 6826,
    "839": 6827,
    "769": 6828,
    "733": 6829,
    "683": 6830,
    "659": 6831,
    "654": 6832,
    "638": 6833,
    "618": 6834,
    "228": 6835,
    "186": 6836,
    "140": 6837,
    "038": 6838,
    "036": 6839,
    "-man": 6840,
    "-en": 6841,
    "Ġuse": 6842,
    "Ġpot": 6843,
    "Ġfinished": 6844,
    "Ġdarkness": 6845,
    "ĠYork": 6846,
    "ĠThou": 6847,
    "uke": 6848,
    "uese": 6849,
    "stick": 6850,
    "ragen": 6851,
    "quiry": 6852,
    "pull": 6853,
    "orth": 6854,
    "ociety": 6855,
    "nine": 6856,
    "internet": 6857,
    "heure": 6858,
    "expand": 6859,
    "chron": 6860,
    "choose": 6861,
    "bic": 6862,
    "Wrong": 6863,
    "Turkey": 6864,
    "Plant": 6865,
    "Mid": 6866,
    "Government": 6867,
    "German": 6868,
    "Education": 6869,
    "Drink": 6870,
    "Amazing": 6871,
    "506": 6872,
    "360": 6873,
    "330": 6874,
    "161": 6875,
    "Ġwrite": 6876,
    "Ġwait": 6877,
    "Ġservice": 6878,
    "Ġlingu": 6879,
    "Ġkiss": 6880,
    "Ġdevice": 6881,
    "ĠQ": 6882,
    "ĠNeighborhood": 6883,
    "ĠGrade": 6884,
    "ĠAS": 6885,
    "úb": 6886,
    "vehicle": 6887,
    "tek": 6888,
    "pred": 6889,
    "max": 6890,
    "mast": 6891,
    "lista": 6892,
    "kj": 6893,
    "ivate": 6894,
    "ittel": 6895,
    "ijken": 6896,
    "ening": 6897,
    "each": 6898,
    "design": 6899,
    "check": 6900,
    "case": 6901,
    "beiten": 6902,
    "adm": 6903,
    "Vo": 6904,
    "Vehicle": 6905,
    "Util": 6906,
    "Together": 6907,
    "Tell": 6908,
    "Provide": 6909,
    "PER": 6910,
    "PAR": 6911,
    "Mex": 6912,
    "HER": 6913,
    "Gram": 6914,
    "Fund": 6915,
    "Fore": 6916,
    "Ep": 6917,
    "Eat": 6918,
    "Chapter": 6919,
    "Cat": 6920,
    "Building": 6921,
    "936": 6922,
    "879": 6923,
    "870": 6924,
    "828": 6925,
    "752": 6926,
    "750": 6927,
    "725": 6928,
    "718": 6929,
    "671": 6930,
    "626": 6931,
    "623": 6932,
    "421": 6933,
    "123": 6934,
    "069": 6935,
    "040": 6936,
    "031": 6937,
    "Ġstop": 6938,
    "Ġstill": 6939,
    "Ġsister": 6940,
    "Ġseat": 6941,
    "Ġport": 6942,
    "Ġlocation": 6943,
    "Ġir": 6944,
    "Ġhonor": 6945,
    "Ġgl": 6946,
    "Ġgathered": 6947,
    "Ġgal": 6948,
    "Ġfer": 6949,
    "Ġesc": 6950,
    "Ġbetter": 6951,
    "Ġassim": 6952,
    "ání": 6953,
    "ustria": 6954,
    "uli": 6955,
    "uet": 6956,
    "such": 6957,
    "storm": 6958,
    "polit": 6959,
    "orch": 6960,
    "metal": 6961,
    "isas": 6962,
    "inite": 6963,
    "hes": 6964,
    "gie": 6965,
    "emente": 6966,
    "egg": 6967,
    "ecess": 6968,
    "eca": 6969,
    "comfort": 6970,
    "bru": 6971,
    "boss": 6972,
    "banana": 6973,
    "atory": 6974,
    "aming": 6975,
    "aju": 6976,
    "acket": 6977,
    "These": 6978,
    "Spring": 6979,
    "Serv": 6980,
    "Represent": 6981,
    "Persist": 6982,
    "OB": 6983,
    "Kid": 6984,
    "Drive": 6985,
    "Care": 6986,
    "Blue": 6987,
    "587": 6988,
    "502": 6989,
    "490": 6990,
    "460": 6991,
    "442": 6992,
    "253": 6993,
    "243": 6994,
    "208": 6995,
    "Ġvi": 6996,
    "Ġlate": 6997,
    "ĠSymbol": 6998,
    "ĠInt": 6999,
    "ĠEns": 7000,
    "vä": 7001,
    "ules": 7002,
    "symbol": 7003,
    "rance": 7004,
    "proj": 7005,
    "paration": 7006,
    "outer": 7007,
    "medi": 7008,
    "market": 7009,
    "lication": 7010,
    "lap": 7011,
    "ishment": 7012,
    "infer": 7013,
    "important": 7014,
    "hour": 7015,
    "encial": 7016,
    "dialog": 7017,
    "count": 7018,
    "condition": 7019,
    "carry": 7020,
    "bia": 7021,
    "apper": 7022,
    "andy": 7023,
    "alto": 7024,
    "Vac": 7025,
    "Tele": 7026,
    "September": 7027,
    "Nothing": 7028,
    "Movement": 7029,
    "Grant": 7030,
    "Gas": 7031,
    "Force": 7032,
    "Facebook": 7033,
    "Equal": 7034,
    "DR": 7035,
    "Calc": 7036,
    "Beautiful": 7037,
    "BB": 7038,
    "998": 7039,
    "955": 7040,
    "934": 7041,
    "911": 7042,
    "864": 7043,
    "850": 7044,
    "849": 7045,
    "819": 7046,
    "677": 7047,
    "668": 7048,
    "655": 7049,
    "614": 7050,
    "510": 7051,
    "479": 7052,
    "386": 7053,
    "326": 7054,
    "314": 7055,
    "233": 7056,
    "068": 7057,
    "052": 7058,
    "043": 7059,
    "015": 7060,
    "Ġvain": 7061,
    "Ġpro": 7062,
    "Ġprayer": 7063,
    "Ġhard": 7064,
    "Ġfacial": 7065,
    "Ġeverything": 7066,
    "Ġcream": 7067,
    "ĠYe": 7068,
    "ĠVel": 7069,
    "ĠPal": 7070,
    "ĠOf": 7071,
    "ĠBah": 7072,
    "ège": 7073,
    "weep": 7074,
    "trap": 7075,
    "ston": 7076,
    "rf": 7077,
    "rand": 7078,
    "party": 7079,
    "ively": 7080,
    "ichten": 7081,
    "hyp": 7082,
    "hibition": 7083,
    "fection": 7084,
    "family": 7085,
    "ervisor": 7086,
    "avn": 7087,
    "attention": 7088,
    "around": 7089,
    "aq": 7090,
    "World": 7091,
    "Vol": 7092,
    "Request": 7093,
    "Lower": 7094,
    "Listen": 7095,
    "KK": 7096,
    "ESS": 7097,
    "Doctor": 7098,
    "DI": 7099,
    "AX": 7100,
    "666": 7101,
    "592": 7102,
    "545": 7103,
    "507": 7104,
    "380": 7105,
    "344": 7106,
    "332": 7107,
    "281": 7108,
    "249": 7109,
    "247": 7110,
    "126": 7111,
    "012": 7112,
    "Ġtête": 7113,
    "Ġstr": 7114,
    "Ġra": 7115,
    "Ġporque": 7116,
    "Ġpicture": 7117,
    "Ġpassed": 7118,
    "Ġmanner": 7119,
    "Ġhappy": 7120,
    "Ġforever": 7121,
    "ôm": 7122,
    "xi": 7123,
    "weise": 7124,
    "vrir": 7125,
    "unny": 7126,
    "porter": 7127,
    "phan": 7128,
    "liquid": 7129,
    "kol": 7130,
    "ifth": 7131,
    "iena": 7132,
    "idd": 7133,
    "icle": 7134,
    "gift": 7135,
    "fine": 7136,
    "clear": 7137,
    "brig": 7138,
    "atin": 7139,
    "ased": 7140,
    "arro": 7141,
    "amus": 7142,
    "alon": 7143,
    "VR": 7144,
    "VI": 7145,
    "Star": 7146,
    "SG": 7147,
    "Jump": 7148,
    "GA": 7149,
    "England": 7150,
    "ENS": 7151,
    "EB": 7152,
    "Continue": 7153,
    "Canada": 7154,
    "Bot": 7155,
    "Bat": 7156,
    "Age": 7157,
    "999": 7158,
    "952": 7159,
    "926": 7160,
    "922": 7161,
    "919": 7162,
    "875": 7163,
    "855": 7164,
    "759": 7165,
    "716": 7166,
    "693": 7167,
    "619": 7168,
    "615": 7169,
    "316": 7170,
    "164": 7171,
    "163": 7172,
    "130": 7173,
    "073": 7174,
    ".xls": 7175,
    "Ġreturned": 7176,
    "Ġpleased": 7177,
    "Ġdistance": 7178,
    "Ġbird": 7179,
    "Ġalready": 7180,
    "ĠWhy": 7181,
    "ĠAt": 7182,
    "spirit": 7183,
    "remember": 7184,
    "quisar": 7185,
    "problem": 7186,
    "ocabulary": 7187,
    "iges": 7188,
    "etur": 7189,
    "contra": 7190,
    "bike": 7191,
    "awa": 7192,
    "aval": 7193,
    "anti": 7194,
    "ambre": 7195,
    "agh": 7196,
    "RR": 7197,
    "Period": 7198,
    "Mill": 7199,
    "June": 7200,
    "Ill": 7201,
    "Gem": 7202,
    "Fix": 7203,
    "Et": 7204,
    "Door": 7205,
    "Dim": 7206,
    "Chat": 7207,
    "America": 7208,
    "Alex": 7209,
    "595": 7210,
    "558": 7211,
    "553": 7212,
    "493": 7213,
    "448": 7214,
    "382": 7215,
    "361": 7216,
    "270": 7217,
    "205": 7218,
    "155": 7219,
    "019": 7220,
    "Ġmost": 7221,
    "Ġmeu": 7222,
    "Ġlest": 7223,
    "Ġich": 7224,
    "Ġbag": 7225,
    "Ġavec": 7226,
    "Ġapost": 7227,
    "ĠMa": 7228,
    "ĠCo": 7229,
    "Ġ&": 7230,
    "ública": 7231,
    "wrong": 7232,
    "tres": 7233,
    "stone": 7234,
    "proof": 7235,
    "pdo": 7236,
    "ourd": 7237,
    "orer": 7238,
    "oid": 7239,
    "oger": 7240,
    "increase": 7241,
    "iciar": 7242,
    "ency": 7243,
    "comput": 7244,
    "changer": 7245,
    "anden": 7246,
    "anal": 7247,
    "ailand": 7248,
    "abilidade": 7249,
    "Traffic": 7250,
    "Thinking": 7251,
    "Tai": 7252,
    "Tab": 7253,
    "TF": 7254,
    "Stra": 7255,
    "Some": 7256,
    "Rua": 7257,
    "Illustr": 7258,
    "ITA": 7259,
    "Hy": 7260,
    "Fran": 7261,
    "Culture": 7262,
    "Cla": 7263,
    "Chem": 7264,
    "Cas": 7265,
    "Action": 7266,
    "Absolutely": 7267,
    "907": 7268,
    "898": 7269,
    "852": 7270,
    "847": 7271,
    "784": 7272,
    "731": 7273,
    "706": 7274,
    "486": 7275,
    "321": 7276,
    "224": 7277,
    "183": 7278,
    "158": 7279,
    "116": 7280,
    "089": 7281,
    "048": 7282,
    "029": 7283,
    "024": 7284,
    "003": 7285,
    "ใ": 7286,
    "Ġsl": 7287,
    "Ġmag": 7288,
    "Ġgrande": 7289,
    "Ġcertainly": 7290,
    "zá": 7291,
    "wil": 7292,
    "wife": 7293,
    "wich": 7294,
    "udio": 7295,
    "sein": 7296,
    "riv": 7297,
    "push": 7298,
    "pow": 7299,
    "pag": 7300,
    "only": 7301,
    "omination": 7302,
    "ocado": 7303,
    "itr": 7304,
    "itis": 7305,
    "ighted": 7306,
    "flo": 7307,
    "estre": 7308,
    "ensation": 7309,
    "cción": 7310,
    "cad": 7311,
    "azo": 7312,
    "avan": 7313,
    "arias": 7314,
    "alty": 7315,
    "UK": 7316,
    "Team": 7317,
    "QUI": 7318,
    "OST": 7319,
    "Narr": 7320,
    "ITO": 7321,
    "Hong": 7322,
    "Germany": 7323,
    "Ear": 7324,
    "David": 7325,
    "Cour": 7326,
    "Connection": 7327,
    "Blood": 7328,
    "599": 7329,
    "579": 7330,
    "565": 7331,
    "562": 7332,
    "482": 7333,
    "411": 7334,
    "364": 7335,
    "353": 7336,
    "311": 7337,
    "203": 7338,
    "184": 7339,
    "166": 7340,
    "058": 7341,
    "-da": 7342,
    "Ġspectacle": 7343,
    "Ġsitting": 7344,
    "Ġshame": 7345,
    "Ġkind": 7346,
    "Ġfois": 7347,
    "Ġears": 7348,
    "Ġdet": 7349,
    "Ġcould": 7350,
    "ĠEr": 7351,
    "ât": 7352,
    "teacher": 7353,
    "rite": 7354,
    "race": 7355,
    "ottle": 7356,
    "olution": 7357,
    "ological": 7358,
    "oga": 7359,
    "odes": 7360,
    "nature": 7361,
    "limit": 7362,
    "ilingual": 7363,
    "ición": 7364,
    "experiment": 7365,
    "element": 7366,
    "demand": 7367,
    "connect": 7368,
    "chluss": 7369,
    "astr": 7370,
    "anny": 7371,
    "anca": 7372,
    "adia": 7373,
    "acter": 7374,
    "WX": 7375,
    "WS": 7376,
    "VC": 7377,
    "Tro": 7378,
    "System": 7379,
    "Spirit": 7380,
    "Sab": 7381,
    "SF": 7382,
    "Rot": 7383,
    "Press": 7384,
    "PF": 7385,
    "January": 7386,
    "IAS": 7387,
    "Container": 7388,
    "Ale": 7389,
    "@s": 7390,
    "992": 7391,
    "959": 7392,
    "927": 7393,
    "848": 7394,
    "705": 7395,
    "689": 7396,
    "646": 7397,
    "611": 7398,
    "428": 7399,
    "426": 7400,
    "396": 7401,
    "376": 7402,
    "348": 7403,
    "322": 7404,
    "141": 7405,
    "034": 7406,
    "Ġو": 7407,
    "Ġsobre": 7408,
    "Ġothers": 7409,
    "Ġconverse": 7410,
    "Ġcannot": 7411,
    "Ġcam": 7412,
    "ĠGl": 7413,
    "ĠGent": 7414,
    "ĠCap": 7415,
    "ystem": 7416,
    "uil": 7417,
    "stüt": 7418,
    "rov": 7419,
    "planet": 7420,
    "ounter": 7421,
    "otten": 7422,
    "omic": 7423,
    "nn": 7424,
    "lege": 7425,
    "lectric": 7426,
    "istics": 7427,
    "issement": 7428,
    "ision": 7429,
    "ifo": 7430,
    "fs": 7431,
    "exchange": 7432,
    "essment": 7433,
    "ession": 7434,
    "erge": 7435,
    "enção": 7436,
    "depart": 7437,
    "Wed": 7438,
    "UES": 7439,
    "Sou": 7440,
    "Nam": 7441,
    "Expert": 7442,
    "EMA": 7443,
    "Config": 7444,
    "Base": 7445,
    "BL": 7446,
    "ATA": 7447,
    "481": 7448,
    "393": 7449,
    "292": 7450,
    "285": 7451,
    "284": 7452,
    "259": 7453,
    "108": 7454,
    "054": 7455,
    "출": 7456,
    "Ġtowards": 7457,
    "Ġstore": 7458,
    "Ġspr": 7459,
    "Ġsc": 7460,
    "Ġroad": 7461,
    "Ġposition": 7462,
    "Ġgel": 7463,
    "Ġfin": 7464,
    "Ġfeliz": 7465,
    "Ġeternal": 7466,
    "Ġcost": 7467,
    "Ġbeyond": 7468,
    "Ġaudit": 7469,
    "ĠPortug": 7470,
    "ĠPerson": 7471,
    "ül": 7472,
    "áfico": 7473,
    "uru": 7474,
    "unkt": 7475,
    "some": 7476,
    "pun": 7477,
    "otte": 7478,
    "oteca": 7479,
    "lok": 7480,
    "lick": 7481,
    "ktor": 7482,
    "itos": 7483,
    "ione": 7484,
    "ihn": 7485,
    "icy": 7486,
    "half": 7487,
    "ground": 7488,
    "grade": 7489,
    "glich": 7490,
    "glass": 7491,
    "elm": 7492,
    "drive": 7493,
    "chter": 7494,
    "aking": 7495,
    "abi": 7496,
    "Way": 7497,
    "Visual": 7498,
    "Throw": 7499,
    "Span": 7500,
    "Office": 7501,
    "None": 7502,
    "Multiple": 7503,
    "Lim": 7504,
    "Guid": 7505,
    "Google": 7506,
    "Fear": 7507,
    "Exclude": 7508,
    "Command": 7509,
    "BER": 7510,
    "994": 7511,
    "987": 7512,
    "980": 7513,
    "894": 7514,
    "859": 7515,
    "830": 7516,
    "809": 7517,
    "792": 7518,
    "780": 7519,
    "648": 7520,
    "333": 7521,
    "298": 7522,
    "225": 7523,
    "223": 7524,
    "215": 7525,
    "-right": 7526,
    "'.": 7527,
    "Ġplay": 7528,
    "Ġdelivered": 7529,
    "ĠWriting": 7530,
    "ĠJosé": 7531,
    "ă": 7532,
    "yo": 7533,
    "voy": 7534,
    "uw": 7535,
    "uti": 7536,
    "town": 7537,
    "tot": 7538,
    "say": 7539,
    "receive": 7540,
    "owa": 7541,
    "mix": 7542,
    "mitt": 7543,
    "meeting": 7544,
    "loy": 7545,
    "listen": 7546,
    "later": 7547,
    "function": 7548,
    "expression": 7549,
    "ended": 7550,
    "cake": 7551,
    "beiter": 7552,
    "atom": 7553,
    "ailing": 7554,
    "afa": 7555,
    "activ": 7556,
    "Straight": 7557,
    "NC": 7558,
    "Ken": 7559,
    "Integration": 7560,
    "Expect": 7561,
    "Ci": 7562,
    "582": 7563,
    "575": 7564,
    "573": 7565,
    "572": 7566,
    "570": 7567,
    "504": 7568,
    "471": 7569,
    "447": 7570,
    "432": 7571,
    "384": 7572,
    "381": 7573,
    "210": 7574,
    "207": 7575,
    "206": 7576,
    "144": 7577,
    "$is": 7578,
    "Ġthereof": 7579,
    "Ġteaching": 7580,
    "Ġoffice": 7581,
    "Ġnaar": 7582,
    "Ġmountain": 7583,
    "Ġmeal": 7584,
    "Ġgeomet": 7585,
    "Ġfulfilled": 7586,
    "Ġfine": 7587,
    "Ġcross": 7588,
    "Ġbig": 7589,
    "Ġass": 7590,
    "Ġair": 7591,
    "ĠPhil": 7592,
    "ĠCom": 7593,
    "ĠBrazil": 7594,
    "umer": 7595,
    "ufe": 7596,
    "td": 7597,
    "roud": 7598,
    "provide": 7599,
    "process": 7600,
    "parer": 7601,
    "match": 7602,
    "mart": 7603,
    "mach": 7604,
    "iliar": 7605,
    "gon": 7606,
    "forg": 7607,
    "feld": 7608,
    "elp": 7609,
    "bij": 7610,
    "atte": 7611,
    "asm": 7612,
    "airy": 7613,
    "aining": 7614,
    "ablo": 7615,
    "VEL": 7616,
    "ULO": 7617,
    "SIGN": 7618,
    "OA": 7619,
    "MM": 7620,
    "Jac": 7621,
    "Elect": 7622,
    "Communication": 7623,
    "Church": 7624,
    "Body": 7625,
    "Arch": 7626,
    "ANTE": 7627,
    "982": 7628,
    "964": 7629,
    "881": 7630,
    "836": 7631,
    "826": 7632,
    "790": 7633,
    "688": 7634,
    "653": 7635,
    "601": 7636,
    "415": 7637,
    "398": 7638,
    "267": 7639,
    "099": 7640,
    "083": 7641,
    "059": 7642,
    "-qu": 7643,
    "-Q": 7644,
    "Ġwie": 7645,
    "Ġsingle": 7646,
    "Ġdias": 7647,
    "Ġcloud": 7648,
    "Ġbad": 7649,
    "Ġaluno": 7650,
    "Ġalf": 7651,
    "ĠSen": 7652,
    "ĠPh": 7653,
    "ĠAD": 7654,
    "ût": 7655,
    "âm": 7656,
    "xt": 7657,
    "wood": 7658,
    "umo": 7659,
    "terra": 7660,
    "rup": 7661,
    "reject": 7662,
    "rabbit": 7663,
    "persona": 7664,
    "parent": 7665,
    "otional": 7666,
    "ordinary": 7667,
    "noc": 7668,
    "nds": 7669,
    "lood": 7670,
    "iveness": 7671,
    "isches": 7672,
    "inqu": 7673,
    "image": 7674,
    "igue": 7675,
    "eing": 7676,
    "dn": 7677,
    "capital": 7678,
    "bos": 7679,
    "birth": 7680,
    "Ut": 7681,
    "Total": 7682,
    "Therefore": 7683,
    "SM": 7684,
    "Quick": 7685,
    "Only": 7686,
    "Leader": 7687,
    "LIB": 7688,
    "LD": 7689,
    "India": 7690,
    "Image": 7691,
    "Domin": 7692,
    "December": 7693,
    "Corn": 7694,
    "Bean": 7695,
    "Bas": 7696,
    "632": 7697,
    "574": 7698,
    "534": 7699,
    "533": 7700,
    "505": 7701,
    "450": 7702,
    "394": 7703,
    "390": 7704,
    "339": 7705,
    "283": 7706,
    "110": 7707,
    "لى": 7708,
    "Ġteg": 7709,
    "Ġsaved": 7710,
    "Ġrod": 7711,
    "Ġrise": 7712,
    "Ġnormal": 7713,
    "Ġmark": 7714,
    "Ġlocal": 7715,
    "Ġfit": 7716,
    "Ġalt": 7717,
    "ĠSam": 7718,
    "ĠInterior": 7719,
    "ĠGroup": 7720,
    "ĠEF": 7721,
    "áln": 7722,
    "zyć": 7723,
    "uring": 7724,
    "transfer": 7725,
    "slow": 7726,
    "ruk": 7727,
    "roat": 7728,
    "rect": 7729,
    "porto": 7730,
    "ponsible": 7731,
    "pond": 7732,
    "perfect": 7733,
    "paper": 7734,
    "oney": 7735,
    "oming": 7736,
    "null": 7737,
    "note": 7738,
    "month": 7739,
    "modern": 7740,
    "legant": 7741,
    "imate": 7742,
    "gabe": 7743,
    "endimento": 7744,
    "cio": 7745,
    "chs": 7746,
    "bid": 7747,
    "auss": 7748,
    "Woman": 7749,
    "VM": 7750,
    "VB": 7751,
    "URA": 7752,
    "Pull": 7753,
    "Ord": 7754,
    "OG": 7755,
    "Character": 7756,
    "997": 7757,
    "948": 7758,
    "903": 7759,
    "866": 7760,
    "843": 7761,
    "833": 7762,
    "709": 7763,
    "603": 7764,
    "525": 7765,
    "379": 7766,
    "252": 7767,
    "226": 7768,
    "148": 7769,
    "143": 7770,
    "122": 7771,
    "093": 7772,
    "087": 7773,
    "084": 7774,
    "078": 7775,
    "076": 7776,
    "Ġyoung": 7777,
    "Ġsilver": 7778,
    "Ġshape": 7779,
    "Ġrejo": 7780,
    "Ġqui": 7781,
    "Ġplaces": 7782,
    "Ġnever": 7783,
    "Ġkept": 7784,
    "Ġid": 7785,
    "Ġhealth": 7786,
    "Ġescrit": 7787,
    "Ġcry": 7788,
    "Ġchair": 7789,
    "Ġboca": 7790,
    "ĠTer": 7791,
    "ĠGes": 7792,
    "ĠFl": 7793,
    "ĠEsp": 7794,
    "ël": 7795,
    "émon": 7796,
    "utt": 7797,
    "solid": 7798,
    "ressing": 7799,
    "ponent": 7800,
    "panion": 7801,
    "money": 7802,
    "lon": 7803,
    "lict": 7804,
    "ième": 7805,
    "imag": 7806,
    "illion": 7807,
    "icionar": 7808,
    "gin": 7809,
    "fab": 7810,
    "exact": 7811,
    "emy": 7812,
    "eds": 7813,
    "ained": 7814,
    "acker": 7815,
    "ULA": 7816,
    "Transform": 7817,
    "SON": 7818,
    "Registro": 7819,
    "Paris": 7820,
    "Original": 7821,
    "Net": 7822,
    "Li": 7823,
    "LL": 7824,
    "July": 7825,
    "Did": 7826,
    "Count": 7827,
    "Control": 7828,
    "Coll": 7829,
    "Category": 7830,
    "555": 7831,
    "539": 7832,
    "522": 7833,
    "517": 7834,
    "508": 7835,
    "456": 7836,
    "302": 7837,
    "241": 7838,
    "102": 7839,
    "Ġinside": 7840,
    "Ġind": 7841,
    "Ġguys": 7842,
    "Ġdeliver": 7843,
    "Ġcr": 7844,
    "Ġclose": 7845,
    "Ġcas": 7846,
    "Ġaside": 7847,
    "ĠRepublic": 7848,
    "ĠDA": 7849,
    "érique": 7850,
    "äs": 7851,
    "zet": 7852,
    "zd": 7853,
    "uso": 7854,
    "unit": 7855,
    "ulaire": 7856,
    "ucky": 7857,
    "type": 7858,
    "tractive": 7859,
    "rug": 7860,
    "roit": 7861,
    "pez": 7862,
    "oure": 7863,
    "omy": 7864,
    "olut": 7865,
    "lower": 7866,
    "ivity": 7867,
    "iri": 7868,
    "intr": 7869,
    "imming": 7870,
    "imeter": 7871,
    "dit": 7872,
    "dio": 7873,
    "coop": 7874,
    "conte": 7875,
    "consume": 7876,
    "bras": 7877,
    "anni": 7878,
    "abela": 7879,
    "_v": 7880,
    "Think": 7881,
    "Studio": 7882,
    "REN": 7883,
    "Position": 7884,
    "Pos": 7885,
    "Peace": 7886,
    "ORD": 7887,
    "Nation": 7888,
    "Mary": 7889,
    "INO": 7890,
    "GT": 7891,
    "Fun": 7892,
    "Front": 7893,
    "Fish": 7894,
    "FP": 7895,
    "Bring": 7896,
    "966": 7897,
    "890": 7898,
    "887": 7899,
    "883": 7900,
    "871": 7901,
    "814": 7902,
    "735": 7903,
    "650": 7904,
    "644": 7905,
    "634": 7906,
    "387": 7907,
    "378": 7908,
    "366": 7909,
    "320": 7910,
    "277": 7911,
    "268": 7912,
    "'un": 7913,
    "מ": 7914,
    "Ġruler": 7915,
    "Ġreturn": 7916,
    "Ġnie": 7917,
    "Ġmeans": 7918,
    "Ġinform": 7919,
    "Ġhar": 7920,
    "Ġestado": 7921,
    "Ġeducation": 7922,
    "Ġdro": 7923,
    "ĠIsaac": 7924,
    "ĠII": 7925,
    "ĠAss": 7926,
    "ĠArt": 7927,
    "ält": 7928,
    "ábado": 7929,
    "wide": 7930,
    "vari": 7931,
    "unger": 7932,
    "tk": 7933,
    "sus": 7934,
    "straight": 7935,
    "regn": 7936,
    "quoi": 7937,
    "ospel": 7938,
    "orns": 7939,
    "nic": 7940,
    "nea": 7941,
    "ncia": 7942,
    "journal": 7943,
    "iled": 7944,
    "idas": 7945,
    "ibt": 7946,
    "gy": 7947,
    "gression": 7948,
    "file": 7949,
    "false": 7950,
    "emos": 7951,
    "elim": 7952,
    "discover": 7953,
    "coming": 7954,
    "block": 7955,
    "benef": 7956,
    "anner": 7957,
    "alloween": 7958,
    "agonal": 7959,
    "Si": 7960,
    "SR": 7961,
    "Receive": 7962,
    "Protect": 7963,
    "Proj": 7964,
    "MT": 7965,
    "Lex": 7966,
    "LU": 7967,
    "JS": 7968,
    "HB": 7969,
    "Eye": 7970,
    "Expression": 7971,
    "DC": 7972,
    "Cit": 7973,
    "Approx": 7974,
    "571": 7975,
    "536": 7976,
    "521": 7977,
    "475": 7978,
    "446": 7979,
    "331": 7980,
    "245": 7981,
    "-gr": 7982,
    "-co": 7983,
    "째": 7984,
    "Ġwithin": 7985,
    "Ġsky": 7986,
    "Ġsays": 7987,
    "Ġplural": 7988,
    "Ġhumano": 7989,
    "Ġhoras": 7990,
    "Ġhora": 7991,
    "Ġhonour": 7992,
    "Ġge": 7993,
    "Ġestud": 7994,
    "Ġcl": 7995,
    "Ġassistance": 7996,
    "ĠVal": 7997,
    "ĠPed": 7998,
    "undi": 7999,
    "tv": 8000,
    "tap": 8001,
    "result": 8002,
    "request": 8003,
    "qué": 8004,
    "parate": 8005,
    "oyer": 8006,
    "obil": 8007,
    "ned": 8008,
    "mittel": 8009,
    "lla": 8010,
    "kehr": 8011,
    "jection": 8012,
    "iring": 8013,
    "information": 8014,
    "ierce": 8015,
    "iable": 8016,
    "histor": 8017,
    "heat": 8018,
    "gun": 8019,
    "eton": 8020,
    "edu": 8021,
    "contro": 8022,
    "conom": 8023,
    "capture": 8024,
    "atholic": 8025,
    "ateria": 8026,
    "andid": 8027,
    "ameda": 8028,
    "alis": 8029,
    "University": 8030,
    "TT": 8031,
    "Russia": 8032,
    "Remember": 8033,
    "Purchase": 8034,
    "Proceed": 8035,
    "PP": 8036,
    "Need": 8037,
    "KY": 8038,
    "Hung": 8039,
    "Enter": 8040,
    "Develop": 8041,
    "Bright": 8042,
    "Better": 8043,
    "Appro": 8044,
    "Amazon": 8045,
    "Africa": 8046,
    "991": 8047,
    "983": 8048,
    "968": 8049,
    "943": 8050,
    "931": 8051,
    "882": 8052,
    "877": 8053,
    "838": 8054,
    "820": 8055,
    "804": 8056,
    "743": 8057,
    "739": 8058,
    "701": 8059,
    "641": 8060,
    "612": 8061,
    "413": 8062,
    "325": 8063,
    "266": 8064,
    "119": 8065,
    "071": 8066,
    "-int": 8067,
    "Ġspeaking": 8068,
    "Ġsecret": 8069,
    "Ġpath": 8070,
    "Ġonde": 8071,
    "Ġnamed": 8072,
    "Ġki": 8073,
    "Ġje": 8074,
    "Ġglor": 8075,
    "Ġfors": 8076,
    "Ġcounsel": 8077,
    "Ġconsider": 8078,
    "Ġbroken": 8079,
    "ĠZe": 8080,
    "ĠSw": 8081,
    "ĠMe": 8082,
    "ĠDios": 8083,
    "ĠBox": 8084,
    "ĠBarb": 8085,
    "ítica": 8086,
    "wave": 8087,
    "ware": 8088,
    "voor": 8089,
    "using": 8090,
    "uguay": 8091,
    "uell": 8092,
    "sense": 8093,
    "raham": 8094,
    "prefer": 8095,
    "patient": 8096,
    "osh": 8097,
    "ondo": 8098,
    "mouse": 8099,
    "iversity": 8100,
    "iting": 8101,
    "isé": 8102,
    "ibi": 8103,
    "forget": 8104,
    "copy": 8105,
    "coat": 8106,
    "cks": 8107,
    "aptop": 8108,
    "approve": 8109,
    "amental": 8110,
    "aked": 8111,
    "Wall": 8112,
    "TP": 8113,
    "Material": 8114,
    "Log": 8115,
    "Lady": 8116,
    "II": 8117,
    "Fat": 8118,
    "Email": 8119,
    "Decre": 8120,
    "Business": 8121,
    "Activity": 8122,
    "590": 8123,
    "454": 8124,
    "391": 8125,
    "246": 8126,
    "230": 8127,
    "-pl": 8128,
    "-fl": 8129,
    "Ġ없": 8130,
    "Ġteach": 8131,
    "Ġtaught": 8132,
    "Ġsave": 8133,
    "Ġlie": 8134,
    "Ġglass": 8135,
    "Ġfazer": 8136,
    "Ġfalse": 8137,
    "Ġestablished": 8138,
    "Ġeinem": 8139,
    "Ġconhec": 8140,
    "Ġavenue": 8141,
    "ĠPin": 8142,
    "ĠNaz": 8143,
    "ĠHor": 8144,
    "ĠChristmas": 8145,
    "ĠBarn": 8146,
    "áz": 8147,
    "truth": 8148,
    "subject": 8149,
    "stacle": 8150,
    "sing": 8151,
    "scr": 8152,
    "regular": 8153,
    "olla": 8154,
    "olest": 8155,
    "lection": 8156,
    "jerne": 8157,
    "izarre": 8158,
    "itura": 8159,
    "itary": 8160,
    "inea": 8161,
    "hek": 8162,
    "expect": 8163,
    "emouth": 8164,
    "ears": 8165,
    "credible": 8166,
    "common": 8167,
    "cis": 8168,
    "cido": 8169,
    "cern": 8170,
    "arra": 8171,
    "Software": 8172,
    "Read": 8173,
    "PM": 8174,
    "Ny": 8175,
    "Mix": 8176,
    "Middle": 8177,
    "LR": 8178,
    "Jean": 8179,
    "ISTA": 8180,
    "Hallo": 8181,
    "Example": 8182,
    "Communic": 8183,
    "Accept": 8184,
    "ARI": 8185,
    "972": 8186,
    "954": 8187,
    "946": 8188,
    "914": 8189,
    "853": 8190,
    "822": 8191,
    "783": 8192,
    "778": 8193,
    "729": 8194,
    "707": 8195,
    "702": 8196,
    "698": 8197,
    "317": 8198,
    "278": 8199,
    "146": 8200,
    "118": 8201,
    "115": 8202,
    "088": 8203,
    "075": 8204,
    "026": 8205,
    "-lo": 8206,
    "Ġwalked": 8207,
    "Ġsão": 8208,
    "Ġpaths": 8209,
    "Ġlooking": 8210,
    "Ġfuture": 8211,
    "Ġbox": 8212,
    "Ġbaptized": 8213,
    "ĠIl": 8214,
    "wish": 8215,
    "uously": 8216,
    "unta": 8217,
    "uhe": 8218,
    "tan": 8219,
    "sembl": 8220,
    "ruit": 8221,
    "registro": 8222,
    "reed": 8223,
    "rade": 8224,
    "pte": 8225,
    "protect": 8226,
    "pid": 8227,
    "otive": 8228,
    "orsk": 8229,
    "onal": 8230,
    "olu": 8231,
    "oline": 8232,
    "meld": 8233,
    "lace": 8234,
    "kh": 8235,
    "jump": 8236,
    "issant": 8237,
    "ilia": 8238,
    "fill": 8239,
    "due": 8240,
    "communication": 8241,
    "attend": 8242,
    "ards": 8243,
    "antwort": 8244,
    "agner": 8245,
    "Verb": 8246,
    "Today": 8247,
    "Street": 8248,
    "Order": 8249,
    "KA": 8250,
    "Joseph": 8251,
    "Connect": 8252,
    "Charles": 8253,
    "Cele": 8254,
    "COL": 8255,
    "Ash": 8256,
    "728": 8257,
    "557": 8258,
    "535": 8259,
    "512": 8260,
    "473": 8261,
    "462": 8262,
    "458": 8263,
    "451": 8264,
    "373": 8265,
    "335": 8266,
    "308": 8267,
    "п": 8268,
    "Ġwhy": 8269,
    "Ġsought": 8270,
    "Ġsocial": 8271,
    "Ġsit": 8272,
    "Ġsimple": 8273,
    "Ġoral": 8274,
    "Ġob": 8275,
    "Ġhungry": 8276,
    "Ġhistória": 8277,
    "Ġgame": 8278,
    "Ġexample": 8279,
    "Ġdent": 8280,
    "Ġcold": 8281,
    "Ġamazed": 8282,
    "Ġaltern": 8283,
    "ĠWhite": 8284,
    "ĠState": 8285,
    "ĠSp": 8286,
    "ĠLes": 8287,
    "xe": 8288,
    "velop": 8289,
    "uly": 8290,
    "uhl": 8291,
    "ucc": 8292,
    "uard": 8293,
    "trib": 8294,
    "tha": 8295,
    "stro": 8296,
    "station": 8297,
    "spir": 8298,
    "rido": 8299,
    "obl": 8300,
    "legs": 8301,
    "itet": 8302,
    "iod": 8303,
    "imos": 8304,
    "ieten": 8305,
    "iem": 8306,
    "ices": 8307,
    "hope": 8308,
    "frica": 8309,
    "font": 8310,
    "explain": 8311,
    "esty": 8312,
    "entar": 8313,
    "ember": 8314,
    "efe": 8315,
    "edor": 8316,
    "disk": 8317,
    "crire": 8318,
    "burn": 8319,
    "bung": 8320,
    "bert": 8321,
    "atos": 8322,
    "asjon": 8323,
    "aron": 8324,
    "agr": 8325,
    "administr": 8326,
    "Wer": 8327,
    "War": 8328,
    "Tu": 8329,
    "Trust": 8330,
    "Throughout": 8331,
    "Switch": 8332,
    "Restore": 8333,
    "Reason": 8334,
    "Quant": 8335,
    "Mul": 8336,
    "Low": 8337,
    "Friend": 8338,
    "DVD": 8339,
    "Beth": 8340,
    "ALL": 8341,
    "967": 8342,
    "947": 8343,
    "905": 8344,
    "824": 8345,
    "821": 8346,
    "775": 8347,
    "724": 8348,
    "720": 8349,
    "710": 8350,
    "708": 8351,
    "674": 8352,
    "613": 8353,
    "608": 8354,
    "427": 8355,
    "297": 8356,
    "095": 8357,
    "-off": 8358,
    "א": 8359,
    "Ġsynagogue": 8360,
    "Ġsurface": 8361,
    "Ġseeing": 8362,
    "Ġimpaired": 8363,
    "Ġcup": 8364,
    "Ġcontent": 8365,
    "ĠPhilip": 8366,
    "ĠAfter": 8367,
    "änger": 8368,
    "verte": 8369,
    "ulations": 8370,
    "ucken": 8371,
    "stry": 8372,
    "strike": 8373,
    "rient": 8374,
    "placer": 8375,
    "orous": 8376,
    "onna": 8377,
    "olin": 8378,
    "oden": 8379,
    "nowledge": 8380,
    "nergie": 8381,
    "melon": 8382,
    "lover": 8383,
    "lesen": 8384,
    "late": 8385,
    "km": 8386,
    "irus": 8387,
    "ilde": 8388,
    "gs": 8389,
    "goal": 8390,
    "fabric": 8391,
    "enk": 8392,
    "ements": 8393,
    "conditionally": 8394,
    "chine": 8395,
    "blind": 8396,
    "bate": 8397,
    "azing": 8398,
    "asting": 8399,
    "argent": 8400,
    "acy": 8401,
    "Número": 8402,
    "Mur": 8403,
    "Living": 8404,
    "IJ": 8405,
    "Hide": 8406,
    "False": 8407,
    "Expl": 8408,
    "Bang": 8409,
    "Appe": 8410,
    "AO": 8411,
    "ANE": 8412,
    "AA": 8413,
    "591": 8414,
    "463": 8415,
    "385": 8416,
    "337": 8417,
    "178": 8418,
    "은": 8419,
    "Ġwants": 8420,
    "Ġtrust": 8421,
    "Ġtoo": 8422,
    "Ġsérie": 8423,
    "Ġnúmero": 8424,
    "Ġnovo": 8425,
    "Ġmanual": 8426,
    "Ġlives": 8427,
    "Ġhill": 8428,
    "Ġglad": 8429,
    "Ġdream": 8430,
    "Ġdeep": 8431,
    "Ġdaughters": 8432,
    "Ġcrazy": 8433,
    "Ġbes": 8434,
    "ĠJames": 8435,
    "ĠAN": 8436,
    "zon": 8437,
    "visit": 8438,
    "utas": 8439,
    "until": 8440,
    "system": 8441,
    "sym": 8442,
    "share": 8443,
    "pip": 8444,
    "pent": 8445,
    "ori": 8446,
    "omba": 8447,
    "ográf": 8448,
    "nej": 8449,
    "nah": 8450,
    "lett": 8451,
    "ivia": 8452,
    "index": 8453,
    "imb": 8454,
    "gran": 8455,
    "elder": 8456,
    "direction": 8457,
    "culture": 8458,
    "clado": 8459,
    "arat": 8460,
    "angement": 8461,
    "Wo": 8462,
    "Washington": 8463,
    "SI": 8464,
    "Planet": 8465,
    "Our": 8466,
    "Mut": 8467,
    "Mem": 8468,
    "Len": 8469,
    "HR": 8470,
    "GN": 8471,
    "Fold": 8472,
    "Fault": 8473,
    "Ext": 8474,
    "ENTE": 8475,
    "DU": 8476,
    "CU": 8477,
    "About": 8478,
    "988": 8479,
    "923": 8480,
    "913": 8481,
    "841": 8482,
    "827": 8483,
    "766": 8484,
    "753": 8485,
    "696": 8486,
    "682": 8487,
    "658": 8488,
    "617": 8489,
    "606": 8490,
    "399": 8491,
    "328": 8492,
    "296": 8493,
    "134": 8494,
    "092": 8495,
    "057": 8496,
    "014": 8497,
    "++": 8498,
    "Ġت": 8499,
    "Ġsw": 8500,
    "Ġstanding": 8501,
    "Ġsour": 8502,
    "Ġregard": 8503,
    "Ġpay": 8504,
    "Ġinstitution": 8505,
    "Ġfam": 8506,
    "Ġdelight": 8507,
    "Ġchose": 8508,
    "Ġbare": 8509,
    "Ġamigos": 8510,
    "Ġage": 8511,
    "ĠPl": 8512,
    "ĠBible": 8513,
    "zech": 8514,
    "worm": 8515,
    "working": 8516,
    "without": 8517,
    "wart": 8518,
    "uesta": 8519,
    "tery": 8520,
    "stadt": 8521,
    "shake": 8522,
    "robe": 8523,
    "reflect": 8524,
    "quipe": 8525,
    "prob": 8526,
    "machine": 8527,
    "lep": 8528,
    "jos": 8529,
    "imiento": 8530,
    "imately": 8531,
    "ikt": 8532,
    "hort": 8533,
    "furt": 8534,
    "fork": 8535,
    "entlich": 8536,
    "enna": 8537,
    "edo": 8538,
    "easy": 8539,
    "display": 8540,
    "clamation": 8541,
    "chester": 8542,
    "cancel": 8543,
    "bac": 8544,
    "atto": 8545,
    "athing": 8546,
    "arsi": 8547,
    "agram": 8548,
    "Welcome": 8549,
    "Viol": 8550,
    "Quit": 8551,
    "PY": 8552,
    "KI": 8553,
    "CT": 8554,
    "Also": 8555,
    "Advance": 8556,
    "586": 8557,
    "581": 8558,
    "569": 8559,
    "564": 8560,
    "528": 8561,
    "501": 8562,
    "483": 8563,
    "464": 8564,
    "410": 8565,
    "352": 8566,
    "338": 8567,
    "133": 8568,
    "124": 8569,
    "005": 8570,
    "ły": 8571,
    "Ġس": 8572,
    "Ġsuperior": 8573,
    "Ġsole": 8574,
    "Ġrien": 8575,
    "Ġprof": 8576,
    "Ġpaper": 8577,
    "Ġlamp": 8578,
    "Ġdraw": 8579,
    "Ġcent": 8580,
    "Ġastonished": 8581,
    "ĠRN": 8582,
    "ĠOn": 8583,
    "ĠOl": 8584,
    "ĠBat": 8585,
    "yard": 8586,
    "unik": 8587,
    "ummy": 8588,
    "uits": 8589,
    "rn": 8590,
    "prit": 8591,
    "practice": 8592,
    "ntag": 8593,
    "master": 8594,
    "marca": 8595,
    "llen": 8596,
    "lijk": 8597,
    "kus": 8598,
    "ishes": 8599,
    "isease": 8600,
    "ffect": 8601,
    "errar": 8602,
    "endment": 8603,
    "colon": 8604,
    "atus": 8605,
    "arp": 8606,
    "anas": 8607,
    "alc": 8608,
    "agement": 8609,
    "account": 8610,
    "Whole": 8611,
    "Week": 8612,
    "Transport": 8613,
    "Suddenly": 8614,
    "Several": 8615,
    "Research": 8616,
    "Refer": 8617,
    "Page": 8618,
    "JD": 8619,
    "Gran": 8620,
    "FK": 8621,
    "AJ": 8622,
    "993": 8623,
    "893": 8624,
    "860": 8625,
    "832": 8626,
    "756": 8627,
    "686": 8628,
    "657": 8629,
    "114": 8630,
    "-la": 8631,
    "져": 8632,
    "ố": 8633,
    "ło": 8634,
    "Ġwon": 8635,
    "Ġrather": 8636,
    "Ġpresence": 8637,
    "Ġprayed": 8638,
    "Ġlies": 8639,
    "Ġgeht": 8640,
    "Ġfolly": 8641,
    "Ġfamily": 8642,
    "Ġcur": 8643,
    "Ġcontato": 8644,
    "Ġclean": 8645,
    "Ġbapt": 8646,
    "Ġanger": 8647,
    "ĠTo": 8648,
    "ĠSIGN": 8649,
    "ĠLake": 8650,
    "ór": 8651,
    "¿": 8652,
    "venth": 8653,
    "uty": 8654,
    "uren": 8655,
    "untos": 8656,
    "typ": 8657,
    "trust": 8658,
    "third": 8659,
    "snake": 8660,
    "phil": 8661,
    "osl": 8662,
    "orea": 8663,
    "opper": 8664,
    "omit": 8665,
    "nombre": 8666,
    "mort": 8667,
    "modify": 8668,
    "iders": 8669,
    "hotel": 8670,
    "gay": 8671,
    "flat": 8672,
    "elic": 8673,
    "eland": 8674,
    "deo": 8675,
    "burse": 8676,
    "brate": 8677,
    "bian": 8678,
    "awi": 8679,
    "away": 8680,
    "arter": 8681,
    "agg": 8682,
    "ads": 8683,
    "adores": 8684,
    "acho": 8685,
    "Sea": 8686,
    "Refreshing": 8687,
    "POR": 8688,
    "Oper": 8689,
    "Occup": 8690,
    "General": 8691,
    "Extra": 8692,
    "Eth": 8693,
    "Este": 8694,
    "CAM": 8695,
    "550": 8696,
    "520": 8697,
    "453": 8698,
    "305": 8699,
    "240": 8700,
    "044": 8701,
    "�인": 8702,
    "함": 8703,
    "ữ": 8704,
    "ší": 8705,
    "Ġtambém": 8706,
    "Ġstrength": 8707,
    "Ġnet": 8708,
    "Ġfinal": 8709,
    "Ġcidade": 8710,
    "Ġarm": 8711,
    "ĠYear": 8712,
    "shape": 8713,
    "sav": 8714,
    "plaint": 8715,
    "ivar": 8716,
    "imit": 8717,
    "igne": 8718,
    "igaret": 8719,
    "flag": 8720,
    "esh": 8721,
    "ervers": 8722,
    "enger": 8723,
    "achsen": 8724,
    "Vin": 8725,
    "Steps": 8726,
    "Single": 8727,
    "RW": 8728,
    "Observ": 8729,
    "Mult": 8730,
    "Legal": 8731,
    "LI": 8732,
    "LF": 8733,
    "Jacob": 8734,
    "Indian": 8735,
    "File": 8736,
    "END": 8737,
    "Dog": 8738,
    "Conference": 8739,
    "Chicken": 8740,
    "Basket": 8741,
    "981": 8742,
    "889": 8743,
    "862": 8744,
    "835": 8745,
    "760": 8746,
    "723": 8747,
    "699": 8748,
    "697": 8749,
    "672": 8750,
    "661": 8751,
    "636": 8752,
    "566": 8753,
    "416": 8754,
    "318": 8755,
    "227": 8756,
    "211": 8757,
    "096": 8758,
    "037": 8759,
    "025": 8760,
    "023": 8761,
    "-of": 8762,
    "-Y": 8763,
    "Ġvo": 8764,
    "Ġtestify": 8765,
    "Ġsheep": 8766,
    "Ġprom": 8767,
    "Ġom": 8768,
    "Ġmes": 8769,
    "Ġmembers": 8770,
    "Ġlifted": 8771,
    "Ġknowing": 8772,
    "Ġfollow": 8773,
    "Ġbat": 8774,
    "Ġanos": 8775,
    "Ġalto": 8776,
    "ĠIsland": 8777,
    "ĠEast": 8778,
    "ĠBo": 8779,
    "ĠAg": 8780,
    "óst": 8781,
    "ácil": 8782,
    "usting": 8783,
    "trer": 8784,
    "through": 8785,
    "ters": 8786,
    "struction": 8787,
    "spect": 8788,
    "simple": 8789,
    "shopping": 8790,
    "resultado": 8791,
    "reason": 8792,
    "rale": 8793,
    "priv": 8794,
    "prepare": 8795,
    "pone": 8796,
    "page": 8797,
    "owel": 8798,
    "ocket": 8799,
    "notice": 8800,
    "mination": 8801,
    "iving": 8802,
    "itable": 8803,
    "istry": 8804,
    "irma": 8805,
    "imentos": 8806,
    "friendly": 8807,
    "esen": 8808,
    "erb": 8809,
    "eph": 8810,
    "ending": 8811,
    "document": 8812,
    "doctor": 8813,
    "dep": 8814,
    "coffee": 8815,
    "cept": 8816,
    "bout": 8817,
    "asper": 8818,
    "andle": 8819,
    "aly": 8820,
    "Unit": 8821,
    "URATION": 8822,
    "Third": 8823,
    "Spider": 8824,
    "RD": 8825,
    "Poor": 8826,
    "Mod": 8827,
    "Mind": 8828,
    "Hon": 8829,
    "Camp": 8830,
    "CC": 8831,
    "577": 8832,
    "532": 8833,
    "516": 8834,
    "484": 8835,
    "470": 8836,
    "459": 8837,
    "455": 8838,
    "402": 8839,
    "257": 8840,
    "238": 8841,
    "-al": 8842,
    "že": 8843,
    "Ġspeech": 8844,
    "Ġsalvation": 8845,
    "Ġround": 8846,
    "Ġrain": 8847,
    "Ġlevel": 8848,
    "Ġhearts": 8849,
    "Ġexcept": 8850,
    "Ġenough": 8851,
    "Ġcover": 8852,
    "Ġcou": 8853,
    "Ġapart": 8854,
    "Ġanyone": 8855,
    "Ġaccident": 8856,
    "ĠUn": 8857,
    "ĠSutton": 8858,
    "Ġ=": 8859,
    "ícul": 8860,
    "zk": 8861,
    "years": 8862,
    "wij": 8863,
    "weak": 8864,
    "terior": 8865,
    "tag": 8866,
    "standard": 8867,
    "signal": 8868,
    "radio": 8869,
    "quam": 8870,
    "osoph": 8871,
    "oses": 8872,
    "orra": 8873,
    "onaut": 8874,
    "olas": 8875,
    "oint": 8876,
    "office": 8877,
    "obe": 8878,
    "life": 8879,
    "jac": 8880,
    "ités": 8881,
    "grass": 8882,
    "grant": 8883,
    "gium": 8884,
    "estival": 8885,
    "depend": 8886,
    "came": 8887,
    "amburger": 8888,
    "YO": 8889,
    "Vir": 8890,
    "Union": 8891,
    "Still": 8892,
    "Speech": 8893,
    "Simple": 8894,
    "Seek": 8895,
    "Peak": 8896,
    "PRI": 8897,
    "Nav": 8898,
    "NX": 8899,
    "Mot": 8900,
    "Month": 8901,
    "Meta": 8902,
    "Kir": 8903,
    "HI": 8904,
    "Foot": 8905,
    "Experiment": 8906,
    "EF": 8907,
    "DD": 8908,
    "Boy": 8909,
    "Argument": 8910,
    "Account": 8911,
    "AMENT": 8912,
    "AMA": 8913,
    "986": 8914,
    "956": 8915,
    "873": 8916,
    "867": 8917,
    "857": 8918,
    "788": 8919,
    "772": 8920,
    "763": 8921,
    "645": 8922,
    "629": 8923,
    "628": 8924,
    "466": 8925,
    "412": 8926,
    "324": 8927,
    "279": 8928,
    "276": 8929,
    "174": 8930,
    "170": 8931,
    "067": 8932,
    "-known": 8933,
    "-down": 8934,
    "와": 8935,
    "Ġvou": 8936,
    "Ġview": 8937,
    "Ġvezes": 8938,
    "Ġsab": 8939,
    "Ġrespect": 8940,
    "Ġrepro": 8941,
    "Ġquickly": 8942,
    "Ġped": 8943,
    "Ġought": 8944,
    "Ġoriginal": 8945,
    "Ġneck": 8946,
    "Ġmãe": 8947,
    "Ġmotivation": 8948,
    "Ġmont": 8949,
    "Ġgeneration": 8950,
    "Ġcreated": 8951,
    "Ġbeim": 8952,
    "ühr": 8953,
    "welcome": 8954,
    "unning": 8955,
    "uing": 8956,
    "uent": 8957,
    "speed": 8958,
    "roy": 8959,
    "ripe": 8960,
    "rede": 8961,
    "pty": 8962,
    "orem": 8963,
    "music": 8964,
    "mine": 8965,
    "jective": 8966,
    "iper": 8967,
    "interrupt": 8968,
    "inary": 8969,
    "iado": 8970,
    "game": 8971,
    "ford": 8972,
    "enny": 8973,
    "cod": 8974,
    "cobra": 8975,
    "bread": 8976,
    "battle": 8977,
    "azed": 8978,
    "arts": 8979,
    "artic": 8980,
    "arming": 8981,
    "arda": 8982,
    "amon": 8983,
    "adopt": 8984,
    "actic": 8985,
    "abl": 8986,
    "VAL": 8987,
    "Oil": 8988,
    "NU": 8989,
    "Money": 8990,
    "Loss": 8991,
    "Liter": 8992,
    "Learning": 8993,
    "Knowledge": 8994,
    "Io": 8995,
    "IND": 8996,
    "Goal": 8997,
    "February": 8998,
    "Ell": 8999,
    "Dur": 9000,
    "Central": 9001,
    "CV": 9002,
    "ANC": 9003,
    "684": 9004,
    "552": 9005,
    "548": 9006,
    "546": 9007,
    "531": 9008,
    "509": 9009,
    "457": 9010,
    "407": 9011,
    "346": 9012,
    "291": 9013,
    "008": 9014,
    "Ġqual": 9015,
    "Ġplano": 9016,
    "Ġphoto": 9017,
    "Ġpec": 9018,
    "Ġoutro": 9019,
    "Ġmismo": 9020,
    "Ġlugar": 9021,
    "Ġgente": 9022,
    "Ġfra": 9023,
    "Ġdirect": 9024,
    "ĠNy": 9025,
    "ĠMAR": 9026,
    "zas": 9027,
    "vu": 9028,
    "usp": 9029,
    "urther": 9030,
    "urf": 9031,
    "uego": 9032,
    "topic": 9033,
    "tod": 9034,
    "structor": 9035,
    "stasy": 9036,
    "river": 9037,
    "require": 9038,
    "pine": 9039,
    "personal": 9040,
    "pekt": 9041,
    "peace": 9042,
    "oogle": 9043,
    "ogra": 9044,
    "none": 9045,
    "multip": 9046,
    "meter": 9047,
    "inside": 9048,
    "iew": 9049,
    "hear": 9050,
    "hall": 9051,
    "football": 9052,
    "extr": 9053,
    "expr": 9054,
    "erre": 9055,
    "ennes": 9056,
    "egal": 9057,
    "angen": 9058,
    "alen": 9059,
    "aktiv": 9060,
    "akes": 9061,
    "adjust": 9062,
    "aat": 9063,
    "_S": 9064,
    "ZE": 9065,
    "Wow": 9066,
    "Sorry": 9067,
    "Rose": 9068,
    "Recogn": 9069,
    "Pale": 9070,
    "Outside": 9071,
    "MP": 9072,
    "MC": 9073,
    "Issue": 9074,
    "Ground": 9075,
    "Fig": 9076,
    "Exist": 9077,
    "Conv": 9078,
    "Brush": 9079,
    "978": 9080,
    "920": 9081,
    "869": 9082,
    "818": 9083,
    "798": 9084,
    "767": 9085,
    "762": 9086,
    "761": 9087,
    "744": 9088,
    "713": 9089,
    "692": 9090,
    "691": 9091,
    "609": 9092,
    "433": 9093,
    "425": 9094,
    "094": 9095,
    "086": 9096,
    "い": 9097,
    "Ġrem": 9098,
    "Ġlisten": 9099,
    "Ġkings": 9100,
    "Ġhorse": 9101,
    "Ġfight": 9102,
    "Ġdegree": 9103,
    "Ġcontinually": 9104,
    "Ġcarro": 9105,
    "Ġbew": 9106,
    "Ġaid": 9107,
    "ĠWord": 9108,
    "ĠVT": 9109,
    "ĠPe": 9110,
    "ĠPA": 9111,
    "ĠHa": 9112,
    "änge": 9113,
    "ureau": 9114,
    "tout": 9115,
    "then": 9116,
    "terror": 9117,
    "tener": 9118,
    "server": 9119,
    "rox": 9120,
    "rieg": 9121,
    "requent": 9122,
    "reib": 9123,
    "rais": 9124,
    "partner": 9125,
    "oust": 9126,
    "oppel": 9127,
    "olk": 9128,
    "odor": 9129,
    "obi": 9130,
    "licated": 9131,
    "ktion": 9132,
    "iedade": 9133,
    "haven": 9134,
    "emia": 9135,
    "elli": 9136,
    "bomb": 9137,
    "arin": 9138,
    "acija": 9139,
    "YS": 9140,
    "Variant": 9141,
    "Sing": 9142,
    "Shock": 9143,
    "Rock": 9144,
    "RIA": 9145,
    "Mouse": 9146,
    "JK": 9147,
    "ERT": 9148,
    "DT": 9149,
    "Board": 9150,
    "541": 9151,
    "537": 9152,
    "485": 9153,
    "474": 9154,
    "443": 9155,
    "436": 9156,
    "434": 9157,
    "347": 9158,
    "262": 9159,
    "251": 9160,
    "250": 9161,
    "235": 9162,
    "128": 9163,
    "017": 9164,
    "'eau": 9165,
    "ồ": 9166,
    "Ġ나": 9167,
    "Ġvoir": 9168,
    "Ġshower": 9169,
    "Ġshort": 9170,
    "Ġprison": 9171,
    "Ġpayment": 9172,
    "Ġmich": 9173,
    "Ġhate": 9174,
    "Ġestr": 9175,
    "Ġduas": 9176,
    "Ġdollars": 9177,
    "Ġdish": 9178,
    "Ġcovenant": 9179,
    "ĠSie": 9180,
    "ĠMag": 9181,
    "ĠHar": 9182,
    "ĠFrancisco": 9183,
    "xo": 9184,
    "wend": 9185,
    "vocab": 9186,
    "vice": 9187,
    "ughty": 9188,
    "uder": 9189,
    "uais": 9190,
    "site": 9191,
    "rote": 9192,
    "prior": 9193,
    "oles": 9194,
    "older": 9195,
    "lder": 9196,
    "knowledge": 9197,
    "kes": 9198,
    "ivi": 9199,
    "istle": 9200,
    "inion": 9201,
    "ilight": 9202,
    "ifying": 9203,
    "government": 9204,
    "gado": 9205,
    "finger": 9206,
    "brand": 9207,
    "azi": 9208,
    "apon": 9209,
    "aos": 9210,
    "anos": 9211,
    "anges": 9212,
    "admin": 9213,
    "Win": 9214,
    "VS": 9215,
    "VP": 9216,
    "Success": 9217,
    "Speed": 9218,
    "Skeleton": 9219,
    "Secret": 9220,
    "Raise": 9221,
    "Machine": 9222,
    "Jam": 9223,
    "Increase": 9224,
    "Center": 9225,
    "Cannot": 9226,
    "CK": 9227,
    "Ath": 9228,
    "Apple": 9229,
    "892": 9230,
    "874": 9231,
    "845": 9232,
    "799": 9233,
    "738": 9234,
    "736": 9235,
    "647": 9236,
    "625": 9237,
    "487": 9238,
    "212": 9239,
    "162": 9240,
    "079": 9241,
    "ĠÉ": 9242,
    "Ġwealth": 9243,
    "Ġsm": 9244,
    "Ġself": 9245,
    "Ġrep": 9246,
    "Ġread": 9247,
    "Ġlarge": 9248,
    "Ġgoes": 9249,
    "Ġgift": 9250,
    "Ġfís": 9251,
    "Ġfriends": 9252,
    "Ġetwas": 9253,
    "ĠCR": 9254,
    "vely": 9255,
    "trip": 9256,
    "thin": 9257,
    "stan": 9258,
    "sb": 9259,
    "rying": 9260,
    "rust": 9261,
    "reduce": 9262,
    "rama": 9263,
    "pire": 9264,
    "nan": 9265,
    "lobe": 9266,
    "lique": 9267,
    "linha": 9268,
    "iking": 9269,
    "ihil": 9270,
    "ibilit": 9271,
    "hei": 9272,
    "fold": 9273,
    "excel": 9274,
    "eras": 9275,
    "empty": 9276,
    "elect": 9277,
    "current": 9278,
    "culos": 9279,
    "bast": 9280,
    "atha": 9281,
    "acom": 9282,
    "aac": 9283,
    "Wave": 9284,
    "Summary": 9285,
    "Slow": 9286,
    "SUR": 9287,
    "Resolution": 9288,
    "Pi": 9289,
    "October": 9290,
    "Negative": 9291,
    "Near": 9292,
    "Mrs": 9293,
    "Late": 9294,
    "Key": 9295,
    "Grupo": 9296,
    "Grab": 9297,
    "GU": 9298,
    "Failure": 9299,
    "Dou": 9300,
    "Dismiss": 9301,
    "Curso": 9302,
    "Comb": 9303,
    "Coin": 9304,
    "561": 9305,
    "547": 9306,
    "543": 9307,
    "519": 9308,
    "358": 9309,
    "349": 9310,
    "-men": 9311,
    "-X": 9312,
    "-U": 9313,
    "่า": 9314,
    "ל": 9315,
    "ź": 9316,
    "Ġworker": 9317,
    "Ġwomen": 9318,
    "Ġvista": 9319,
    "Ġvem": 9320,
    "Ġtrouble": 9321,
    "Ġtres": 9322,
    "Ġterra": 9323,
    "Ġslugg": 9324,
    "Ġpress": 9325,
    "Ġnum": 9326,
    "Ġincl": 9327,
    "Ġgenerations": 9328,
    "Ġdwell": 9329,
    "Ġcurso": 9330,
    "Ġcircle": 9331,
    "Ġcapital": 9332,
    "Ġbas": 9333,
    "Ġarms": 9334,
    "Ġappeared": 9335,
    "Ġadd": 9336,
    "ĠTe": 9337,
    "ĠPont": 9338,
    "ĠNov": 9339,
    "ĠDi": 9340,
    "ĠBen": 9341,
    "ĠAz": 9342,
    "wing": 9343,
    "window": 9344,
    "thus": 9345,
    "simp": 9346,
    "running": 9347,
    "orph": 9348,
    "lossen": 9349,
    "lj": 9350,
    "lift": 9351,
    "imi": 9352,
    "gue": 9353,
    "gend": 9354,
    "frei": 9355,
    "fluence": 9356,
    "flash": 9357,
    "field": 9358,
    "ení": 9359,
    "cloud": 9360,
    "cion": 9361,
    "church": 9362,
    "cean": 9363,
    "carbon": 9364,
    "better": 9365,
    "athy": 9366,
    "appiness": 9367,
    "analy": 9368,
    "amburg": 9369,
    "altung": 9370,
    "Touch": 9371,
    "Todo": 9372,
    "Subject": 9373,
    "Shopping": 9374,
    "Recommend": 9375,
    "Num": 9376,
    "MG": 9377,
    "Location": 9378,
    "Journal": 9379,
    "Insensitive": 9380,
    "GBT": 9381,
    "Finally": 9382,
    "Delay": 9383,
    "Certain": 9384,
    "Basic": 9385,
    "BN": 9386,
    "AMP": 9387,
    "791": 9388,
    "789": 9389,
    "714": 9390,
    "712": 9391,
    "607": 9392,
    "478": 9393,
    "388": 9394,
    "104": 9395,
    "'acc": 9396,
    "Ġtexto": 9397,
    "Ġsob": 9398,
    "Ġraise": 9399,
    "Ġplant": 9400,
    "Ġmaterial": 9401,
    "Ġlose": 9402,
    "Ġja": 9403,
    "Ġhaben": 9404,
    "Ġfathers": 9405,
    "Ġeine": 9406,
    "Ġdoctor": 9407,
    "Ġcorpo": 9408,
    "Ġcompany": 9409,
    "Ġasleep": 9410,
    "Ġalgo": 9411,
    "ĠZeit": 9412,
    "ĠDias": 9413,
    "whole": 9414,
    "utch": 9415,
    "ursion": 9416,
    "ulfill": 9417,
    "research": 9418,
    "quierda": 9419,
    "oct": 9420,
    "kal": 9421,
    "jj": 9422,
    "itan": 9423,
    "isin": 9424,
    "iration": 9425,
    "indic": 9426,
    "iko": 9427,
    "iece": 9428,
    "guide": 9429,
    "gray": 9430,
    "former": 9431,
    "esar": 9432,
    "ernal": 9433,
    "education": 9434,
    "compass": 9435,
    "code": 9436,
    "cob": 9437,
    "ceased": 9438,
    "buscar": 9439,
    "brero": 9440,
    "Window": 9441,
    "Temp": 9442,
    "TN": 9443,
    "Space": 9444,
    "Mi": 9445,
    "Mes": 9446,
    "Mc": 9447,
    "Judge": 9448,
    "Import": 9449,
    "Ign": 9450,
    "Hola": 9451,
    "Glass": 9452,
    "Game": 9453,
    "Earn": 9454,
    "Discovery": 9455,
    "Being": 9456,
    "Alt": 9457,
    "Act": 9458,
    "594": 9459,
    "544": 9460,
    "523": 9461,
    "405": 9462,
    "395": 9463,
    "374": 9464,
    "295": 9465,
    "217": 9466,
    "-ce": 9467,
    "'re": 9468,
    "디": 9469,
    "Ġyes": 9470,
    "Ġrecord": 9471,
    "Ġpurpose": 9472,
    "Ġprudent": 9473,
    "Ġpraise": 9474,
    "Ġled": 9475,
    "Ġha": 9476,
    "Ġgas": 9477,
    "Ġfree": 9478,
    "Ġfa": 9479,
    "Ġdir": 9480,
    "Ġded": 9481,
    "Ġcontrol": 9482,
    "Ġchange": 9483,
    "Ġcart": 9484,
    "Ġban": 9485,
    "Ġavoir": 9486,
    "ĠMach": 9487,
    "ĠIN": 9488,
    "ĠCity": 9489,
    "ĠCenter": 9490,
    "ôme": 9491,
    "von": 9492,
    "vern": 9493,
    "trait": 9494,
    "stream": 9495,
    "squ": 9496,
    "rosse": 9497,
    "rado": 9498,
    "portion": 9499,
    "plural": 9500,
    "orsch": 9501,
    "orian": 9502,
    "opa": 9503,
    "nte": 9504,
    "movement": 9505,
    "mobile": 9506,
    "md": 9507,
    "jab": 9508,
    "isky": 9509,
    "inkle": 9510,
    "hide": 9511,
    "forest": 9512,
    "ewing": 9513,
    "children": 9514,
    "bau": 9515,
    "atisch": 9516,
    "ashes": 9517,
    "ampa": 9518,
    "affen": 9519,
    "Wir": 9520,
    "Ven": 9521,
    "Trou": 9522,
    "Spain": 9523,
    "Service": 9524,
    "Salt": 9525,
    "Respons": 9526,
    "Phone": 9527,
    "NL": 9528,
    "Mobile": 9529,
    "Local": 9530,
    "Intern": 9531,
    "Guy": 9532,
    "GG": 9533,
    "GF": 9534,
    "Exit": 9535,
    "Decl": 9536,
    "DN": 9537,
    "Chief": 9538,
    "California": 9539,
    "Bu": 9540,
    "Aw": 9541,
    "?'": 9542,
    "915": 9543,
    "910": 9544,
    "865": 9545,
    "802": 9546,
    "749": 9547,
    "045": 9548,
    "-so": 9549,
    ")-": 9550,
    "태": 9551,
    "َ": 9552,
    "Ġwash": 9553,
    "Ġvir": 9554,
    "Ġturned": 9555,
    "Ġtrain": 9556,
    "Ġstayed": 9557,
    "Ġsorrow": 9558,
    "Ġreb": 9559,
    "Ġplease": 9560,
    "Ġplate": 9561,
    "Ġlearn": 9562,
    "Ġirm": 9563,
    "Ġheavens": 9564,
    "Ġfoi": 9565,
    "Ġdeceit": 9566,
    "Ġclock": 9567,
    "Ġauthority": 9568,
    "Ġans": 9569,
    "ĠGo": 9570,
    "zm": 9571,
    "vey": 9572,
    "valor": 9573,
    "uper": 9574,
    "upa": 9575,
    "ugo": 9576,
    "uevo": 9577,
    "tl": 9578,
    "soft": 9579,
    "sans": 9580,
    "reece": 9581,
    "reach": 9582,
    "oot": 9583,
    "onym": 9584,
    "ochen": 9585,
    "nant": 9586,
    "lessness": 9587,
    "inth": 9588,
    "intern": 9589,
    "ilio": 9590,
    "dl": 9591,
    "clusion": 9592,
    "business": 9593,
    "atu": 9594,
    "apes": 9595,
    "anes": 9596,
    "aka": 9597,
    "aha": 9598,
    "Rad": 9599,
    "Mr": 9600,
    "Mari": 9601,
    "Lat": 9602,
    "Instead": 9603,
    "Follow": 9604,
    "Field": 9605,
    "Director": 9606,
    "DX": 9607,
    "Cu": 9608,
    "Celebr": 9609,
    "Cash": 9610,
    "Attend": 9611,
    "Alter": 9612,
    "465": 9613,
    "173": 9614,
    "127": 9615,
    "-lib": 9616,
    "-for": 9617,
    "-am": 9618,
    "Ġwide": 9619,
    "Ġvertical": 9620,
    "Ġthank": 9621,
    "Ġsuffer": 9622,
    "Ġsexual": 9623,
    "Ġpequ": 9624,
    "Ġmoi": 9625,
    "Ġmer": 9626,
    "Ġloved": 9627,
    "Ġgreater": 9628,
    "Ġgest": 9629,
    "Ġdestruction": 9630,
    "Ġconversation": 9631,
    "Ġconfiguration": 9632,
    "Ġbride": 9633,
    "Ġbike": 9634,
    "Ġaqui": 9635,
    "ĠWh": 9636,
    "ĠSeg": 9637,
    "ĠParan": 9638,
    "ĠOS": 9639,
    "ĠDept": 9640,
    "ĠBeth": 9641,
    "ört": 9642,
    "yet": 9643,
    "wow": 9644,
    "wild": 9645,
    "wed": 9646,
    "vos": 9647,
    "uddy": 9648,
    "select": 9649,
    "ressive": 9650,
    "ression": 9651,
    "phys": 9652,
    "ounding": 9653,
    "opia": 9654,
    "onders": 9655,
    "manda": 9656,
    "lip": 9657,
    "jong": 9658,
    "izen": 9659,
    "igor": 9660,
    "ican": 9661,
    "foto": 9662,
    "environment": 9663,
    "clude": 9664,
    "avirus": 9665,
    "apro": 9666,
    "antu": 9667,
    "alarm": 9668,
    "Temperature": 9669,
    "Skill": 9670,
    "Shop": 9671,
    "Serve": 9672,
    "Reach": 9673,
    "Model": 9674,
    "Mission": 9675,
    "Leon": 9676,
    "Lake": 9677,
    "GC": 9678,
    "Film": 9679,
    "Eventually": 9680,
    "Empty": 9681,
    "Course": 9682,
    "Cert": 9683,
    "Bill": 9684,
    "Benef": 9685,
    "Begin": 9686,
    "Alert": 9687,
    "Ability": 9688,
    "979": 9689,
    "896": 9690,
    "786": 9691,
    "768": 9692,
    "746": 9693,
    "389": 9694,
    "154": 9695,
    "142": 9696,
    "022": 9697,
    "-st": 9698,
    "Ġ것": 9699,
    "Ġ가": 9700,
    "Ġč": 9701,
    "Ġviolence": 9702,
    "Ġti": 9703,
    "Ġthroughout": 9704,
    "Ġriver": 9705,
    "Ġready": 9706,
    "Ġprophets": 9707,
    "Ġnose": 9708,
    "Ġlinks": 9709,
    "Ġins": 9710,
    "Ġfé": 9711,
    "Ġdeux": 9712,
    "Ġdar": 9713,
    "Ġcomer": 9714,
    "Ġbowl": 9715,
    "Ġbet": 9716,
    "Ġbeautiful": 9717,
    "ĠRos": 9718,
    "ĠPro": 9719,
    "ĠCONFIG": 9720,
    "ĠAMAZ": 9721,
    "umba": 9722,
    "uire": 9723,
    "ucceed": 9724,
    "their": 9725,
    "stud": 9726,
    "resse": 9727,
    "prar": 9728,
    "pink": 9729,
    "ought": 9730,
    "olum": 9731,
    "nummer": 9732,
    "neh": 9733,
    "loon": 9734,
    "itaire": 9735,
    "itag": 9736,
    "hung": 9737,
    "ffen": 9738,
    "ewish": 9739,
    "evil": 9740,
    "etry": 9741,
    "entre": 9742,
    "enen": 9743,
    "coholic": 9744,
    "belie": 9745,
    "azen": 9746,
    "atr": 9747,
    "apping": 9748,
    "amination": 9749,
    "alta": 9750,
    "ails": 9751,
    "YN": 9752,
    "WH": 9753,
    "ULT": 9754,
    "Reflect": 9755,
    "Ps": 9756,
    "Pin": 9757,
    "Party": 9758,
    "Partner": 9759,
    "Pakistan": 9760,
    "Nat": 9761,
    "MED": 9762,
    "HP": 9763,
    "BU": 9764,
    "Always": 9765,
    "527": 9766,
    "461": 9767,
    "441": 9768,
    "363": 9769,
    "362": 9770,
    "271": 9771,
    "176": 9772,
    "-th": 9773,
    "-art": 9774,
    "Ġsorry": 9775,
    "Ġporta": 9776,
    "Ġnote": 9777,
    "Ġminute": 9778,
    "Ġloud": 9779,
    "Ġlonger": 9780,
    "Ġgarden": 9781,
    "Ġforte": 9782,
    "Ġdn": 9783,
    "Ġbuilding": 9784,
    "Ġboard": 9785,
    "ĠRica": 9786,
    "ĠRay": 9787,
    "ĠLuz": 9788,
    "ĠAM": 9789,
    "üler": 9790,
    "·": 9791,
    "viously": 9792,
    "uish": 9793,
    "uez": 9794,
    "tat": 9795,
    "stock": 9796,
    "smart": 9797,
    "rina": 9798,
    "rh": 9799,
    "oner": 9800,
    "odi": 9801,
    "minute": 9802,
    "inden": 9803,
    "ims": 9804,
    "ijd": 9805,
    "ignon": 9806,
    "iembre": 9807,
    "ically": 9808,
    "experience": 9809,
    "czy": 9810,
    "chap": 9811,
    "cao": 9812,
    "borough": 9813,
    "bare": 9814,
    "attle": 9815,
    "atrice": 9816,
    "another": 9817,
    "amiliar": 9818,
    "WN": 9819,
    "Vert": 9820,
    "Tap": 9821,
    "Section": 9822,
    "Sec": 9823,
    "QQ": 9824,
    "Picture": 9825,
    "Oct": 9826,
    "Manager": 9827,
    "MF": 9828,
    "Kitchen": 9829,
    "JP": 9830,
    "IQ": 9831,
    "Forward": 9832,
    "Decision": 9833,
    "BM": 9834,
    "Answer": 9835,
    "Anna": 9836,
    "944": 9837,
    "904": 9838,
    "891": 9839,
    "842": 9840,
    "777": 9841,
    "703": 9842,
    "690": 9843,
    "680": 9844,
    "610": 9845,
    "488": 9846,
    "417": 9847,
    "319": 9848,
    "060": 9849,
    "046": 9850,
    "-end": 9851,
    "-ca": 9852,
    "-Al": 9853,
    "!'": 9854,
    "Ġtribe": 9855,
    "Ġsake": 9856,
    "Ġquiet": 9857,
    "Ġpan": 9858,
    "Ġoutside": 9859,
    "Ġoutra": 9860,
    "Ġmie": 9861,
    "Ġlab": 9862,
    "Ġinter": 9863,
    "Ġinsane": 9864,
    "Ġincrease": 9865,
    "Ġdaughter": 9866,
    "Ġcomputer": 9867,
    "Ġcoisa": 9868,
    "Ġcinco": 9869,
    "Ġchemin": 9870,
    "Ġcards": 9871,
    "Ġastr": 9872,
    "ĠSamuel": 9873,
    "ĠSW": 9874,
    "ĠKrist": 9875,
    "ĠCl": 9876,
    "ĠBrit": 9877,
    "ív": 9878,
    "éric": 9879,
    "zept": 9880,
    "wolf": 9881,
    "wake": 9882,
    "uste": 9883,
    "uous": 9884,
    "tid": 9885,
    "pile": 9886,
    "ook": 9887,
    "olle": 9888,
    "nob": 9889,
    "ners": 9890,
    "mid": 9891,
    "mess": 9892,
    "mean": 9893,
    "mant": 9894,
    "lete": 9895,
    "leo": 9896,
    "issent": 9897,
    "issance": 9898,
    "inosaur": 9899,
    "ined": 9900,
    "ikon": 9901,
    "ikel": 9902,
    "hog": 9903,
    "fact": 9904,
    "enth": 9905,
    "country": 9906,
    "clair": 9907,
    "charge": 9908,
    "buy": 9909,
    "bour": 9910,
    "bara": 9911,
    "araoh": 9912,
    "aktion": 9913,
    "Witness": 9914,
    "UAL": 9915,
    "Solid": 9916,
    "Side": 9917,
    "Round": 9918,
    "Minus": 9919,
    "Indeed": 9920,
    "HL": 9921,
    "Fashion": 9922,
    "Execute": 9923,
    "During": 9924,
    "Daily": 9925,
    "Club": 9926,
    "Cancel": 9927,
    "Assoc": 9928,
    "ARD": 9929,
    "API": 9930,
    "254": 9931,
    "204": 9932,
    "ณ": 9933,
    "Ġwilderness": 9934,
    "Ġweight": 9935,
    "Ġvisit": 9936,
    "Ġtroubled": 9937,
    "Ġshows": 9938,
    "Ġpain": 9939,
    "Ġokay": 9940,
    "Ġneg": 9941,
    "Ġmou": 9942,
    "Ġmerc": 9943,
    "Ġcents": 9944,
    "ĠZw": 9945,
    "ĠSER": 9946,
    "ĠProvince": 9947,
    "ĠKong": 9948,
    "ĠEurope": 9949,
    "ĠAmazon": 9950,
    "ünst": 9951,
    "utes": 9952,
    "usement": 9953,
    "tip": 9954,
    "suit": 9955,
    "sez": 9956,
    "roph": 9957,
    "ready": 9958,
    "ppt": 9959,
    "posta": 9960,
    "ológ": 9961,
    "oil": 9962,
    "neo": 9963,
    "necessary": 9964,
    "nation": 9965,
    "keeper": 9966,
    "itated": 9967,
    "irl": 9968,
    "huge": 9969,
    "gren": 9970,
    "gather": 9971,
    "fresh": 9972,
    "dw": 9973,
    "cke": 9974,
    "burgh": 9975,
    "boom": 9976,
    "bildung": 9977,
    "aware": 9978,
    "apr": 9979,
    "antas": 9980,
    "angle": 9981,
    "alam": 9982,
    "aina": 9983,
    "agra": 9984,
    "actor": 9985,
    "abelle": 9986,
    "_s": 9987,
    "YP": 9988,
    "Winter": 9989,
    "Wild": 9990,
    "WR": 9991,
    "UIT": 9992,
    "Strength": 9993,
    "Spot": 9994,
    "RU": 9995,
    "ROS": 9996,
    "Push": 9997,
    "Phrase": 9998,
    "Mais": 9999,
    "MZ": 10000,
    "Inspector": 10001,
    "Impossible": 10002,
    "IGH": 10003,
    "HQ": 10004,
    "FN": 10005,
    "Create": 10006,
    "Bug": 10007,
    "Brown": 10008,
    "Brain": 10009,
    "971": 10010,
    "970": 10011,
    "945": 10012,
    "745": 10013,
    "737": 10014,
    "678": 10015,
    "669": 10016,
    "642": 10017,
    "/she": 10018,
    "를": 10019,
    "ợ": 10020,
    "ắ": 10021,
    "Ġwar": 10022,
    "Ġthough": 10023,
    "Ġstudy": 10024,
    "Ġrevealed": 10025,
    "Ġoil": 10026,
    "Ġmoves": 10027,
    "Ġhum": 10028,
    "Ġgraf": 10029,
    "Ġgar": 10030,
    "Ġcé": 10031,
    "Ġcommunication": 10032,
    "Ġag": 10033,
    "ĠMichael": 10034,
    "ĠMartins": 10035,
    "ĠMari": 10036,
    "ĠJonah": 10037,
    "ĠCruz": 10038,
    "ĠAdam": 10039,
    "veau": 10040,
    "urrection": 10041,
    "ultural": 10042,
    "udas": 10043,
    "thought": 10044,
    "serious": 10045,
    "ricia": 10046,
    "rael": 10047,
    "pus": 10048,
    "ption": 10049,
    "please": 10050,
    "phere": 10051,
    "pest": 10052,
    "orientation": 10053,
    "ongs": 10054,
    "odd": 10055,
    "nez": 10056,
    "maj": 10057,
    "lets": 10058,
    "krit": 10059,
    "kid": 10060,
    "itung": 10061,
    "iom": 10062,
    "ilot": 10063,
    "hof": 10064,
    "gain": 10065,
    "fter": 10066,
    "fila": 10067,
    "etro": 10068,
    "errer": 10069,
    "ergarten": 10070,
    "dish": 10071,
    "dea": 10072,
    "club": 10073,
    "asto": 10074,
    "association": 10075,
    "anter": 10076,
    "alog": 10077,
    "UU": 10078,
    "True": 10079,
    "Sus": 10080,
    "RG": 10081,
    "Org": 10082,
    "Obs": 10083,
    "Normal": 10084,
    "Never": 10085,
    "Naz": 10086,
    "Kal": 10087,
    "KO": 10088,
    "Damage": 10089,
    "Core": 10090,
    "Cop": 10091,
    "Clar": 10092,
    "BP": 10093,
    "ANN": 10094,
    "576": 10095,
    "524": 10096,
    "439": 10097,
    "-shirt": 10098,
    "Ġsurprised": 10099,
    "Ġsmile": 10100,
    "Ġrose": 10101,
    "Ġresurrection": 10102,
    "Ġprofessor": 10103,
    "Ġpens": 10104,
    "Ġnós": 10105,
    "Ġng": 10106,
    "Ġlikewise": 10107,
    "Ġhot": 10108,
    "Ġfilm": 10109,
    "Ġbasket": 10110,
    "ĠCampos": 10111,
    "ĠAugust": 10112,
    "ziehung": 10113,
    "zan": 10114,
    "urious": 10115,
    "undred": 10116,
    "ulp": 10117,
    "uisse": 10118,
    "ught": 10119,
    "translate": 10120,
    "thanks": 10121,
    "roid": 10122,
    "rive": 10123,
    "reland": 10124,
    "parents": 10125,
    "orre": 10126,
    "oka": 10127,
    "monitor": 10128,
    "lean": 10129,
    "kraine": 10130,
    "kill": 10131,
    "ispiel": 10132,
    "imagem": 10133,
    "ighborhood": 10134,
    "ieur": 10135,
    "iao": 10136,
    "ghan": 10137,
    "farm": 10138,
    "example": 10139,
    "enser": 10140,
    "empt": 10141,
    "employment": 10142,
    "ectar": 10143,
    "context": 10144,
    "configuration": 10145,
    "college": 10146,
    "cient": 10147,
    "character": 10148,
    "beer": 10149,
    "aying": 10150,
    "artment": 10151,
    "ammer": 10152,
    "alin": 10153,
    "aced": 10154,
    "aal": 10155,
    "Walking": 10156,
    "Volt": 10157,
    "Understanding": 10158,
    "Sort": 10159,
    "Soph": 10160,
    "Prim": 10161,
    "Nu": 10162,
    "Natural": 10163,
    "KM": 10164,
    "KG": 10165,
    "IMENT": 10166,
    "IER": 10167,
    "HD": 10168,
    "Exercise": 10169,
    "Event": 10170,
    "Escape": 10171,
    "ENA": 10172,
    "Duplicate": 10173,
    "Chef": 10174,
    "Barrier": 10175,
    "Application": 10176,
    "ANO": 10177,
    "933": 10178,
    "917": 10179,
    "844": 10180,
    "825": 10181,
    "801": 10182,
    "787": 10183,
    "764": 10184,
    "681": 10185,
    "652": 10186,
    "171": 10187,
    "007": 10188,
    "록": 10189,
    "ผ": 10190,
    "Ġversion": 10191,
    "Ġut": 10192,
    "Ġtel": 10193,
    "Ġsym": 10194,
    "Ġshoes": 10195,
    "Ġrule": 10196,
    "Ġmarriage": 10197,
    "Ġgra": 10198,
    "Ġfeeling": 10199,
    "Ġexpress": 10200,
    "Ġelse": 10201,
    "Ġcities": 10202,
    "Ġbien": 10203,
    "Ġaddition": 10204,
    "ĠSquare": 10205,
    "ĠSk": 10206,
    "ĠSP": 10207,
    "ĠGarcia": 10208,
    "ĠDu": 10209,
    "úde": 10210,
    "éli": 10211,
    "vod": 10212,
    "utations": 10213,
    "upp": 10214,
    "ulas": 10215,
    "ucher": 10216,
    "turtle": 10217,
    "sure": 10218,
    "song": 10219,
    "ritt": 10220,
    "rijk": 10221,
    "raj": 10222,
    "ovi": 10223,
    "ounded": 10224,
    "opr": 10225,
    "ollo": 10226,
    "occup": 10227,
    "nj": 10228,
    "mens": 10229,
    "jer": 10230,
    "ivation": 10231,
    "ipline": 10232,
    "iph": 10233,
    "iores": 10234,
    "ikan": 10235,
    "hind": 10236,
    "forme": 10237,
    "fois": 10238,
    "eut": 10239,
    "esto": 10240,
    "ellig": 10241,
    "eful": 10242,
    "divide": 10243,
    "das": 10244,
    "crow": 10245,
    "consum": 10246,
    "cep": 10247,
    "balance": 10248,
    "azine": 10249,
    "arius": 10250,
    "answer": 10251,
    "_d": 10252,
    "Weight": 10253,
    "WM": 10254,
    "Stan": 10255,
    "Ray": 10256,
    "Piece": 10257,
    "Must": 10258,
    "Mech": 10259,
    "Lost": 10260,
    "Krist": 10261,
    "IVO": 10262,
    "Gre": 10263,
    "Dat": 10264,
    "Common": 10265,
    "Anc": 10266,
    "According": 10267,
    "568": 10268,
    "408": 10269,
    "232": 10270,
    "002": 10271,
    "-you": 10272,
    "-handed": 10273,
    "ấ": 10274,
    "Ġüber": 10275,
    "Ġturns": 10276,
    "Ġteacher": 10277,
    "Ġsoon": 10278,
    "Ġperverse": 10279,
    "Ġnas": 10280,
    "Ġlu": 10281,
    "Ġleg": 10282,
    "Ġident": 10283,
    "Ġforget": 10284,
    "Ġelé": 10285,
    "Ġdrive": 10286,
    "Ġcourt": 10287,
    "Ġbow": 10288,
    "Ġbelie": 10289,
    "ĠTJ": 10290,
    "ĠLuis": 10291,
    "ĠFinger": 10292,
    "ĠAP": 10293,
    "öt": 10294,
    "änn": 10295,
    "ulent": 10296,
    "spot": 10297,
    "sound": 10298,
    "sequently": 10299,
    "rule": 10300,
    "psy": 10301,
    "principal": 10302,
    "pizza": 10303,
    "paste": 10304,
    "overn": 10305,
    "meta": 10306,
    "lung": 10307,
    "levision": 10308,
    "jal": 10309,
    "iplina": 10310,
    "interesting": 10311,
    "incer": 10312,
    "imus": 10313,
    "ifferent": 10314,
    "general": 10315,
    "etc": 10316,
    "ervo": 10317,
    "danger": 10318,
    "dal": 10319,
    "coord": 10320,
    "comment": 10321,
    "cause": 10322,
    "bull": 10323,
    "bond": 10324,
    "bak": 10325,
    "atives": 10326,
    "alsa": 10327,
    "aki": 10328,
    "accur": 10329,
    "YL": 10330,
    "Vel": 10331,
    "TZ": 10332,
    "TL": 10333,
    "Sports": 10334,
    "Physical": 10335,
    "Null": 10336,
    "KR": 10337,
    "KP": 10338,
    "Interest": 10339,
    "However": 10340,
    "Error": 10341,
    "Crow": 10342,
    "Community": 10343,
    "CP": 10344,
    "Akt": 10345,
    "Ak": 10346,
    "908": 10347,
    "886": 10348,
    "823": 10349,
    "817": 10350,
    "776": 10351,
    "734": 10352,
    "722": 10353,
    "715": 10354,
    "063": 10355,
    "’": 10356,
    "Ġça": 10357,
    "Ġvoid": 10358,
    "Ġvis": 10359,
    "Ġvai": 10360,
    "Ġtom": 10361,
    "Ġthrone": 10362,
    "Ġrid": 10363,
    "Ġparty": 10364,
    "Ġpages": 10365,
    "Ġonce": 10366,
    "Ġmoving": 10367,
    "Ġmouse": 10368,
    "Ġlabor": 10369,
    "Ġidea": 10370,
    "Ġforma": 10371,
    "Ġescre": 10372,
    "Ġclothing": 10373,
    "Ġbeh": 10374,
    "ĠUnidos": 10375,
    "ĠThese": 10376,
    "ĠSaul": 10377,
    "zenie": 10378,
    "zb": 10379,
    "ulance": 10380,
    "tram": 10381,
    "service": 10382,
    "roe": 10383,
    "reffen": 10384,
    "lost": 10385,
    "locate": 10386,
    "jours": 10387,
    "iveau": 10388,
    "ingo": 10389,
    "ichern": 10390,
    "figure": 10391,
    "etherlands": 10392,
    "early": 10393,
    "dz": 10394,
    "doing": 10395,
    "datum": 10396,
    "chief": 10397,
    "bug": 10398,
    "because": 10399,
    "afen": 10400,
    "afe": 10401,
    "acons": 10402,
    "acción": 10403,
    "VID": 10404,
    "Spin": 10405,
    "Soft": 10406,
    "RIC": 10407,
    "Nova": 10408,
    "Morning": 10409,
    "Metro": 10410,
    "Loc": 10411,
    "LEY": 10412,
    "ION": 10413,
    "Gesture": 10414,
    "Easy": 10415,
    "Dub": 10416,
    "Destroy": 10417,
    "Adult": 10418,
    "Access": 10419,
    "589": 10420,
    "-related": 10421,
    "-and": 10422,
    "ế": 10423,
    "ำ": 10424,
    "าร": 10425,
    "še": 10426,
    "Ġzum": 10427,
    "Ġtruly": 10428,
    "Ġtard": 10429,
    "Ġspelling": 10430,
    "Ġsheet": 10431,
    "Ġlas": 10432,
    "Ġjunto": 10433,
    "Ġhappen": 10434,
    "Ġgate": 10435,
    "Ġeyebrows": 10436,
    "Ġexcellent": 10437,
    "Ġcop": 10438,
    "Ġcommunity": 10439,
    "ĠRep": 10440,
    "ĠRS": 10441,
    "ĠMin": 10442,
    "ĠFA": 10443,
    "ĠCast": 10444,
    "ĠCarlos": 10445,
    "ĠCA": 10446,
    "zip": 10447,
    "winter": 10448,
    "wick": 10449,
    "vide": 10450,
    "veral": 10451,
    "uum": 10452,
    "uster": 10453,
    "uiten": 10454,
    "ueil": 10455,
    "tit": 10456,
    "terr": 10457,
    "quist": 10458,
    "poster": 10459,
    "photo": 10460,
    "obby": 10461,
    "lf": 10462,
    "league": 10463,
    "laden": 10464,
    "install": 10465,
    "imen": 10466,
    "iliation": 10467,
    "ildo": 10468,
    "icipation": 10469,
    "fan": 10470,
    "emme": 10471,
    "drag": 10472,
    "destroy": 10473,
    "deep": 10474,
    "dead": 10475,
    "construct": 10476,
    "classifier": 10477,
    "circle": 10478,
    "ché": 10479,
    "building": 10480,
    "antium": 10481,
    "antal": 10482,
    "amber": 10483,
    "_se": 10484,
    "YC": 10485,
    "Wrap": 10486,
    "Thr": 10487,
    "Tar": 10488,
    "Scroll": 10489,
    "SB": 10490,
    "Repair": 10491,
    "RP": 10492,
    "ORT": 10493,
    "Motion": 10494,
    "Monitor": 10495,
    "Max": 10496,
    "KN": 10497,
    "ICE": 10498,
    "History": 10499,
    "Friendly": 10500,
    "Evaluation": 10501,
    "ETA": 10502,
    "DL": 10503,
    "DB": 10504,
    "Coffee": 10505,
    "Chron": 10506,
    "Anne": 10507,
    "ARR": 10508,
    "928": 10509,
    "751": 10510,
    "717": 10511,
    "091": 10512,
    "081": 10513,
    "-time": 10514,
    "ạ": 10515,
    "ła": 10516,
    "Ġ하": 10517,
    "Ġفي": 10518,
    "Ġuno": 10519,
    "Ġunless": 10520,
    "Ġtu": 10521,
    "Ġtela": 10522,
    "Ġrelationship": 10523,
    "Ġprogram": 10524,
    "Ġpra": 10525,
    "Ġpossible": 10526,
    "Ġones": 10527,
    "Ġmoved": 10528,
    "Ġmilk": 10529,
    "Ġloss": 10530,
    "Ġlights": 10531,
    "Ġigual": 10532,
    "Ġgives": 10533,
    "Ġconfig": 10534,
    "Ġangels": 10535,
    "Ġamor": 10536,
    "ĠMunicipal": 10537,
    "ĠCr": 10538,
    "ĠBirthday": 10539,
    "ære": 10540,
    "wid": 10541,
    "stor": 10542,
    "smooth": 10543,
    "reveal": 10544,
    "quent": 10545,
    "otto": 10546,
    "otation": 10547,
    "ossip": 10548,
    "opard": 10549,
    "nest": 10550,
    "neck": 10551,
    "leaf": 10552,
    "kw": 10553,
    "itel": 10554,
    "identally": 10555,
    "icol": 10556,
    "ibel": 10557,
    "iac": 10558,
    "fur": 10559,
    "employ": 10560,
    "effect": 10561,
    "dispatch": 10562,
    "dance": 10563,
    "chas": 10564,
    "cai": 10565,
    "bright": 10566,
    "borg": 10567,
    "boot": 10568,
    "blas": 10569,
    "bite": 10570,
    "aska": 10571,
    "arna": 10572,
    "ardi": 10573,
    "anza": 10574,
    "angular": 10575,
    "ambia": 10576,
    "akter": 10577,
    "aging": 10578,
    "activity": 10579,
    "SN": 10580,
    "Room": 10581,
    "River": 10582,
    "Pose": 10583,
    "Phot": 10584,
    "ONE": 10585,
    "Nice": 10586,
    "KH": 10587,
    "ILE": 10588,
    "IGO": 10589,
    "Grade": 10590,
    "Fi": 10591,
    "Explore": 10592,
    "Eric": 10593,
    "Construction": 10594,
    "Cong": 10595,
    "Bottom": 10596,
    "Alright": 10597,
    "AST": 10598,
    "236": 10599,
    "-ab": 10600,
    "$jos": 10601,
    "Ġي": 10602,
    "Ġvert": 10603,
    "Ġspot": 10604,
    "Ġpleasure": 10605,
    "Ġmême": 10606,
    "Ġmarried": 10607,
    "Ġlion": 10608,
    "Ġgrow": 10609,
    "Ġdevil": 10610,
    "Ġdej": 10611,
    "Ġactivity": 10612,
    "ĠVerde": 10613,
    "ĠSalvador": 10614,
    "ĠLingu": 10615,
    "ĠCristina": 10616,
    "ĠAmerican": 10617,
    "ços": 10618,
    "zl": 10619,
    "woord": 10620,
    "wang": 10621,
    "viron": 10622,
    "utura": 10623,
    "ughter": 10624,
    "sep": 10625,
    "riger": 10626,
    "rief": 10627,
    "rear": 10628,
    "project": 10629,
    "perm": 10630,
    "original": 10631,
    "ollar": 10632,
    "occupation": 10633,
    "nor": 10634,
    "nad": 10635,
    "mx": 10636,
    "manual": 10637,
    "lg": 10638,
    "issue": 10639,
    "isses": 10640,
    "icer": 10641,
    "host": 10642,
    "ften": 10643,
    "fte": 10644,
    "execute": 10645,
    "erate": 10646,
    "engan": 10647,
    "eker": 10648,
    "edge": 10649,
    "cuador": 10650,
    "crew": 10651,
    "cores": 10652,
    "core": 10653,
    "chain": 10654,
    "alent": 10655,
    "again": 10656,
    "abil": 10657,
    "ZN": 10658,
    "WE": 10659,
    "Tam": 10660,
    "TRA": 10661,
    "Square": 10662,
    "RGB": 10663,
    "Orth": 10664,
    "Moon": 10665,
    "Lon": 10666,
    "Lab": 10667,
    "Inspect": 10668,
    "HZ": 10669,
    "Grey": 10670,
    "Feel": 10671,
    "Everyone": 10672,
    "Donald": 10673,
    "DP": 10674,
    "DJ": 10675,
    "Circular": 10676,
    "Circle": 10677,
    "977": 10678,
    "912": 10679,
    "897": 10680,
    "797": 10681,
    "779": 10682,
    "771": 10683,
    "444": 10684,
    "368": 10685,
    "-un": 10686,
    "습": 10687,
    "Ġtestimony": 10688,
    "Ġstoria": 10689,
    "Ġpossess": 10690,
    "Ġpoder": 10691,
    "Ġpieces": 10692,
    "Ġordinal": 10693,
    "Ġobserve": 10694,
    "Ġmiddle": 10695,
    "Ġlost": 10696,
    "Ġhod": 10697,
    "Ġgreatly": 10698,
    "Ġeste": 10699,
    "Ġerr": 10700,
    "Ġdark": 10701,
    "Ġatr": 10702,
    "Ġanimals": 10703,
    "ĠRed": 10704,
    "ĠMore": 10705,
    "ĠGon": 10706,
    "ĠGe": 10707,
    "ĠCa": 10708,
    "ól": 10709,
    "veal": 10710,
    "uzzle": 10711,
    "ront": 10712,
    "phet": 10713,
    "ottes": 10714,
    "opo": 10715,
    "oped": 10716,
    "neighbor": 10717,
    "mg": 10718,
    "maybe": 10719,
    "married": 10720,
    "lut": 10721,
    "itzerland": 10722,
    "itudes": 10723,
    "isper": 10724,
    "inja": 10725,
    "inent": 10726,
    "hesive": 10727,
    "ences": 10728,
    "ematic": 10729,
    "conduct": 10730,
    "chin": 10731,
    "cano": 10732,
    "basket": 10733,
    "avec": 10734,
    "atica": 10735,
    "atemala": 10736,
    "assa": 10737,
    "asia": 10738,
    "agine": 10739,
    "_P": 10740,
    "YM": 10741,
    "Trash": 10742,
    "Tok": 10743,
    "Todos": 10744,
    "TD": 10745,
    "Registration": 10746,
    "Pod": 10747,
    "Pes": 10748,
    "Od": 10749,
    "NI": 10750,
    "Mart": 10751,
    "LP": 10752,
    "Das": 10753,
    "Combat": 10754,
    "Challenge": 10755,
    "Bern": 10756,
    "Bell": 10757,
    "Asia": 10758,
    "503": 10759,
    "-reg": 10760,
    "-li": 10761,
    "Ġtout": 10762,
    "Ġtext": 10763,
    "Ġterre": 10764,
    "Ġtears": 10765,
    "Ġstep": 10766,
    "Ġsize": 10767,
    "Ġsaints": 10768,
    "Ġrefer": 10769,
    "Ġprinces": 10770,
    "Ġpounds": 10771,
    "Ġpied": 10772,
    "Ġmember": 10773,
    "Ġgates": 10774,
    "Ġdurch": 10775,
    "Ġdeeds": 10776,
    "Ġchanges": 10777,
    "Ġbal": 10778,
    "ĠWochen": 10779,
    "ĠSa": 10780,
    "ĠPass": 10781,
    "ĠNeb": 10782,
    "ĠCD": 10783,
    "wine": 10784,
    "spin": 10785,
    "space": 10786,
    "someone": 10787,
    "sid": 10788,
    "ropol": 10789,
    "return": 10790,
    "resar": 10791,
    "rage": 10792,
    "piece": 10793,
    "pac": 10794,
    "ourse": 10795,
    "orable": 10796,
    "mr": 10797,
    "location": 10798,
    "jur": 10799,
    "ización": 10800,
    "istrar": 10801,
    "hare": 10802,
    "gone": 10803,
    "ersion": 10804,
    "ensa": 10805,
    "devil": 10806,
    "dere": 10807,
    "death": 10808,
    "crease": 10809,
    "container": 10810,
    "construction": 10811,
    "community": 10812,
    "cerr": 10813,
    "bles": 10814,
    "awl": 10815,
    "article": 10816,
    "agle": 10817,
    "abort": 10818,
    "Wal": 10819,
    "WO": 10820,
    "Une": 10821,
    "TK": 10822,
    "Sir": 10823,
    "Sac": 10824,
    "Py": 10825,
    "ORE": 10826,
    "MATCH": 10827,
    "Lit": 10828,
    "Kel": 10829,
    "Inv": 10830,
    "Inside": 10831,
    "IEL": 10832,
    "Hip": 10833,
    "Hang": 10834,
    "Hall": 10835,
    "EO": 10836,
    "Cy": 10837,
    "Copy": 10838,
    "CG": 10839,
    "CAL": 10840,
    "Bit": 10841,
    "ARC": 10842,
    "909": 10843,
    "863": 10844,
    "851": 10845,
    "812": 10846,
    "742": 10847,
    "670": 10848,
    "663": 10849,
    "640": 10850,
    "621": 10851,
    "397": 10852,
    "377": 10853,
    "047": 10854,
    "039": 10855,
    "-sk": 10856,
    "€": 10857,
    "ộ": 10858,
    "י": 10859,
    "Ġwhether": 10860,
    "Ġsang": 10861,
    "Ġquel": 10862,
    "Ġprincipal": 10863,
    "Ġourselves": 10864,
    "Ġnations": 10865,
    "Ġmo": 10866,
    "Ġmessage": 10867,
    "Ġmale": 10868,
    "Ġlow": 10869,
    "Ġjourney": 10870,
    "Ġdiagonal": 10871,
    "Ġdef": 10872,
    "Ġcloth": 10873,
    "Ġchurch": 10874,
    "Ġchat": 10875,
    "Ġcat": 10876,
    "Ġate": 10877,
    "Ġadvantage": 10878,
    "ĠSerg": 10879,
    "ĠNT": 10880,
    "ĠMac": 10881,
    "ĠBot": 10882,
    "ój": 10883,
    "vana": 10884,
    "uzz": 10885,
    "ugen": 10886,
    "ubo": 10887,
    "tipo": 10888,
    "stance": 10889,
    "stairs": 10890,
    "square": 10891,
    "sla": 10892,
    "skin": 10893,
    "role": 10894,
    "rine": 10895,
    "proper": 10896,
    "preci": 10897,
    "plement": 10898,
    "permit": 10899,
    "orp": 10900,
    "oire": 10901,
    "odem": 10902,
    "ocr": 10903,
    "obb": 10904,
    "nod": 10905,
    "nette": 10906,
    "negative": 10907,
    "medicine": 10908,
    "maint": 10909,
    "lys": 10910,
    "lish": 10911,
    "lias": 10912,
    "leader": 10913,
    "knife": 10914,
    "ingt": 10915,
    "gold": 10916,
    "global": 10917,
    "ference": 10918,
    "expert": 10919,
    "etermination": 10920,
    "ensible": 10921,
    "emm": 10922,
    "embr": 10923,
    "director": 10924,
    "apas": 10925,
    "agger": 10926,
    "agent": 10927,
    "YZ": 10928,
    "Windows": 10929,
    "VK": 10930,
    "Uniform": 10931,
    "Tier": 10932,
    "Tel": 10933,
    "Shoot": 10934,
    "Sheet": 10935,
    "Ron": 10936,
    "RM": 10937,
    "Pu": 10938,
    "Priv": 10939,
    "PB": 10940,
    "Object": 10941,
    "Los": 10942,
    "Live": 10943,
    "Leaf": 10944,
    "Got": 10945,
    "GER": 10946,
    "GBP": 10947,
    "ERR": 10948,
    "ERN": 10949,
    "ENE": 10950,
    "Cre": 10951,
    "Classifier": 10952,
    "Battle": 10953,
    "Appear": 10954,
    "AMB": 10955,
    "989": 10956,
    "248": 10957,
    "-pop": 10958,
    "ือ": 10959,
    "ד": 10960,
    "Ġweather": 10961,
    "Ġviel": 10962,
    "Ġthus": 10963,
    "Ġsul": 10964,
    "Ġspread": 10965,
    "Ġseries": 10966,
    "Ġsen": 10967,
    "Ġpressure": 10968,
    "Ġobey": 10969,
    "Ġneighbor": 10970,
    "Ġmu": 10971,
    "Ġmon": 10972,
    "Ġmedical": 10973,
    "Ġloves": 10974,
    "Ġhu": 10975,
    "Ġela": 10976,
    "Ġdrew": 10977,
    "Ġcontrary": 10978,
    "Ġcons": 10979,
    "Ġce": 10980,
    "Ġbless": 10981,
    "ĠPorto": 10982,
    "ĠJordan": 10983,
    "ĠEarth": 10984,
    "ĠChurch": 10985,
    "ĠAndrew": 10986,
    "íg": 10987,
    "ést": 10988,
    "ément": 10989,
    "ynam": 10990,
    "yan": 10991,
    "wall": 10992,
    "vido": 10993,
    "venge": 10994,
    "vec": 10995,
    "ustral": 10996,
    "uktur": 10997,
    "success": 10998,
    "sty": 10999,
    "stial": 11000,
    "serie": 11001,
    "seeing": 11002,
    "rosso": 11003,
    "reeting": 11004,
    "nit": 11005,
    "metros": 11006,
    "maximum": 11007,
    "lying": 11008,
    "iosa": 11009,
    "incip": 11010,
    "icap": 11011,
    "gui": 11012,
    "git": 11013,
    "fout": 11014,
    "formation": 11015,
    "feed": 11016,
    "ential": 11017,
    "ells": 11018,
    "cone": 11019,
    "cock": 11020,
    "campo": 11021,
    "buf": 11022,
    "apply": 11023,
    "anan": 11024,
    "agens": 11025,
    "abetes": 11026,
    "aa": 11027,
    "XP": 11028,
    "WW": 11029,
    "Ship": 11030,
    "Rh": 11031,
    "Rail": 11032,
    "QM": 11033,
    "Obj": 11034,
    "OE": 11035,
    "MX": 11036,
    "MIN": 11037,
    "Hist": 11038,
    "Hat": 11039,
    "Farm": 11040,
    "Fant": 11041,
    "Fair": 11042,
    "Creator": 11043,
    "Coord": 11044,
    "Children": 11045,
    "Cause": 11046,
    "Capture": 11047,
    "Bonjour": 11048,
    "BG": 11049,
    "Advice": 11050,
    "Abb": 11051,
    "ANTI": 11052,
    "675": 11053,
    "-pr": 11054,
    ",\"": 11055,
    "Ġvariation": 11056,
    "Ġsupport": 11057,
    "Ġsteps": 11058,
    "Ġsei": 11059,
    "Ġrunning": 11060,
    "Ġrou": 11061,
    "Ġox": 11062,
    "Ġmarch": 11063,
    "Ġinf": 11064,
    "Ġho": 11065,
    "Ġgovernor": 11066,
    "Ġfirm": 11067,
    "Ġeyel": 11068,
    "Ġentender": 11069,
    "Ġcro": 11070,
    "Ġcomb": 11071,
    "Ġbin": 11072,
    "Ġbaby": 11073,
    "ĠYes": 11074,
    "ĠRachel": 11075,
    "ĠMéd": 11076,
    "ĠLetters": 11077,
    "ĠLA": 11078,
    "ĠKK": 11079,
    "ĠInstituto": 11080,
    "ĠGhost": 11081,
    "ĠEven": 11082,
    "ĠEsther": 11083,
    "ĠCol": 11084,
    "ĠBlessed": 11085,
    "ôte": 11086,
    "écial": 11087,
    "äre": 11088,
    "¡": 11089,
[...]
